{
  "version": "1.0",
  "truncation": null,
  "padding": null,
  "added_tokens": [
    {
      "id": 0,
      "content": "[UNK]",
      "single_word": false,
      "lstrip": false,
      "rstrip": false,
      "normalized": false,
      "special": true
    },
    {
      "id": 1,
      "content": "[CLS]",
      "single_word": false,
      "lstrip": false,
      "rstrip": false,
      "normalized": false,
      "special": true
    },
    {
      "id": 2,
      "content": "[SEP]",
      "single_word": false,
      "lstrip": false,
      "rstrip": false,
      "normalized": false,
      "special": true
    },
    {
      "id": 3,
      "content": "[PAD]",
      "single_word": false,
      "lstrip": false,
      "rstrip": false,
      "normalized": false,
      "special": true
    },
    {
      "id": 4,
      "content": "[MASK]",
      "single_word": false,
      "lstrip": false,
      "rstrip": false,
      "normalized": false,
      "special": true
    }
  ],
  "normalizer": null,
  "pre_tokenizer": {
    "type": "Whitespace"
  },
  "post_processor": {
    "type": "TemplateProcessing",
    "single": [
      {
        "Sequence": {
          "id": "A",
          "type_id": 0
        }
      },
      {
        "SpecialToken": {
          "id": "[SEP]",
          "type_id": 0
        }
      }
    ],
    "pair": [
      {
        "Sequence": {
          "id": "A",
          "type_id": 0
        }
      },
      {
        "SpecialToken": {
          "id": "[SEP]",
          "type_id": 0
        }
      },
      {
        "Sequence": {
          "id": "B",
          "type_id": 1
        }
      },
      {
        "SpecialToken": {
          "id": "[SEP]",
          "type_id": 1
        }
      }
    ],
    "special_tokens": {
      "[SEP]": {
        "id": "[SEP]",
        "ids": [
          2
        ],
        "tokens": [
          "[SEP]"
        ]
      }
    }
  },
  "decoder": null,
  "model": {
    "type": "BPE",
    "dropout": null,
    "unk_token": "[UNK]",
    "continuing_subword_prefix": null,
    "end_of_word_suffix": null,
    "fuse_unk": false,
    "byte_fallback": false,
    "ignore_merges": false,
    "vocab": {
      "[UNK]": 0,
      "[CLS]": 1,
      "[SEP]": 2,
      "[PAD]": 3,
      "[MASK]": 4,
      "!": 5,
      "\"": 6,
      "#": 7,
      "$": 8,
      "%": 9,
      "&": 10,
      "'": 11,
      "(": 12,
      ")": 13,
      "*": 14,
      "+": 15,
      ",": 16,
      "-": 17,
      ".": 18,
      "/": 19,
      "0": 20,
      "1": 21,
      "2": 22,
      "3": 23,
      "4": 24,
      "5": 25,
      "6": 26,
      "7": 27,
      "8": 28,
      "9": 29,
      ":": 30,
      ";": 31,
      "<": 32,
      "=": 33,
      ">": 34,
      "?": 35,
      "@": 36,
      "A": 37,
      "B": 38,
      "C": 39,
      "D": 40,
      "E": 41,
      "F": 42,
      "G": 43,
      "H": 44,
      "I": 45,
      "J": 46,
      "K": 47,
      "L": 48,
      "M": 49,
      "N": 50,
      "O": 51,
      "P": 52,
      "Q": 53,
      "R": 54,
      "S": 55,
      "T": 56,
      "U": 57,
      "V": 58,
      "W": 59,
      "X": 60,
      "Y": 61,
      "Z": 62,
      "[": 63,
      "\\": 64,
      "]": 65,
      "^": 66,
      "_": 67,
      "`": 68,
      "a": 69,
      "b": 70,
      "c": 71,
      "d": 72,
      "e": 73,
      "f": 74,
      "g": 75,
      "h": 76,
      "i": 77,
      "j": 78,
      "k": 79,
      "l": 80,
      "m": 81,
      "n": 82,
      "o": 83,
      "p": 84,
      "q": 85,
      "r": 86,
      "s": 87,
      "t": 88,
      "u": 89,
      "v": 90,
      "w": 91,
      "x": 92,
      "y": 93,
      "z": 94,
      "|": 95,
      "}": 96,
      "~": 97,
      "": 98,
      "": 99,
      "¡": 100,
      "¢": 101,
      "£": 102,
      "¥": 103,
      "§": 104,
      "°": 105,
      "±": 106,
      "²": 107,
      "³": 108,
      "´": 109,
      "µ": 110,
      "·": 111,
      "º": 112,
      "½": 113,
      "¿": 114,
      "Á": 115,
      "Ä": 116,
      "Å": 117,
      "Æ": 118,
      "Ç": 119,
      "É": 120,
      "Í": 121,
      "Î": 122,
      "Ñ": 123,
      "Ó": 124,
      "Ö": 125,
      "×": 126,
      "Ø": 127,
      "Ú": 128,
      "Ü": 129,
      "Þ": 130,
      "ß": 131,
      "à": 132,
      "á": 133,
      "â": 134,
      "ã": 135,
      "ä": 136,
      "å": 137,
      "æ": 138,
      "ç": 139,
      "è": 140,
      "é": 141,
      "ê": 142,
      "ë": 143,
      "ì": 144,
      "í": 145,
      "î": 146,
      "ï": 147,
      "ð": 148,
      "ñ": 149,
      "ò": 150,
      "ó": 151,
      "ô": 152,
      "ö": 153,
      "ø": 154,
      "ù": 155,
      "ú": 156,
      "û": 157,
      "ü": 158,
      "ý": 159,
      "þ": 160,
      "Ā": 161,
      "ā": 162,
      "ă": 163,
      "ą": 164,
      "ć": 165,
      "Č": 166,
      "č": 167,
      "Đ": 168,
      "đ": 169,
      "Ē": 170,
      "ē": 171,
      "Ĕ": 172,
      "ĕ": 173,
      "ė": 174,
      "ę": 175,
      "ğ": 176,
      "ħ": 177,
      "ī": 178,
      "İ": 179,
      "ı": 180,
      "Ľ": 181,
      "Ł": 182,
      "ł": 183,
      "ń": 184,
      "Ō": 185,
      "ō": 186,
      "œ": 187,
      "ř": 188,
      "Ś": 189,
      "ś": 190,
      "Ş": 191,
      "ş": 192,
      "Š": 193,
      "š": 194,
      "ţ": 195,
      "ũ": 196,
      "ū": 197,
      "ů": 198,
      "ų": 199,
      "ź": 200,
      "Ż": 201,
      "ż": 202,
      "Ž": 203,
      "ž": 204,
      "ơ": 205,
      "ư": 206,
      "ǎ": 207,
      "ǔ": 208,
      "Ș": 209,
      "ș": 210,
      "ț": 211,
      "ȯ": 212,
      "ɐ": 213,
      "ɑ": 214,
      "ɒ": 215,
      "ɔ": 216,
      "ə": 217,
      "ɛ": 218,
      "ɜ": 219,
      "ɡ": 220,
      "ɢ": 221,
      "ɪ": 222,
      "ɫ": 223,
      "ɳ": 224,
      "ɽ": 225,
      "ɾ": 226,
      "ʁ": 227,
      "ʃ": 228,
      "ʊ": 229,
      "ʋ": 230,
      "ʒ": 231,
      "ʔ": 232,
      "ʕ": 233,
      "ʲ": 234,
      "ʻ": 235,
      "ʼ": 236,
      "ʾ": 237,
      "ʿ": 238,
      "ˈ": 239,
      "ˌ": 240,
      "ː": 241,
      "́": 242,
      "̃": 243,
      "̍": 244,
      "̥": 245,
      "̯": 246,
      "͍": 247,
      "Α": 248,
      "Δ": 249,
      "Κ": 250,
      "Ν": 251,
      "Π": 252,
      "Τ": 253,
      "Φ": 254,
      "Χ": 255,
      "Ω": 256,
      "ά": 257,
      "έ": 258,
      "ή": 259,
      "ί": 260,
      "α": 261,
      "β": 262,
      "γ": 263,
      "δ": 264,
      "ε": 265,
      "η": 266,
      "θ": 267,
      "ι": 268,
      "κ": 269,
      "λ": 270,
      "μ": 271,
      "ν": 272,
      "ξ": 273,
      "ο": 274,
      "π": 275,
      "ρ": 276,
      "ς": 277,
      "σ": 278,
      "τ": 279,
      "υ": 280,
      "χ": 281,
      "ψ": 282,
      "ω": 283,
      "ό": 284,
      "ύ": 285,
      "ώ": 286,
      "А": 287,
      "Б": 288,
      "В": 289,
      "Г": 290,
      "К": 291,
      "П": 292,
      "Р": 293,
      "С": 294,
      "У": 295,
      "Х": 296,
      "Я": 297,
      "а": 298,
      "в": 299,
      "г": 300,
      "д": 301,
      "е": 302,
      "ж": 303,
      "з": 304,
      "и": 305,
      "й": 306,
      "к": 307,
      "л": 308,
      "м": 309,
      "н": 310,
      "о": 311,
      "п": 312,
      "р": 313,
      "с": 314,
      "т": 315,
      "у": 316,
      "х": 317,
      "ц": 318,
      "ш": 319,
      "ъ": 320,
      "ы": 321,
      "ь": 322,
      "ю": 323,
      "я": 324,
      "є": 325,
      "ֵ": 326,
      "ֶ": 327,
      "ָ": 328,
      "ֹ": 329,
      "ּ": 330,
      "א": 331,
      "ב": 332,
      "ג": 333,
      "ה": 334,
      "ו": 335,
      "ז": 336,
      "ח": 337,
      "י": 338,
      "ל": 339,
      "ם": 340,
      "מ": 341,
      "ן": 342,
      "נ": 343,
      "ס": 344,
      "ף": 345,
      "פ": 346,
      "צ": 347,
      "ר": 348,
      "ש": 349,
      "ת": 350,
      "ء": 351,
      "أ": 352,
      "إ": 353,
      "ا": 354,
      "ب": 355,
      "ة": 356,
      "ت": 357,
      "ث": 358,
      "ج": 359,
      "ح": 360,
      "خ": 361,
      "د": 362,
      "ذ": 363,
      "ر": 364,
      "س": 365,
      "ش": 366,
      "ص": 367,
      "ع": 368,
      "ف": 369,
      "ق": 370,
      "ك": 371,
      "ل": 372,
      "م": 373,
      "ن": 374,
      "ه": 375,
      "و": 376,
      "ي": 377,
      "ܐ": 378,
      "ܕ": 379,
      "ܗ": 380,
      "ܝ": 381,
      "ܠ": 382,
      "ܢ": 383,
      "ܬ": 384,
      "ܲ": 385,
      "ܵ": 386,
      "ं": 387,
      "अ": 388,
      "ई": 389,
      "क": 390,
      "ग": 391,
      "ण": 392,
      "त": 393,
      "द": 394,
      "न": 395,
      "प": 396,
      "ब": 397,
      "म": 398,
      "य": 399,
      "र": 400,
      "ल": 401,
      "व": 402,
      "स": 403,
      "ह": 404,
      "ा": 405,
      "ि": 406,
      "ु": 407,
      "ू": 408,
      "े": 409,
      "ै": 410,
      "्": 411,
      "আ": 412,
      "ল": 413,
      "হ": 414,
      "া": 415,
      "্": 416,
      "ਅ": 417,
      "ਲ": 418,
      "ਹ": 419,
      "ਾ": 420,
      "ੁ": 421,
      "ੱ": 422,
      "അ": 423,
      "ള": 424,
      "ഹ": 425,
      "ാ": 426,
      "്": 427,
      "ก": 428,
      "ค": 429,
      "ง": 430,
      "ช": 431,
      "ซ": 432,
      "ญ": 433,
      "ฐ": 434,
      "ณ": 435,
      "ด": 436,
      "ต": 437,
      "น": 438,
      "บ": 439,
      "ป": 440,
      "พ": 441,
      "ภ": 442,
      "ม": 443,
      "ย": 444,
      "ร": 445,
      "ล": 446,
      "ว": 447,
      "ศ": 448,
      "ษ": 449,
      "ส": 450,
      "ห": 451,
      "อ": 452,
      "ฮ": 453,
      "ะ": 454,
      "ั": 455,
      "า": 456,
      "ิ": 457,
      "ี": 458,
      "ึ": 459,
      "เ": 460,
      "แ": 461,
      "ไ": 462,
      "็": 463,
      "่": 464,
      "้": 465,
      "๊": 466,
      "์": 467,
      "Ⴀ": 468,
      "Ⴂ": 469,
      "Ⴃ": 470,
      "Ⴈ": 471,
      "Ⴌ": 472,
      "Ⴕ": 473,
      "Ⴟ": 474,
      "ა": 475,
      "ბ": 476,
      "გ": 477,
      "დ": 478,
      "ე": 479,
      "ვ": 480,
      "ზ": 481,
      "თ": 482,
      "ი": 483,
      "კ": 484,
      "ლ": 485,
      "მ": 486,
      "ნ": 487,
      "ო": 488,
      "პ": 489,
      "ჟ": 490,
      "რ": 491,
      "ს": 492,
      "ტ": 493,
      "უ": 494,
      "ფ": 495,
      "ქ": 496,
      "ღ": 497,
      "ყ": 498,
      "შ": 499,
      "ჩ": 500,
      "ც": 501,
      "ძ": 502,
      "წ": 503,
      "ჭ": 504,
      "ხ": 505,
      "ჯ": 506,
      "ჰ": 507,
      "ჱ": 508,
      "ჲ": 509,
      "ჳ": 510,
      "ჴ": 511,
      "ჵ": 512,
      "ჶ": 513,
      "ჷ": 514,
      "ჸ": 515,
      "ჹ": 516,
      "ჺ": 517,
      "჻": 518,
      "ᵻ": 519,
      "ḍ": 520,
      "ḏ": 521,
      "Ḥ": 522,
      "ḥ": 523,
      "ḷ": 524,
      "ṃ": 525,
      "ṅ": 526,
      "ṇ": 527,
      "ṛ": 528,
      "ṣ": 529,
      "ṭ": 530,
      "ṯ": 531,
      "ạ": 532,
      "ả": 533,
      "ấ": 534,
      "ầ": 535,
      "ậ": 536,
      "ắ": 537,
      "ễ": 538,
      "ệ": 539,
      "ị": 540,
      "ọ": 541,
      "ỏ": 542,
      "ỗ": 543,
      "ộ": 544,
      "ớ": 545,
      "ứ": 546,
      "ử": 547,
      "ữ": 548,
      "ỳ": 549,
      "ỹ": 550,
      "ἀ": 551,
      "ἰ": 552,
      "ὀ": 553,
      "ὁ": 554,
      "ὑ": 555,
      "​": 556,
      "‐": 557,
      "‑": 558,
      "–": 559,
      "—": 560,
      "―": 561,
      "‘": 562,
      "’": 563,
      "“": 564,
      "”": 565,
      "„": 566,
      "†": 567,
      "‡": 568,
      "•": 569,
      "…": 570,
      "′": 571,
      "″": 572,
      "⁄": 573,
      "₣": 574,
      "₤": 575,
      "€": 576,
      "₹": 577,
      "⅓": 578,
      "⅔": 579,
      "→": 580,
      "−": 581,
      "≡": 582,
      "≤": 583,
      "①": 584,
      "☉": 585,
      "☫": 586,
      "♀": 587,
      "♭": 588,
      "♯": 589,
      "⚳": 590,
      "〈": 591,
      "〉": 592,
      "〜": 593,
      "あ": 594,
      "い": 595,
      "う": 596,
      "お": 597,
      "か": 598,
      "が": 599,
      "き": 600,
      "ぎ": 601,
      "く": 602,
      "ぐ": 603,
      "け": 604,
      "こ": 605,
      "ご": 606,
      "さ": 607,
      "し": 608,
      "す": 609,
      "ず": 610,
      "ぜ": 611,
      "た": 612,
      "だ": 613,
      "ち": 614,
      "っ": 615,
      "つ": 616,
      "と": 617,
      "な": 618,
      "に": 619,
      "の": 620,
      "は": 621,
      "ば": 622,
      "ひ": 623,
      "ふ": 624,
      "ほ": 625,
      "ま": 626,
      "み": 627,
      "め": 628,
      "も": 629,
      "ゃ": 630,
      "ゆ": 631,
      "ょ": 632,
      "ら": 633,
      "り": 634,
      "る": 635,
      "れ": 636,
      "わ": 637,
      "を": 638,
      "ん": 639,
      "ァ": 640,
      "ア": 641,
      "ィ": 642,
      "イ": 643,
      "ゥ": 644,
      "ェ": 645,
      "エ": 646,
      "ォ": 647,
      "オ": 648,
      "カ": 649,
      "ガ": 650,
      "キ": 651,
      "ク": 652,
      "グ": 653,
      "ゲ": 654,
      "コ": 655,
      "サ": 656,
      "シ": 657,
      "ジ": 658,
      "ス": 659,
      "ズ": 660,
      "セ": 661,
      "タ": 662,
      "ダ": 663,
      "チ": 664,
      "ッ": 665,
      "ツ": 666,
      "テ": 667,
      "デ": 668,
      "ト": 669,
      "ド": 670,
      "ナ": 671,
      "ニ": 672,
      "ネ": 673,
      "ノ": 674,
      "ハ": 675,
      "バ": 676,
      "パ": 677,
      "フ": 678,
      "ブ": 679,
      "プ": 680,
      "ヘ": 681,
      "ベ": 682,
      "マ": 683,
      "ミ": 684,
      "ム": 685,
      "モ": 686,
      "ャ": 687,
      "ュ": 688,
      "ョ": 689,
      "ラ": 690,
      "リ": 691,
      "ル": 692,
      "レ": 693,
      "ロ": 694,
      "ン": 695,
      "ヴ": 696,
      "・": 697,
      "ー": 698,
      "一": 699,
      "七": 700,
      "下": 701,
      "世": 702,
      "丙": 703,
      "中": 704,
      "主": 705,
      "乃": 706,
      "之": 707,
      "乙": 708,
      "九": 709,
      "二": 710,
      "云": 711,
      "人": 712,
      "今": 713,
      "付": 714,
      "作": 715,
      "侗": 716,
      "依": 717,
      "信": 718,
      "傳": 719,
      "儚": 720,
      "充": 721,
      "光": 722,
      "全": 723,
      "兵": 724,
      "其": 725,
      "具": 726,
      "円": 727,
      "再": 728,
      "出": 729,
      "判": 730,
      "前": 731,
      "剛": 732,
      "劇": 733,
      "劉": 734,
      "動": 735,
      "化": 736,
      "北": 737,
      "华": 738,
      "厂": 739,
      "去": 740,
      "古": 741,
      "可": 742,
      "台": 743,
      "史": 744,
      "同": 745,
      "名": 746,
      "君": 747,
      "吳": 748,
      "周": 749,
      "命": 750,
      "和": 751,
      "咲": 752,
      "善": 753,
      "四": 754,
      "國": 755,
      "園": 756,
      "圣": 757,
      "在": 758,
      "坂": 759,
      "堤": 760,
      "場": 761,
      "塘": 762,
      "夕": 763,
      "大": 764,
      "天": 765,
      "夫": 766,
      "女": 767,
      "妙": 768,
      "姚": 769,
      "子": 770,
      "孟": 771,
      "守": 772,
      "安": 773,
      "宋": 774,
      "完": 775,
      "宗": 776,
      "宝": 777,
      "宫": 778,
      "寝": 779,
      "寺": 780,
      "小": 781,
      "少": 782,
      "尾": 783,
      "山": 784,
      "岳": 785,
      "川": 786,
      "州": 787,
      "巳": 788,
      "市": 789,
      "師": 790,
      "平": 791,
      "广": 792,
      "庆": 793,
      "府": 794,
      "座": 795,
      "廬": 796,
      "建": 797,
      "式": 798,
      "張": 799,
      "彌": 800,
      "彩": 801,
      "彼": 802,
      "後": 803,
      "御": 804,
      "德": 805,
      "思": 806,
      "愛": 807,
      "憑": 808,
      "憶": 809,
      "應": 810,
      "懷": 811,
      "战": 812,
      "戦": 813,
      "扈": 814,
      "技": 815,
      "拉": 816,
      "拳": 817,
      "挑": 818,
      "揺": 819,
      "攻": 820,
      "放": 821,
      "政": 822,
      "散": 823,
      "斯": 824,
      "方": 825,
      "日": 826,
      "旦": 827,
      "旭": 828,
      "昌": 829,
      "明": 830,
      "星": 831,
      "春": 832,
      "晋": 833,
      "景": 834,
      "曦": 835,
      "月": 836,
      "望": 837,
      "未": 838,
      "本": 839,
      "李": 840,
      "村": 841,
      "杜": 842,
      "束": 843,
      "来": 844,
      "林": 845,
      "桜": 846,
      "梶": 847,
      "棘": 848,
      "椎": 849,
      "楊": 850,
      "楚": 851,
      "榮": 852,
      "橘": 853,
      "機": 854,
      "正": 855,
      "殻": 856,
      "殿": 857,
      "母": 858,
      "水": 859,
      "汉": 860,
      "沂": 861,
      "沙": 862,
      "河": 863,
      "泗": 864,
      "波": 865,
      "泣": 866,
      "洪": 867,
      "淹": 868,
      "清": 869,
      "湯": 870,
      "漢": 871,
      "澄": 872,
      "澤": 873,
      "火": 874,
      "灯": 875,
      "灵": 876,
      "灼": 877,
      "焼": 878,
      "熱": 879,
      "物": 880,
      "狐": 881,
      "狸": 882,
      "玄": 883,
      "王": 884,
      "玩": 885,
      "珂": 886,
      "珙": 887,
      "球": 888,
      "理": 889,
      "琦": 890,
      "琪": 891,
      "瓊": 892,
      "生": 893,
      "田": 894,
      "畢": 895,
      "番": 896,
      "瘡": 897,
      "白": 898,
      "皮": 899,
      "真": 900,
      "砲": 901,
      "礮": 902,
      "祈": 903,
      "神": 904,
      "祠": 905,
      "秋": 906,
      "空": 907,
      "立": 908,
      "精": 909,
      "約": 910,
      "絵": 911,
      "織": 912,
      "義": 913,
      "翠": 914,
      "者": 915,
      "耕": 916,
      "肖": 917,
      "胡": 918,
      "膀": 919,
      "臂": 920,
      "興": 921,
      "良": 922,
      "花": 923,
      "芳": 924,
      "芽": 925,
      "若": 926,
      "英": 927,
      "藕": 928,
      "藥": 929,
      "蘄": 930,
      "蘇": 931,
      "行": 932,
      "裁": 933,
      "規": 934,
      "覺": 935,
      "观": 936,
      "解": 937,
      "記": 938,
      "誓": 939,
      "誡": 940,
      "誰": 941,
      "謎": 942,
      "许": 943,
      "谭": 944,
      "豪": 945,
      "豫": 946,
      "費": 947,
      "贵": 948,
      "赤": 949,
      "趙": 950,
      "足": 951,
      "跡": 952,
      "転": 953,
      "辛": 954,
      "逆": 955,
      "遇": 956,
      "運": 957,
      "過": 958,
      "遠": 959,
      "選": 960,
      "邦": 961,
      "邱": 962,
      "部": 963,
      "郭": 964,
      "都": 965,
      "酈": 966,
      "里": 967,
      "野": 968,
      "金": 969,
      "銃": 970,
      "鋼": 971,
      "錄": 972,
      "錡": 973,
      "鍵": 974,
      "鐵": 975,
      "钱": 976,
      "铁": 977,
      "關": 978,
      "防": 979,
      "阿": 980,
      "陈": 981,
      "陳": 982,
      "陽": 983,
      "隊": 984,
      "階": 985,
      "集": 986,
      "雪": 987,
      "雲": 988,
      "霖": 989,
      "霹": 990,
      "靂": 991,
      "韓": 992,
      "願": 993,
      "顯": 994,
      "颜": 995,
      "马": 996,
      "高": 997,
      "龍": 998,
      "대": 999,
      "독": 1000,
      "라": 1001,
      "립": 1002,
      "병": 1003,
      "보": 1004,
      "부": 1005,
      "알": 1006,
      "연": 1007,
      "제": 1008,
      "ﷲ": 1009,
      "ﻋ": 1010,
      "﻿": 1011,
      "／": 1012,
      "３": 1013,
      "～": 1014,
      "�": 1015,
      "th": 1016,
      "in": 1017,
      "er": 1018,
      "an": 1019,
      "the": 1020,
      "on": 1021,
      "ed": 1022,
      "re": 1023,
      "at": 1024,
      "or": 1025,
      "en": 1026,
      "st": 1027,
      "al": 1028,
      "ar": 1029,
      "and": 1030,
      "of": 1031,
      "as": 1032,
      "es": 1033,
      "is": 1034,
      "ing": 1035,
      "to": 1036,
      "it": 1037,
      "ou": 1038,
      "ic": 1039,
      "ion": 1040,
      "he": 1041,
      "le": 1042,
      "ro": 1043,
      "ac": 1044,
      "il": 1045,
      "ent": 1046,
      "ad": 1047,
      "se": 1048,
      "am": 1049,
      "om": 1050,
      "be": 1051,
      "ly": 1052,
      "ch": 1053,
      "ur": 1054,
      "was": 1055,
      "for": 1056,
      "de": 1057,
      "ve": 1058,
      "The": 1059,
      "ol": 1060,
      "ir": 1061,
      "im": 1062,
      "-@": 1063,
      "@-@": 1064,
      "ig": 1065,
      "ver": 1066,
      "ow": 1067,
      "wh": 1068,
      "un": 1069,
      "ter": 1070,
      "ith": 1071,
      "ay": 1072,
      "ce": 1073,
      "ation": 1074,
      "con": 1075,
      "that": 1076,
      "with": 1077,
      "ag": 1078,
      "ct": 1079,
      "id": 1080,
      "te": 1081,
      "us": 1082,
      "by": 1083,
      "el": 1084,
      "ul": 1085,
      "ri": 1086,
      "ot": 1087,
      "ere": 1088,
      "ap": 1089,
      "res": 1090,
      "et": 1091,
      "19": 1092,
      "op": 1093,
      "ain": 1094,
      "com": 1095,
      "rom": 1096,
      "ers": 1097,
      "pl": 1098,
      "um": 1099,
      "ut": 1100,
      "ab": 1101,
      "oun": 1102,
      "all": 1103,
      "00": 1104,
      "his": 1105,
      "mo": 1106,
      "ist": 1107,
      "su": 1108,
      "are": 1109,
      "from": 1110,
      "pe": 1111,
      "pro": 1112,
      "In": 1113,
      "sh": 1114,
      "ne": 1115,
      "li": 1116,
      "tr": 1117,
      "ate": 1118,
      "cl": 1119,
      "os": 1120,
      "ther": 1121,
      "art": 1122,
      "ies": 1123,
      "em": 1124,
      "were": 1125,
      "od": 1126,
      "ong": 1127,
      "igh": 1128,
      "est": 1129,
      "ex": 1130,
      "ak": 1131,
      "oc": 1132,
      "ill": 1133,
      "ard": 1134,
      "ld": 1135,
      "ich": 1136,
      "ast": 1137,
      "ish": 1138,
      "di": 1139,
      "ber": 1140,
      "ant": 1141,
      "gh": 1142,
      "ity": 1143,
      "ort": 1144,
      "ame": 1145,
      "ated": 1146,
      "per": 1147,
      "man": 1148,
      "ess": 1149,
      "ive": 1150,
      "qu": 1151,
      "ment": 1152,
      "als": 1153,
      "out": 1154,
      "fe": 1155,
      "ack": 1156,
      "end": 1157,
      "vi": 1158,
      "had": 1159,
      "one": 1160,
      "ear": 1161,
      "tw": 1162,
      "over": 1163,
      "ough": 1164,
      "our": 1165,
      "ha": 1166,
      "which": 1167,
      "ord": 1168,
      "ra": 1169,
      "ge": 1170,
      "ound": 1171,
      "not": 1172,
      "ine": 1173,
      "rit": 1174,
      "but": 1175,
      "ally": 1176,
      "ass": 1177,
      "gr": 1178,
      "ud": 1179,
      "if": 1180,
      "ip": 1181,
      "act": 1182,
      "iv": 1183,
      "its": 1184,
      "Ch": 1185,
      "ian": 1186,
      "str": 1187,
      "ight": 1188,
      "ary": 1189,
      "her": 1190,
      "du": 1191,
      "fir": 1192,
      "own": 1193,
      "200": 1194,
      "av": 1195,
      "af": 1196,
      "up": 1197,
      "ous": 1198,
      "po": 1199,
      "20": 1200,
      "bl": 1201,
      "ore": 1202,
      "comp": 1203,
      "port": 1204,
      "St": 1205,
      "land": 1206,
      "ew": 1207,
      "der": 1208,
      "ev": 1209,
      "ach": 1210,
      "si": 1211,
      "their": 1212,
      "ep": 1213,
      "ical": 1214,
      "first": 1215,
      "wor": 1216,
      "ould": 1217,
      "age": 1218,
      "ia": 1219,
      "pr": 1220,
      "ll": 1221,
      "bo": 1222,
      "au": 1223,
      "ition": 1224,
      "also": 1225,
      "tim": 1226,
      "low": 1227,
      "ction": 1228,
      "pt": 1229,
      "lo": 1230,
      "form": 1231,
      "ater": 1232,
      "sc": 1233,
      "ign": 1234,
      "has": 1235,
      "ser": 1236,
      "ure": 1237,
      "ke": 1238,
      "att": 1239,
      "int": 1240,
      "ial": 1241,
      "rec": 1242,
      "play": 1243,
      "have": 1244,
      "other": 1245,
      "He": 1246,
      "18": 1247,
      "who": 1248,
      "ok": 1249,
      "ran": 1250,
      "ome": 1251,
      "part": 1252,
      "ence": 1253,
      "gu": 1254,
      "been": 1255,
      "two": 1256,
      "ree": 1257,
      "cont": 1258,
      ".@": 1259,
      "@.@": 1260,
      "pres": 1261,
      "aw": 1262,
      "uring": 1263,
      "off": 1264,
      "dis": 1265,
      "ile": 1266,
      "ory": 1267,
      "this": 1268,
      "sp": 1269,
      "me": 1270,
      "It": 1271,
      "des": 1272,
      "ade": 1273,
      "ult": 1274,
      "ite": 1275,
      "pos": 1276,
      "year": 1277,
      "they": 1278,
      "comm": 1279,
      "201": 1280,
      "cre": 1281,
      "vel": 1282,
      "An": 1283,
      "ell": 1284,
      "Th": 1285,
      "we": 1286,
      "after": 1287,
      "ans": 1288,
      "fin": 1289,
      "ren": 1290,
      "cent": 1291,
      "og": 1292,
      "ved": 1293,
      "br": 1294,
      "incl": 1295,
      "ations": 1296,
      "ue": 1297,
      "able": 1298,
      ",@": 1299,
      "@,@": 1300,
      "ice": 1301,
      "work": 1302,
      "urn": 1303,
      "ever": 1304,
      "ace": 1305,
      "no": 1306,
      "pre": 1307,
      "ric": 1308,
      "ark": 1309,
      "mer": 1310,
      "iz": 1311,
      "time": 1312,
      "Un": 1313,
      "ff": 1314,
      "ens": 1315,
      "co": 1316,
      "spe": 1317,
      "ance": 1318,
      "into": 1319,
      "ions": 1320,
      "more": 1321,
      "ship": 1322,
      "any": 1323,
      "ount": 1324,
      "ces": 1325,
      "most": 1326,
      "amp": 1327,
      "ath": 1328,
      "ced": 1329,
      "inter": 1330,
      "she": 1331,
      "tem": 1332,
      "red": 1333,
      "ason": 1334,
      "would": 1335,
      "Al": 1336,
      "cond": 1337,
      "him": 1338,
      "old": 1339,
      "ph": 1340,
      "ann": 1341,
      "used": 1342,
      "main": 1343,
      "ang": 1344,
      "ited": 1345,
      "cted": 1346,
      "ire": 1347,
      "ings": 1348,
      "ased": 1349,
      "fl": 1350,
      "ie": 1351,
      "fore": 1352,
      "bec": 1353,
      "mon": 1354,
      "min": 1355,
      "includ": 1356,
      "though": 1357,
      "ates": 1358,
      "ict": 1359,
      "Ar": 1360,
      "air": 1361,
      "way": 1362,
      "Au": 1363,
      "row": 1364,
      "vers": 1365,
      "new": 1366,
      "vis": 1367,
      "ail": 1368,
      "rough": 1369,
      "ood": 1370,
      "ft": 1371,
      "ake": 1372,
      "bu": 1373,
      "ob": 1374,
      "ase": 1375,
      "ry": 1376,
      "ick": 1377,
      "ents": 1378,
      "cess": 1379,
      "song": 1380,
      "ild": 1381,
      "only": 1382,
      "when": 1383,
      "arch": 1384,
      "gan": 1385,
      "under": 1386,
      "ubl": 1387,
      "reg": 1388,
      "ble": 1389,
      "them": 1390,
      "iss": 1391,
      "ors": 1392,
      "les": 1393,
      "col": 1394,
      "ose": 1395,
      "En": 1396,
      "during": 1397,
      "day": 1398,
      "ind": 1399,
      "kn": 1400,
      "ret": 1401,
      "game": 1402,
      "son": 1403,
      "ered": 1404,
      "Re": 1405,
      "ilm": 1406,
      "ward": 1407,
      "een": 1408,
      "gen": 1409,
      "ru": 1410,
      "can": 1411,
      "ollow": 1412,
      "outh": 1413,
      "about": 1414,
      "ide": 1415,
      "199": 1416,
      "ts": 1417,
      "season": 1418,
      "than": 1419,
      "nor": 1420,
      "ten": 1421,
      "lar": 1422,
      "oy": 1423,
      "some": 1424,
      "ern": 1425,
      "writ": 1426,
      "sy": 1427,
      "char": 1428,
      "while": 1429,
      "again": 1430,
      "three": 1431,
      "stru": 1432,
      "ational": 1433,
      "ular": 1434,
      "Com": 1435,
      "ty": 1436,
      "On": 1437,
      "so": 1438,
      "ful": 1439,
      "Wh": 1440,
      "tween": 1441,
      "between": 1442,
      "num": 1443,
      "produ": 1444,
      "record": 1445,
      "ron": 1446,
      "through": 1447,
      "ted": 1448,
      "ating": 1449,
      "where": 1450,
      "As": 1451,
      "ied": 1452,
      "later": 1453,
      "10": 1454,
      "rele": 1455,
      "spec": 1456,
      "view": 1457,
      "ames": 1458,
      "film": 1459,
      "ton": 1460,
      "cons": 1461,
      "ele": 1462,
      "ef": 1463,
      "rel": 1464,
      "ck": 1465,
      "Af": 1466,
      "ust": 1467,
      "ished": 1468,
      "set": 1469,
      "made": 1470,
      "Le": 1471,
      "sub": 1472,
      "ury": 1473,
      "my": 1474,
      "then": 1475,
      "New": 1476,
      "led": 1477,
      "do": 1478,
      "aid": 1479,
      "meric": 1480,
      "Americ": 1481,
      "bum": 1482,
      "ock": 1483,
      "ins": 1484,
      "sel": 1485,
      "ma": 1486,
      "appe": 1487,
      "sing": 1488,
      "000": 1489,
      "Jo": 1490,
      "follow": 1491,
      "go": 1492,
      "ters": 1493,
      "high": 1494,
      "second": 1495,
      "such": 1496,
      "rop": 1497,
      "ving": 1498,
      "four": 1499,
      "cap": 1500,
      "ari": 1501,
      "publ": 1502,
      "je": 1503,
      "ics": 1504,
      "16": 1505,
      "med": 1506,
      "well": 1507,
      "iel": 1508,
      "back": 1509,
      "At": 1510,
      "mus": 1511,
      "De": 1512,
      "ily": 1513,
      "This": 1514,
      "ual": 1515,
      "ific": 1516,
      "call": 1517,
      "..": 1518,
      "ven": 1519,
      "album": 1520,
      "before": 1521,
      "mi": 1522,
      "cri": 1523,
      "cur": 1524,
      "fer": 1525,
      "hel": 1526,
      "urch": 1527,
      "ars": 1528,
      "sup": 1529,
      "found": 1530,
      "12": 1531,
      "Eng": 1532,
      "being": 1533,
      "No": 1534,
      "ub": 1535,
      "there": 1536,
      "years": 1537,
      "ative": 1538,
      "sur": 1539,
      "15": 1540,
      "arri": 1541,
      "inn": 1542,
      "owever": 1543,
      "par": 1544,
      "use": 1545,
      "ale": 1546,
      "17": 1547,
      "ane": 1548,
      "add": 1549,
      "many": 1550,
      "known": 1551,
      "side": 1552,
      "long": 1553,
      "like": 1554,
      "number": 1555,
      "loc": 1556,
      "ave": 1557,
      "Nor": 1558,
      "point": 1559,
      "ird": 1560,
      "ities": 1561,
      "ros": 1562,
      "series": 1563,
      "velop": 1564,
      "olog": 1565,
      "ause": 1566,
      "reat": 1567,
      "mber": 1568,
      "ince": 1569,
      "unt": 1570,
      "orn": 1571,
      "cept": 1572,
      "line": 1573,
      "Con": 1574,
      "ines": 1575,
      "cho": 1576,
      "both": 1577,
      "sever": 1578,
      "eng": 1579,
      "hn": 1580,
      "pop": 1581,
      "dire": 1582,
      "ise": 1583,
      "Brit": 1584,
      "epis": 1585,
      "ments": 1586,
      "including": 1587,
      "atch": 1588,
      "down": 1589,
      "igin": 1590,
      "against": 1591,
      "ode": 1592,
      "became": 1593,
      "uary": 1594,
      "oup": 1595,
      "charac": 1596,
      "Sh": 1597,
      "ress": 1598,
      "II": 1599,
      "feat": 1600,
      "ident": 1601,
      "ci": 1602,
      "198": 1603,
      "cer": 1604,
      "ek": 1605,
      "ond": 1606,
      "tain": 1607,
      "ield": 1608,
      "30": 1609,
      "Be": 1610,
      "ped": 1611,
      "descri": 1612,
      "Ro": 1613,
      "appear": 1614,
      "ost": 1615,
      "United": 1616,
      "ised": 1617,
      "cle": 1618,
      "team": 1619,
      "John": 1620,
      "dec": 1621,
      "ures": 1622,
      "hy": 1623,
      "run": 1624,
      "suc": 1625,
      "bed": 1626,
      "develop": 1627,
      "peri": 1628,
      "century": 1629,
      "show": 1630,
      "After": 1631,
      "hist": 1632,
      "lead": 1633,
      "mem": 1634,
      "contin": 1635,
      "uch": 1636,
      "stor": 1637,
      "trans": 1638,
      "origin": 1639,
      "head": 1640,
      "lan": 1641,
      "mill": 1642,
      "pol": 1643,
      "194": 1644,
      "let": 1645,
      "ste": 1646,
      "oper": 1647,
      "west": 1648,
      "ley": 1649,
      "dam": 1650,
      "ball": 1651,
      "ves": 1652,
      "road": 1653,
      "sign": 1654,
      "sm": 1655,
      "several": 1656,
      "diff": 1657,
      "may": 1658,
      "began": 1659,
      "196": 1660,
      "ually": 1661,
      "She": 1662,
      "eral": 1663,
      "197": 1664,
      "Br": 1665,
      "une": 1666,
      "ject": 1667,
      "remain": 1668,
      "cord": 1669,
      "Se": 1670,
      "near": 1671,
      "early": 1672,
      "present": 1673,
      "war": 1674,
      "crit": 1675,
      "met": 1676,
      "nam": 1677,
      "cover": 1678,
      "ended": 1679,
      "az": 1680,
      "cy": 1681,
      "could": 1682,
      "did": 1683,
      "Mar": 1684,
      "ms": 1685,
      "called": 1686,
      "try": 1687,
      "Wor": 1688,
      "episode": 1689,
      "io": 1690,
      "leg": 1691,
      "por": 1692,
      "dep": 1693,
      "ople": 1694,
      "self": 1695,
      "For": 1696,
      "ib": 1697,
      "rece": 1698,
      "along": 1699,
      "aking": 1700,
      "vid": 1701,
      "large": 1702,
      "ash": 1703,
      "Is": 1704,
      "dist": 1705,
      "gg": 1706,
      "val": 1707,
      "13": 1708,
      "mil": 1709,
      "May": 1710,
      "pass": 1711,
      "said": 1712,
      "American": 1713,
      "ink": 1714,
      "ese": 1715,
      "press": 1716,
      "gust": 1717,
      "erson": 1718,
      "success": 1719,
      "tow": 1720,
      "these": 1721,
      "ized": 1722,
      "now": 1723,
      "open": 1724,
      "grap": 1725,
      "14": 1726,
      "ca": 1727,
      "tri": 1728,
      "Ger": 1729,
      "stem": 1730,
      "fam": 1731,
      "rist": 1732,
      "British": 1733,
      "50": 1734,
      "music": 1735,
      "until": 1736,
      "city": 1737,
      "start": 1738,
      "overn": 1739,
      "ross": 1740,
      "comple": 1741,
      "released": 1742,
      "xt": 1743,
      "Gr": 1744,
      "less": 1745,
      "itt": 1746,
      "same": 1747,
      "thern": 1748,
      "ived": 1749,
      "vol": 1750,
      "ists": 1751,
      "ah": 1752,
      "sim": 1753,
      "jor": 1754,
      "return": 1755,
      "plac": 1756,
      "ious": 1757,
      "km": 1758,
      "They": 1759,
      "state": 1760,
      "ank": 1761,
      "area": 1762,
      "design": 1763,
      "read": 1764,
      "oci": 1765,
      "million": 1766,
      "ouse": 1767,
      "fect": 1768,
      "formed": 1769,
      "men": 1770,
      "because": 1771,
      "oot": 1772,
      "ower": 1773,
      "each": 1774,
      "War": 1775,
      "offic": 1776,
      "Car": 1777,
      "che": 1778,
      "enn": 1779,
      "August": 1780,
      "la": 1781,
      "coun": 1782,
      "vide": 1783,
      "come": 1784,
      "Sep": 1785,
      "serv": 1786,
      "dr": 1787,
      "life": 1788,
      "east": 1789,
      "people": 1790,
      "chool": 1791,
      "ple": 1792,
      "car": 1793,
      "national": 1794,
      "book": 1795,
      "ris": 1796,
      "bod": 1797,
      "rote": 1798,
      "stral": 1799,
      "light": 1800,
      "six": 1801,
      "Eu": 1802,
      "support": 1803,
      "field": 1804,
      "Ju": 1805,
      "Col": 1806,
      "ather": 1807,
      "group": 1808,
      "iver": 1809,
      "around": 1810,
      "top": 1811,
      "ured": 1812,
      "Fe": 1813,
      "ision": 1814,
      "However": 1815,
      "Pl": 1816,
      "vent": 1817,
      "dom": 1818,
      "sol": 1819,
      "mark": 1820,
      "prote": 1821,
      "north": 1822,
      "consid": 1823,
      "character": 1824,
      "attack": 1825,
      "ales": 1826,
      "tember": 1827,
      "September": 1828,
      "will": 1829,
      "continu": 1830,
      "small": 1831,
      "get": 1832,
      "ext": 1833,
      "Bl": 1834,
      "position": 1835,
      "rest": 1836,
      "following": 1837,
      "ground": 1838,
      "World": 1839,
      "oth": 1840,
      "US": 1841,
      "fun": 1842,
      "stud": 1843,
      "contro": 1844,
      "Austral": 1845,
      "very": 1846,
      "ina": 1847,
      "lish": 1848,
      "requ": 1849,
      "Her": 1850,
      "ivers": 1851,
      "ural": 1852,
      "five": 1853,
      "stand": 1854,
      "ional": 1855,
      "result": 1856,
      "aim": 1857,
      "tit": 1858,
      "bers": 1859,
      "atter": 1860,
      "track": 1861,
      "gy": 1862,
      "ague": 1863,
      "ctor": 1864,
      "miss": 1865,
      "pon": 1866,
      "def": 1867,
      "what": 1868,
      "name": 1869,
      "cording": 1870,
      "11": 1871,
      "bre": 1872,
      "aged": 1873,
      "North": 1874,
      "Gu": 1875,
      "Me": 1876,
      "Fran": 1877,
      "report": 1878,
      "gun": 1879,
      "ired": 1880,
      "ism": 1881,
      "Wil": 1882,
      "cr": 1883,
      "cut": 1884,
      "ony": 1885,
      "prom": 1886,
      "played": 1887,
      "June": 1888,
      "allow": 1889,
      "cour": 1890,
      "tal": 1891,
      "week": 1892,
      "govern": 1893,
      "late": 1894,
      "ask": 1895,
      "ages": 1896,
      "oman": 1897,
      "0s": 1898,
      "ham": 1899,
      "Oc": 1900,
      "care": 1901,
      "ys": 1902,
      "vision": 1903,
      "cast": 1904,
      "Man": 1905,
      "25": 1906,
      "Jan": 1907,
      "dra": 1908,
      "final": 1909,
      "public": 1910,
      "ately": 1911,
      "since": 1912,
      "States": 1913,
      "Ac": 1914,
      "Cl": 1915,
      "ime": 1916,
      "species": 1917,
      "major": 1918,
      "ined": 1919,
      "reach": 1920,
      "count": 1921,
      "ling": 1922,
      "ained": 1923,
      "south": 1924,
      "received": 1925,
      "Mon": 1926,
      "South": 1927,
      "child": 1928,
      "app": 1929,
      "even": 1930,
      "build": 1931,
      "list": 1932,
      "last": 1933,
      "took": 1934,
      "appro": 1935,
      "class": 1936,
      "partic": 1937,
      "batt": 1938,
      "won": 1939,
      "ility": 1940,
      "Christ": 1941,
      "just": 1942,
      "star": 1943,
      "system": 1944,
      "King": 1945,
      "gre": 1946,
      "organ": 1947,
      "ork": 1948,
      "wards": 1949,
      "oss": 1950,
      "vari": 1951,
      "ilt": 1952,
      "described": 1953,
      "Par": 1954,
      "inc": 1955,
      "ains": 1956,
      "world": 1957,
      "named": 1958,
      "town": 1959,
      "place": 1960,
      "giv": 1961,
      "ards": 1962,
      "tober": 1963,
      "October": 1964,
      "band": 1965,
      "moved": 1966,
      "All": 1967,
      "pri": 1968,
      "ery": 1969,
      "constru": 1970,
      "liam": 1971,
      "ute": 1972,
      "water": 1973,
      "incre": 1974,
      "ude": 1975,
      "vious": 1976,
      "ropical": 1977,
      "aur": 1978,
      "ants": 1979,
      "ets": 1980,
      "kill": 1981,
      "sequ": 1982,
      "wrote": 1983,
      "York": 1984,
      "July": 1985,
      "camp": 1986,
      "hand": 1987,
      "Can": 1988,
      "ix": 1989,
      "due": 1990,
      "West": 1991,
      "ats": 1992,
      "ored": 1993,
      "ae": 1994,
      "rown": 1995,
      "ium": 1996,
      "During": 1997,
      "much": 1998,
      "fur": 1999,
      "power": 2000,
      "single": 2001,
      "Apr": 2002,
      "April": 2003,
      "ently": 2004,
      "ons": 2005,
      "ature": 2006,
      "tempt": 2007,
      "hum": 2008,
      "ically": 2009,
      "...": 2010,
      "differ": 2011,
      "death": 2012,
      "Euro": 2013,
      "ital": 2014,
      "order": 2015,
      "hal": 2016,
      "ove": 2017,
      "Mc": 2018,
      "tra": 2019,
      "gener": 2020,
      "German": 2021,
      "another": 2022,
      "195": 2023,
      "ships": 2024,
      "short": 2025,
      "included": 2026,
      "Sc": 2027,
      "arm": 2028,
      "ement": 2029,
      "event": 2030,
      "Ste": 2031,
      "person": 2032,
      "right": 2033,
      "January": 2034,
      "estab": 2035,
      "akes": 2036,
      "within": 2037,
      "England": 2038,
      "pect": 2039,
      "ians": 2040,
      "sent": 2041,
      "left": 2042,
      "based": 2043,
      "cas": 2044,
      "built": 2045,
      "fall": 2046,
      "beli": 2047,
      "claim": 2048,
      "although": 2049,
      "attempt": 2050,
      "ified": 2051,
      "family": 2052,
      "Ge": 2053,
      "March": 2054,
      "home": 2055,
      "games": 2056,
      "third": 2057,
      "ense": 2058,
      "que": 2059,
      "jo": 2060,
      "turn": 2061,
      "best": 2062,
      "dest": 2063,
      "Nove": 2064,
      "school": 2065,
      "previous": 2066,
      "ting": 2067,
      "roy": 2068,
      "ax": 2069,
      "story": 2070,
      "ulation": 2071,
      "193": 2072,
      "expl": 2073,
      "November": 2074,
      "review": 2075,
      "ilar": 2076,
      "And": 2077,
      "ially": 2078,
      "issu": 2079,
      "period": 2080,
      "His": 2081,
      "By": 2082,
      "ops": 2083,
      "flu": 2084,
      "government": 2085,
      "Europe": 2086,
      "ster": 2087,
      "Pr": 2088,
      "Sp": 2089,
      "adv": 2090,
      "chan": 2091,
      "mar": 2092,
      "ls": 2093,
      "Dece": 2094,
      "make": 2095,
      "Ad": 2096,
      "mb": 2097,
      "using": 2098,
      "December": 2099,
      "those": 2100,
      "Pro": 2101,
      "We": 2102,
      "storm": 2103,
      "urric": 2104,
      "king": 2105,
      "ral": 2106,
      "ush": 2107,
      "avy": 2108,
      "There": 2109,
      "ref": 2110,
      "ched": 2111,
      "ness": 2112,
      "ston": 2113,
      "City": 2114,
      "ai": 2115,
      "real": 2116,
      "original": 2117,
      "ought": 2118,
      "company": 2119,
      "ler": 2120,
      "bro": 2121,
      "command": 2122,
      "fact": 2123,
      "match": 2124,
      "ences": 2125,
      "fac": 2126,
      "ety": 2127,
      "month": 2128,
      "When": 2129,
      "Or": 2130,
      "itary": 2131,
      "auth": 2132,
      "24": 2133,
      "stit": 2134,
      "trad": 2135,
      "Li": 2136,
      "gram": 2137,
      "aff": 2138,
      "stri": 2139,
      "National": 2140,
      "oung": 2141,
      "Bo": 2142,
      "Ph": 2143,
      "2009": 2144,
      "sk": 2145,
      "club": 2146,
      "video": 2147,
      "ze": 2148,
      "26": 2149,
      "2008": 2150,
      "raft": 2151,
      "2010": 2152,
      "rench": 2153,
      "colle": 2154,
      "21": 2155,
      "church": 2156,
      "tract": 2157,
      "River": 2158,
      "thing": 2159,
      "ides": 2160,
      "ivision": 2161,
      "28": 2162,
      "role": 2163,
      "lim": 2164,
      "mag": 2165,
      "still": 2166,
      "23": 2167,
      "arn": 2168,
      "forman": 2169,
      "move": 2170,
      "ends": 2171,
      "iversity": 2172,
      "player": 2173,
      "possi": 2174,
      "Co": 2175,
      "mp": 2176,
      "ensive": 2177,
      "mid": 2178,
      "local": 2179,
      "Gen": 2180,
      "Pe": 2181,
      "ged": 2182,
      "Indi": 2183,
      "addition": 2184,
      "Dy": 2185,
      "100": 2186,
      "came": 2187,
      "often": 2188,
      "version": 2189,
      "put": 2190,
      "vo": 2191,
      "und": 2192,
      "history": 2193,
      "idge": 2194,
      "aken": 2195,
      "site": 2196,
      "former": 2197,
      "bert": 2198,
      "say": 2199,
      "quar": 2200,
      "half": 2201,
      "draw": 2202,
      "fel": 2203,
      "urricane": 2204,
      "sou": 2205,
      "ggest": 2206,
      "init": 2207,
      "lor": 2208,
      "den": 2209,
      "ending": 2210,
      "continued": 2211,
      "house": 2212,
      "round": 2213,
      "ali": 2214,
      "ution": 2215,
      "body": 2216,
      "considered": 2217,
      "Inter": 2218,
      "inning": 2219,
      "suggest": 2220,
      "next": 2221,
      "2007": 2222,
      "effect": 2223,
      "One": 2224,
      "mand": 2225,
      "ared": 2226,
      "ribut": 2227,
      "refer": 2228,
      "fri": 2229,
      "similar": 2230,
      "placed": 2231,
      "recorded": 2232,
      "English": 2233,
      "published": 2234,
      "French": 2235,
      "import": 2236,
      "few": 2237,
      "career": 2238,
      "wind": 2239,
      "held": 2240,
      "beg": 2241,
      "Batt": 2242,
      "Per": 2243,
      "aster": 2244,
      "Te": 2245,
      "ator": 2246,
      "performan": 2247,
      "take": 2248,
      "chang": 2249,
      "production": 2250,
      "Ear": 2251,
      "ico": 2252,
      "imes": 2253,
      "posed": 2254,
      "graph": 2255,
      "different": 2256,
      "sty": 2257,
      "aining": 2258,
      "commun": 2259,
      "ps": 2260,
      "fort": 2261,
      "bar": 2262,
      "craft": 2263,
      "With": 2264,
      "Bar": 2265,
      "you": 2266,
      "oute": 2267,
      "without": 2268,
      "ampion": 2269,
      "songs": 2270,
      "fr": 2271,
      "written": 2272,
      "27": 2273,
      "action": 2274,
      "polit": 2275,
      "Mus": 2276,
      "force": 2277,
      "eved": 2278,
      "strong": 2279,
      "among": 2280,
      "struct": 2281,
      "wood": 2282,
      "level": 2283,
      "22": 2284,
      "Ser": 2285,
      "gl": 2286,
      "ford": 2287,
      "State": 2288,
      "ik": 2289,
      "seven": 2290,
      "iment": 2291,
      "Tr": 2292,
      "days": 2293,
      "every": 2294,
      "stead": 2295,
      "white": 2296,
      "Char": 2297,
      "ology": 2298,
      "fire": 2299,
      "win": 2300,
      "iter": 2301,
      "itar": 2302,
      "Division": 2303,
      "2011": 2304,
      "larg": 2305,
      "release": 2306,
      "bird": 2307,
      "foot": 2308,
      "tropical": 2309,
      "further": 2310,
      "find": 2311,
      "become": 2312,
      "2006": 2313,
      "According": 2314,
      "Church": 2315,
      "Although": 2316,
      "Canad": 2317,
      "however": 2318,
      "test": 2319,
      "author": 2320,
      "ering": 2321,
      "prof": 2322,
      "cor": 2323,
      "pite": 2324,
      "augh": 2325,
      "respon": 2326,
      "particular": 2327,
      "how": 2328,
      "ox": 2329,
      "wide": 2330,
      "Port": 2331,
      "title": 2332,
      "fan": 2333,
      "tele": 2334,
      "Tw": 2335,
      "hold": 2336,
      "ning": 2337,
      "military": 2338,
      "Mo": 2339,
      "Roman": 2340,
      "members": 2341,
      "League": 2342,
      "popular": 2343,
      "direct": 2344,
      "cial": 2345,
      "cult": 2346,
      "sit": 2347,
      "ives": 2348,
      "ctions": 2349,
      "itch": 2350,
      "omin": 2351,
      "histor": 2352,
      "ittle": 2353,
      "udi": 2354,
      "ided": 2355,
      "ices": 2356,
      "times": 2357,
      "Song": 2358,
      "pen": 2359,
      "bruary": 2360,
      "February": 2361,
      "clear": 2362,
      "Pol": 2363,
      "uc": 2364,
      "indu": 2365,
      "moder": 2366,
      "lost": 2367,
      "scen": 2368,
      "bur": 2369,
      "Geor": 2370,
      "gave": 2371,
      "na": 2372,
      "produced": 2373,
      "successful": 2374,
      "reported": 2375,
      "provid": 2376,
      "Dylan": 2377,
      "Miss": 2378,
      "divid": 2379,
      "served": 2380,
      "Park": 2381,
      "post": 2382,
      "itions": 2383,
      "ama": 2384,
      "night": 2385,
      "total": 2386,
      "Des": 2387,
      "flo": 2388,
      "bas": 2389,
      "search": 2390,
      "sure": 2391,
      "away": 2392,
      "2012": 2393,
      "Old": 2394,
      "ively": 2395,
      "common": 2396,
      "rad": 2397,
      "ney": 2398,
      "Comp": 2399,
      "net": 2400,
      "ister": 2401,
      "decl": 2402,
      "children": 2403,
      "given": 2404,
      "chn": 2405,
      "apan": 2406,
      "Ha": 2407,
      "seen": 2408,
      "forces": 2409,
      "Sim": 2410,
      "fron": 2411,
      "atic": 2412,
      "tour": 2413,
      "ception": 2414,
      "see": 2415,
      "face": 2416,
      "ges": 2417,
      "vict": 2418,
      "stated": 2419,
      "els": 2420,
      "having": 2421,
      "close": 2422,
      "critic": 2423,
      "Japan": 2424,
      "omen": 2425,
      "ably": 2426,
      "ailed": 2427,
      "tro": 2428,
      "stre": 2429,
      "plan": 2430,
      "exp": 2431,
      "include": 2432,
      "29": 2433,
      "To": 2434,
      "invol": 2435,
      "represent": 2436,
      "Count": 2437,
      "gar": 2438,
      "making": 2439,
      "influ": 2440,
      "capt": 2441,
      "Ne": 2442,
      "great": 2443,
      "want": 2444,
      "alion": 2445,
      "eder": 2446,
      "Ma": 2447,
      "Afric": 2448,
      "country": 2449,
      "young": 2450,
      "compet": 2451,
      "ways": 2452,
      "ploy": 2453,
      "cus": 2454,
      "ier": 2455,
      "tell": 2456,
      "manag": 2457,
      "Cent": 2458,
      "look": 2459,
      "signific": 2460,
      "comb": 2461,
      "program": 2462,
      "General": 2463,
      "Har": 2464,
      "ances": 2465,
      "antic": 2466,
      "lands": 2467,
      "novel": 2468,
      "equ": 2469,
      "ours": 2470,
      "2013": 2471,
      "pur": 2472,
      "intro": 2473,
      "control": 2474,
      "40": 2475,
      "fem": 2476,
      "mm": 2477,
      "occur": 2478,
      "scri": 2479,
      "Air": 2480,
      "went": 2481,
      "word": 2482,
      "never": 2483,
      "rent": 2484,
      "Vi": 2485,
      "rap": 2486,
      "omet": 2487,
      "project": 2488,
      "compos": 2489,
      "depend": 2490,
      "BC": 2491,
      "construction": 2492,
      "lished": 2493,
      "should": 2494,
      "board": 2495,
      "change": 2496,
      "raised": 2497,
      "activ": 2498,
      "While": 2499,
      "mix": 2500,
      "Dav": 2501,
      "law": 2502,
      "writing": 2503,
      "Scot": 2504,
      "soci": 2505,
      "xim": 2506,
      "returned": 2507,
      "Su": 2508,
      "father": 2509,
      "ope": 2510,
      "works": 2511,
      "University": 2512,
      "developed": 2513,
      "bor": 2514,
      "chart": 2515,
      "aren": 2516,
      "established": 2517,
      "ks": 2518,
      "sound": 2519,
      "190": 2520,
      "key": 2521,
      "Ed": 2522,
      "dri": 2523,
      "god": 2524,
      "ither": 2525,
      "These": 2526,
      "announ": 2527,
      "America": 2528,
      "room": 2529,
      "population": 2530,
      "Ire": 2531,
      "ner": 2532,
      "ades": 2533,
      "introdu": 2534,
      "Jack": 2535,
      "mit": 2536,
      "coming": 2537,
      "amb": 2538,
      "reached": 2539,
      "Cor": 2540,
      "Ke": 2541,
      "ient": 2542,
      "earli": 2543,
      "range": 2544,
      "noted": 2545,
      "Ireland": 2546,
      "agre": 2547,
      "Black": 2548,
      "igade": 2549,
      "thought": 2550,
      "ument": 2551,
      "building": 2552,
      "across": 2553,
      "typ": 2554,
      "throughout": 2555,
      "ondon": 2556,
      "Mich": 2557,
      "aint": 2558,
      "cell": 2559,
      "human": 2560,
      "London": 2561,
      "hip": 2562,
      "sum": 2563,
      "Ex": 2564,
      "East": 2565,
      "teen": 2566,
      "William": 2567,
      "felt": 2568,
      "good": 2569,
      "ones": 2570,
      "acy": 2571,
      "full": 2572,
      "burn": 2573,
      "ara": 2574,
      "himself": 2575,
      "Reg": 2576,
      "development": 2577,
      "Ber": 2578,
      "black": 2579,
      "medi": 2580,
      "ological": 2581,
      "Wal": 2582,
      "iness": 2583,
      "nd": 2584,
      "performed": 2585,
      "fle": 2586,
      "complete": 2587,
      "suff": 2588,
      "sett": 2589,
      "Australia": 2590,
      "important": 2591,
      "significant": 2592,
      "eight": 2593,
      "lay": 2594,
      "60": 2595,
      "covered": 2596,
      "ivil": 2597,
      "Atl": 2598,
      "miles": 2599,
      "Mag": 2600,
      "ior": 2601,
      "ov": 2602,
      "ung": 2603,
      "live": 2604,
      "Rich": 2605,
      "Sy": 2606,
      "bus": 2607,
      "destroy": 2608,
      "modern": 2609,
      "nu": 2610,
      "ana": 2611,
      "itive": 2612,
      "interest": 2613,
      "television": 2614,
      "Pal": 2615,
      "Roy": 2616,
      "ring": 2617,
      "various": 2618,
      "style": 2619,
      "areas": 2620,
      "prim": 2621,
      "front": 2622,
      "appeared": 2623,
      "rew": 2624,
      "died": 2625,
      "aign": 2626,
      "cing": 2627,
      "cil": 2628,
      "need": 2629,
      "reek": 2630,
      "ogn": 2631,
      "relation": 2632,
      "TV": 2633,
      "ago": 2634,
      "others": 2635,
      "marri": 2636,
      "rock": 2637,
      "events": 2638,
      "does": 2639,
      "ots": 2640,
      "abor": 2641,
      "Road": 2642,
      "aver": 2643,
      "da": 2644,
      "mun": 2645,
      "too": 2646,
      "sex": 2647,
      "techn": 2648,
      "appoint": 2649,
      "started": 2650,
      "idence": 2651,
      "players": 2652,
      "mission": 2653,
      "High": 2654,
      "James": 2655,
      "fig": 2656,
      "omb": 2657,
      "gether": 2658,
      "Po": 2659,
      "ison": 2660,
      "icult": 2661,
      "feet": 2662,
      "reen": 2663,
      "stant": 2664,
      "experi": 2665,
      "ino": 2666,
      "iting": 2667,
      "poem": 2668,
      "ization": 2669,
      "Mont": 2670,
      "Mount": 2671,
      "ible": 2672,
      "nal": 2673,
      "vill": 2674,
      "ination": 2675,
      "performance": 2676,
      "County": 2677,
      "bes": 2678,
      "sl": 2679,
      "caused": 2680,
      "ising": 2681,
      "alth": 2682,
      "pred": 2683,
      "formation": 2684,
      "189": 2685,
      "Ab": 2686,
      "You": 2687,
      "El": 2688,
      "Pa": 2689,
      "ked": 2690,
      "quad": 2691,
      "ife": 2692,
      "mount": 2693,
      "grad": 2694,
      "Ham": 2695,
      "born": 2696,
      "osaur": 2697,
      "coast": 2698,
      "hind": 2699,
      "ality": 2700,
      "created": 2701,
      "Phil": 2702,
      "script": 2703,
      "2004": 2704,
      "ample": 2705,
      "relig": 2706,
      "rul": 2707,
      "entire": 2708,
      "ull": 2709,
      "ability": 2710,
      "2005": 2711,
      "inv": 2712,
      "era": 2713,
      "vert": 2714,
      "political": 2715,
      "So": 2716,
      "far": 2717,
      "van": 2718,
      "mother": 2719,
      "characters": 2720,
      "cir": 2721,
      "theast": 2722,
      "aly": 2723,
      "Sci": 2724,
      "ioned": 2725,
      "lect": 2726,
      "Som": 2727,
      "taken": 2728,
      "fight": 2729,
      "sw": 2730,
      "stone": 2731,
      "battle": 2732,
      "fav": 2733,
      "once": 2734,
      "exist": 2735,
      "Town": 2736,
      "cop": 2737,
      "asing": 2738,
      "uses": 2739,
      "arded": 2740,
      "Care": 2741,
      "Hist": 2742,
      "yard": 2743,
      "anim": 2744,
      "conne": 2745,
      "located": 2746,
      "killed": 2747,
      "ael": 2748,
      "lines": 2749,
      "ues": 2750,
      "ille": 2751,
      "remained": 2752,
      "grow": 2753,
      "uck": 2754,
      "tradition": 2755,
      "rain": 2756,
      "sess": 2757,
      "bet": 2758,
      "debut": 2759,
      "know": 2760,
      "completed": 2761,
      "Music": 2762,
      "Feder": 2763,
      "scored": 2764,
      "ublic": 2765,
      "difficult": 2766,
      "guns": 2767,
      "Kingdom": 2768,
      "har": 2769,
      "tar": 2770,
      "campaign": 2771,
      "announced": 2772,
      "Cup": 2773,
      "host": 2774,
      "ping": 2775,
      "stars": 2776,
      "ape": 2777,
      "meet": 2778,
      "Grand": 2779,
      "Australian": 2780,
      "stat": 2781,
      "peak": 2782,
      "region": 2783,
      "hab": 2784,
      "names": 2785,
      "ories": 2786,
      "bel": 2787,
      "Ang": 2788,
      "Sun": 2789,
      "process": 2790,
      "goal": 2791,
      "Company": 2792,
      "little": 2793,
      "instead": 2794,
      "added": 2795,
      "break": 2796,
      "enced": 2797,
      "member": 2798,
      "elect": 2799,
      "possible": 2800,
      "gin": 2801,
      "studi": 2802,
      "vest": 2803,
      "regular": 2804,
      "pression": 2805,
      "voc": 2806,
      "wife": 2807,
      "island": 2808,
      "least": 2809,
      "followed": 2810,
      "orse": 2811,
      "pair": 2812,
      "together": 2813,
      "aper": 2814,
      "cause": 2815,
      "tre": 2816,
      "originally": 2817,
      "months": 2818,
      "southern": 2819,
      "mot": 2820,
      "mass": 2821,
      "non": 2822,
      "ned": 2823,
      "comment": 2824,
      "Army": 2825,
      "Bra": 2826,
      "Some": 2827,
      "ique": 2828,
      "ky": 2829,
      "loss": 2830,
      "wall": 2831,
      "resident": 2832,
      "associ": 2833,
      "study": 2834,
      "David": 2835,
      "Bill": 2836,
      "fif": 2837,
      "ota": 2838,
      "playing": 2839,
      "cru": 2840,
      "hurricane": 2841,
      "sport": 2842,
      "women": 2843,
      "ened": 2844,
      "France": 2845,
      "Ev": 2846,
      "broad": 2847,
      "got": 2848,
      "reli": 2849,
      "recogn": 2850,
      "consist": 2851,
      "opened": 2852,
      "35": 2853,
      "termin": 2854,
      "eastern": 2855,
      "carri": 2856,
      "ata": 2857,
      "critics": 2858,
      "Champion": 2859,
      "2003": 2860,
      "base": 2861,
      "osp": 2862,
      "Robert": 2863,
      "eventually": 2864,
      "profess": 2865,
      "Love": 2866,
      "ey": 2867,
      "ho": 2868,
      "odes": 2869,
      "estim": 2870,
      "features": 2871,
      "cert": 2872,
      "God": 2873,
      "Min": 2874,
      "don": 2875,
      "mph": 2876,
      "2015": 2877,
      "cret": 2878,
      "SA": 2879,
      "fourth": 2880,
      "Du": 2881,
      "Val": 2882,
      "route": 2883,
      "decided": 2884,
      "birds": 2885,
      "vir": 2886,
      "forced": 2887,
      "clos": 2888,
      "aving": 2889,
      "tempor": 2890,
      "Two": 2891,
      "saw": 2892,
      "accept": 2893,
      "commer": 2894,
      "points": 2895,
      "graphy": 2896,
      "inal": 2897,
      "illa": 2898,
      "lack": 2899,
      "damage": 2900,
      "sold": 2901,
      "ica": 2902,
      "icated": 2903,
      "heavy": 2904,
      "impro": 2905,
      "leading": 2906,
      "azine": 2907,
      "ded": 2908,
      "either": 2909,
      "pat": 2910,
      "current": 2911,
      "Battalion": 2912,
      "Hen": 2913,
      "Mi": 2914,
      "Sw": 2915,
      "separ": 2916,
      "proble": 2917,
      "forms": 2918,
      "rick": 2919,
      "writer": 2920,
      "cup": 2921,
      "nar": 2922,
      "pie": 2923,
      "behind": 2924,
      "finished": 2925,
      "friend": 2926,
      "31": 2927,
      "dou": 2928,
      "ug": 2929,
      "individ": 2930,
      "believed": 2931,
      "Carey": 2932,
      "Mad": 2933,
      "Part": 2934,
      "dle": 2935,
      "special": 2936,
      "liament": 2937,
      "claimed": 2938,
      "vier": 2939,
      "condom": 2940,
      "Mor": 2941,
      "Red": 2942,
      "mater": 2943,
      "ida": 2944,
      "respect": 2945,
      "appearance": 2946,
      "Royal": 2947,
      "igned": 2948,
      "Play": 2949,
      "2nd": 2950,
      "Am": 2951,
      "Med": 2952,
      "sen": 2953,
      "sour": 2954,
      "lled": 2955,
      "fantry": 2956,
      "80": 2957,
      "Mex": 2958,
      "employ": 2959,
      "example": 2960,
      "Stre": 2961,
      "central": 2962,
      "langu": 2963,
      "service": 2964,
      "Day": 2965,
      "yards": 2966,
      "almost": 2967,
      "ington": 2968,
      "aves": 2969,
      "White": 2970,
      "directed": 2971,
      "western": 2972,
      "70": 2973,
      "Game": 2974,
      "case": 2975,
      "lin": 2976,
      "compl": 2977,
      "compan": 2978,
      "via": 2979,
      "European": 2980,
      "ators": 2981,
      "tel": 2982,
      "anti": 2983,
      "mean": 2984,
      "generally": 2985,
      "Federer": 2986,
      "cul": 2987,
      "hon": 2988,
      "towards": 2989,
      "elements": 2990,
      "Act": 2991,
      "heel": 2992,
      "river": 2993,
      "general": 2994,
      "Oli": 2995,
      "cross": 2996,
      "tail": 2997,
      "urb": 2998,
      "term": 2999,
      "concl": 3000,
      "assist": 3001,
      "stry": 3002,
      "lower": 3003,
      "brought": 3004,
      "Brigade": 3005,
      "ready": 3006,
      "weeks": 3007,
      "Wales": 3008,
      "fly": 3009,
      "stage": 3010,
      "ceed": 3011,
      "upon": 3012,
      "spir": 3013,
      "help": 3014,
      "International": 3015,
      "Flor": 3016,
      "San": 3017,
      "inch": 3018,
      "highway": 3019,
      "laun": 3020,
      "Rep": 3021,
      "free": 3022,
      "ply": 3023,
      "defe": 3024,
      "oted": 3025,
      "director": 3026,
      "featured": 3027,
      "Viet": 3028,
      "Ir": 3029,
      "Other": 3030,
      "date": 3031,
      "lam": 3032,
      "aircraft": 3033,
      "survi": 3034,
      "Cr": 3035,
      "nine": 3036,
      "My": 3037,
      "ration": 3038,
      "research": 3039,
      "contract": 3040,
      "ordan": 3041,
      "uk": 3042,
      "rail": 3043,
      "approach": 3044,
      "Str": 3045,
      "sts": 3046,
      "ids": 3047,
      "mode": 3048,
      "ocial": 3049,
      "meas": 3050,
      "iction": 3051,
      "45": 3052,
      "Ap": 3053,
      "gress": 3054,
      "condu": 3055,
      "parts": 3056,
      "George": 3057,
      "provided": 3058,
      "Follow": 3059,
      "Gal": 3060,
      "reve": 3061,
      "redu": 3062,
      "flood": 3063,
      "Jordan": 3064,
      "sea": 3065,
      "allowed": 3066,
      "AA": 3067,
      "From": 3068,
      "Rock": 3069,
      "nat": 3070,
      "istic": 3071,
      "audi": 3072,
      "Ho": 3073,
      "Jew": 3074,
      "sem": 3075,
      "section": 3076,
      "Thom": 3077,
      "cially": 3078,
      "certain": 3079,
      "earlier": 3080,
      "Paul": 3081,
      "House": 3082,
      "atin": 3083,
      "coll": 3084,
      "useum": 3085,
      "Mac": 3086,
      "rid": 3087,
      "reason": 3088,
      "ouri": 3089,
      "rather": 3090,
      "2014": 3091,
      "worked": 3092,
      "subsequ": 3093,
      "female": 3094,
      "Atlantic": 3095,
      "Cap": 3096,
      "Fir": 3097,
      "dy": 3098,
      "ishing": 3099,
      "pract": 3100,
      "love": 3101,
      "opening": 3102,
      "Christian": 3103,
      "Mary": 3104,
      "crew": 3105,
      "working": 3106,
      "III": 3107,
      "operations": 3108,
      "largest": 3109,
      "victory": 3110,
      "Following": 3111,
      "38": 3112,
      "Bay": 3113,
      "rang": 3114,
      "Command": 3115,
      "Island": 3116,
      "Hero": 3117,
      "particularly": 3118,
      "wanted": 3119,
      "manager": 3120,
      "Pri": 3121,
      "ding": 3122,
      "foc": 3123,
      "aries": 3124,
      "19th": 3125,
      "standing": 3126,
      "travel": 3127,
      "joined": 3128,
      "troops": 3129,
      "Don": 3130,
      "pers": 3131,
      "tee": 3132,
      "northern": 3133,
      "court": 3134,
      "Ver": 3135,
      "ault": 3136,
      "leng": 3137,
      "thod": 3138,
      "500": 3139,
      "stren": 3140,
      "hest": 3141,
      "evidence": 3142,
      "gra": 3143,
      "quest": 3144,
      "Florida": 3145,
      "conom": 3146,
      "emy": 3147,
      "engine": 3148,
      "counter": 3149,
      "Street": 3150,
      "past": 3151,
      "ita": 3152,
      "super": 3153,
      "outside": 3154,
      "185": 3155,
      "saying": 3156,
      "Most": 3157,
      "mach": 3158,
      "inj": 3159,
      "account": 3160,
      "ival": 3161,
      "cycl": 3162,
      "Mark": 3163,
      "Ze": 3164,
      "mal": 3165,
      "erous": 3166,
      "issue": 3167,
      "Tech": 3168,
      "hours": 3169,
      "ties": 3170,
      "ential": 3171,
      "whom": 3172,
      "streng": 3173,
      "ald": 3174,
      "sell": 3175,
      "avail": 3176,
      "minist": 3177,
      "Missouri": 3178,
      "FA": 3179,
      "tor": 3180,
      "oney": 3181,
      "2001": 3182,
      "188": 3183,
      "length": 3184,
      "drop": 3185,
      "gold": 3186,
      "hous": 3187,
      "stay": 3188,
      "deal": 3189,
      "territ": 3190,
      "aps": 3191,
      "plann": 3192,
      "quarter": 3193,
      "ming": 3194,
      "think": 3195,
      "station": 3196,
      "prob": 3197,
      "viol": 3198,
      "Qu": 3199,
      "Tor": 3200,
      "ken": 3201,
      "nomin": 3202,
      "acc": 3203,
      "ament": 3204,
      "type": 3205,
      "alter": 3206,
      "argu": 3207,
      "learn": 3208,
      "seem": 3209,
      "quick": 3210,
      "poor": 3211,
      "pool": 3212,
      "Bel": 3213,
      "Vir": 3214,
      "tic": 3215,
      "soon": 3216,
      "designed": 3217,
      "Cam": 3218,
      "Dep": 3219,
      "Gl": 3220,
      "bill": 3221,
      "dol": 3222,
      "hib": 3223,
      "amount": 3224,
      "ify": 3225,
      "ranch": 3226,
      "football": 3227,
      "Cro": 3228,
      "Coun": 3229,
      "pan": 3230,
      "praised": 3231,
      "aland": 3232,
      "Best": 3233,
      "ecut": 3234,
      "mel": 3235,
      "mult": 3236,
      "pain": 3237,
      "spo": 3238,
      "deli": 3239,
      "flight": 3240,
      "goals": 3241,
      "remains": 3242,
      "First": 3243,
      "phas": 3244,
      "uel": 3245,
      "Michael": 3246,
      "36": 3247,
      "Bus": 3248,
      "race": 3249,
      "ples": 3250,
      "pressed": 3251,
      "official": 3252,
      "winds": 3253,
      "appointed": 3254,
      "Dr": 3255,
      "Hel": 3256,
      "bi": 3257,
      "civil": 3258,
      "above": 3259,
      "discus": 3260,
      "increased": 3261,
      "Egy": 3262,
      "aut": 3263,
      "fre": 3264,
      "hom": 3265,
      "ials": 3266,
      "igg": 3267,
      "previously": 3268,
      "Hill": 3269,
      "invest": 3270,
      "replaced": 3271,
      "tolo": 3272,
      "units": 3273,
      "90": 3274,
      "ds": 3275,
      "taking": 3276,
      "stop": 3277,
      "passed": 3278,
      "ributed": 3279,
      "Richard": 3280,
      "75": 3281,
      "Que": 3282,
      "here": 3283,
      "must": 3284,
      "186": 3285,
      "interview": 3286,
      "maintain": 3287,
      "signed": 3288,
      "business": 3289,
      "relationship": 3290,
      "shot": 3291,
      "ize": 3292,
      "going": 3293,
      "structure": 3294,
      "Despite": 3295,
      "Henry": 3296,
      "hig": 3297,
      "pond": 3298,
      "bell": 3299,
      "ula": 3300,
      "Canada": 3301,
      "estimated": 3302,
      "Hol": 3303,
      "bow": 3304,
      "bri": 3305,
      "hard": 3306,
      "ti": 3307,
      "vice": 3308,
      "threat": 3309,
      "Carol": 3310,
      "bound": 3311,
      "oto": 3312,
      "treat": 3313,
      "ville": 3314,
      "itz": 3315,
      "aces": 3316,
      "olic": 3317,
      "comes": 3318,
      "quadron": 3319,
      "Brown": 3320,
      "native": 3321,
      "ray": 3322,
      "atory": 3323,
      "oring": 3324,
      "specific": 3325,
      "situ": 3326,
      "Oldham": 3327,
      "involved": 3328,
      "available": 3329,
      "But": 3330,
      "Em": 3331,
      "sat": 3332,
      "somet": 3333,
      "inst": 3334,
      "told": 3335,
      "Japanese": 3336,
      "highest": 3337,
      "President": 3338,
      "Times": 3339,
      "syn": 3340,
      "establish": 3341,
      "mixed": 3342,
      "Ter": 3343,
      "irth": 3344,
      "unk": 3345,
      "utes": 3346,
      "sia": 3347,
      "ption": 3348,
      "suggested": 3349,
      "Res": 3350,
      "cern": 3351,
      "hit": 3352,
      "ses": 3353,
      "thus": 3354,
      "touch": 3355,
      "ication": 3356,
      "cts": 3357,
      "actions": 3358,
      "inner": 3359,
      "turned": 3360,
      "scene": 3361,
      "introduced": 3362,
      "bit": 3363,
      "give": 3364,
      "sch": 3365,
      "watch": 3366,
      "league": 3367,
      "ention": 3368,
      "usually": 3369,
      "likely": 3370,
      "India": 3371,
      "Indian": 3372,
      "Olivier": 3373,
      "Gold": 3374,
      "Later": 3375,
      "NY": 3376,
      "School": 3377,
      "itself": 3378,
      "ami": 3379,
      "proper": 3380,
      "anna": 3381,
      "Arab": 3382,
      "transport": 3383,
      "Mexico": 3384,
      "Cong": 3385,
      "Pac": 3386,
      "enter": 3387,
      "responsi": 3388,
      "average": 3389,
      "Irish": 3390,
      "Rac": 3391,
      "cal": 3392,
      "rate": 3393,
      "educ": 3394,
      "ume": 3395,
      "lie": 3396,
      "occup": 3397,
      "block": 3398,
      "Star": 3399,
      "Super": 3400,
      "Egypt": 3401,
      "Rose": 3402,
      "Sm": 3403,
      "los": 3404,
      "usion": 3405,
      "ronic": 3406,
      "transfer": 3407,
      "damaged": 3408,
      "limited": 3409,
      "Mos": 3410,
      "hair": 3411,
      "size": 3412,
      "whose": 3413,
      "commiss": 3414,
      "recording": 3415,
      "possib": 3416,
      "village": 3417,
      "pot": 3418,
      "woman": 3419,
      "zz": 3420,
      "forward": 3421,
      "ries": 3422,
      "prepar": 3423,
      "habit": 3424,
      "Thomas": 3425,
      "fru": 3426,
      "hol": 3427,
      "happ": 3428,
      "aring": 3429,
      "respond": 3430,
      "ordered": 3431,
      "approxim": 3432,
      "religious": 3433,
      "Jer": 3434,
      "Pre": 3435,
      "Wheel": 3436,
      "oid": 3437,
      "prec": 3438,
      "text": 3439,
      "arts": 3440,
      "space": 3441,
      "temporary": 3442,
      "Hall": 3443,
      "Mal": 3444,
      "Mid": 3445,
      "chap": 3446,
      "intens": 3447,
      "icted": 3448,
      "object": 3449,
      "Britain": 3450,
      "shows": 3451,
      "marked": 3452,
      "commercial": 3453,
      "Republic": 3454,
      "Cer": 3455,
      "social": 3456,
      "yer": 3457,
      "independ": 3458,
      "aters": 3459,
      "aled": 3460,
      "arily": 3461,
      "lected": 3462,
      "capital": 3463,
      "increasing": 3464,
      "Hurricane": 3465,
      "eding": 3466,
      "Guitar": 3467,
      "Many": 3468,
      "Tom": 3469,
      "econom": 3470,
      "lot": 3471,
      "ny": 3472,
      "thedr": 3473,
      "ody": 3474,
      "feel": 3475,
      "despite": 3476,
      "archae": 3477,
      "nearly": 3478,
      "listed": 3479,
      "changes": 3480,
      "Mer": 3481,
      "nation": 3482,
      "Union": 3483,
      "Peter": 3484,
      "community": 3485,
      "Zealand": 3486,
      "fut": 3487,
      "defin": 3488,
      "agon": 3489,
      "pected": 3490,
      "ateg": 3491,
      "international": 3492,
      "surround": 3493,
      "asked": 3494,
      "Law": 3495,
      "daugh": 3496,
      "might": 3497,
      "states": 3498,
      "immedi": 3499,
      "exc": 3500,
      "box": 3501,
      "score": 3502,
      "cost": 3503,
      "inese": 3504,
      "initially": 3505,
      "Jin": 3506,
      "doc": 3507,
      "winning": 3508,
      "already": 3509,
      "ilities": 3510,
      "ctive": 3511,
      "execut": 3512,
      "commit": 3513,
      "That": 3514,
      "prevent": 3515,
      "related": 3516,
      "particip": 3517,
      "1st": 3518,
      "Card": 3519,
      "Hu": 3520,
      "NA": 3521,
      "aby": 3522,
      "failed": 3523,
      "sal": 3524,
      "enj": 3525,
      "ady": 3526,
      "nest": 3527,
      "Chinese": 3528,
      "Early": 3529,
      "Championship": 3530,
      "Pacific": 3531,
      "48": 3532,
      "Cath": 3533,
      "Sing": 3534,
      "rd": 3535,
      "espe": 3536,
      "according": 3537,
      "lies": 3538,
      "training": 3539,
      "occas": 3540,
      "bridge": 3541,
      "language": 3542,
      "probably": 3543,
      "especially": 3544,
      "food": 3545,
      "nel": 3546,
      "ett": 3547,
      "2002": 3548,
      "evol": 3549,
      "spent": 3550,
      "coach": 3551,
      "minor": 3552,
      "visit": 3553,
      "33": 3554,
      "Dan": 3555,
      "Tri": 3556,
      "mic": 3557,
      "nia": 3558,
      "urt": 3559,
      "moving": 3560,
      "phys": 3561,
      "studio": 3562,
      "natural": 3563,
      "Wheeler": 3564,
      "Sch": 3565,
      "ires": 3566,
      "liter": 3567,
      "pay": 3568,
      "inated": 3569,
      "ream": 3570,
      "aker": 3571,
      "includes": 3572,
      "arrived": 3573,
      "priv": 3574,
      "History": 3575,
      "39": 3576,
      "Awards": 3577,
      "Bal": 3578,
      "UK": 3579,
      "latter": 3580,
      "enough": 3581,
      "army": 3582,
      "acqu": 3583,
      "dead": 3584,
      "tons": 3585,
      "stein": 3586,
      "remaining": 3587,
      "quarters": 3588,
      "Canadian": 3589,
      "Angel": 3590,
      "thedral": 3591,
      "47": 3592,
      "Navy": 3593,
      "fail": 3594,
      "jour": 3595,
      "male": 3596,
      "apt": 3597,
      "notes": 3598,
      "active": 3599,
      "print": 3600,
      "ief": 3601,
      "sometimes": 3602,
      "Off": 3603,
      "bal": 3604,
      "mis": 3605,
      "rup": 3606,
      "ites": 3607,
      "ump": 3608,
      "aven": 3609,
      "187": 3610,
      "Arch": 3611,
      "Associ": 3612,
      "soldi": 3613,
      "required": 3614,
      "reviews": 3615,
      "circ": 3616,
      "approximately": 3617,
      "Film": 3618,
      "Je": 3619,
      "Light": 3620,
      "aj": 3621,
      "bot": 3622,
      "mat": 3623,
      "imp": 3624,
      "uded": 3625,
      "center": 3626,
      "rics": 3627,
      "FI": 3628,
      "ben": 3629,
      "cou": 3630,
      "slow": 3631,
      "entolo": 3632,
      "lymp": 3633,
      "perform": 3634,
      "2000": 3635,
      "decision": 3636,
      "beginning": 3637,
      "Africa": 3638,
      "Olymp": 3639,
      "fully": 3640,
      "ference": 3641,
      "running": 3642,
      "Virgin": 3643,
      "Creek": 3644,
      "Rus": 3645,
      "birth": 3646,
      "ga": 3647,
      "Scientolo": 3648,
      "better": 3649,
      "defeated": 3650,
      "flow": 3651,
      "mor": 3652,
      "whe": 3653,
      "staff": 3654,
      "ander": 3655,
      "additional": 3656,
      "Regiment": 3657,
      "Lo": 3658,
      "Ot": 3659,
      "bs": 3660,
      "asy": 3661,
      "concern": 3662,
      "president": 3663,
      "positive": 3664,
      "Art": 3665,
      "response": 3666,
      "Rachel": 3667,
      "Penn": 3668,
      "bio": 3669,
      "keep": 3670,
      "idea": 3671,
      "students": 3672,
      "constructed": 3673,
      "larger": 3674,
      "fleet": 3675,
      "Award": 3676,
      "hou": 3677,
      "mas": 3678,
      "zy": 3679,
      "conf": 3680,
      "appl": 3681,
      "aval": 3682,
      "poet": 3683,
      "ification": 3684,
      "supported": 3685,
      "Colle": 3686,
      "McC": 3687,
      "magazine": 3688,
      "changed": 3689,
      "Lu": 3690,
      "Sou": 3691,
      "frequ": 3692,
      "ores": 3693,
      "depression": 3694,
      "assigned": 3695,
      "pose": 3696,
      "pressure": 3697,
      "police": 3698,
      "prior": 3699,
      "Charles": 3700,
      "agreed": 3701,
      "uals": 3702,
      "stra": 3703,
      "amed": 3704,
      "cele": 3705,
      "osaurus": 3706,
      "material": 3707,
      "sil": 3708,
      "squ": 3709,
      "ases": 3710,
      "access": 3711,
      "teach": 3712,
      "shown": 3713,
      "screen": 3714,
      "1995": 3715,
      "Billboard": 3716,
      "Fort": 3717,
      "mir": 3718,
      "pet": 3719,
      "roll": 3720,
      "uments": 3721,
      "plays": 3722,
      "discovered": 3723,
      "subject": 3724,
      "selves": 3725,
      "feature": 3726,
      "rison": 3727,
      "fifth": 3728,
      "broadcast": 3729,
      "future": 3730,
      "ius": 3731,
      "contr": 3732,
      "provide": 3733,
      "Under": 3734,
      "Im": 3735,
      "pitch": 3736,
      "rat": 3737,
      "orm": 3738,
      "cean": 3739,
      "exam": 3740,
      "Scott": 3741,
      "37": 3742,
      "Oper": 3743,
      "RA": 3744,
      "Route": 3745,
      "kan": 3746,
      "enon": 3747,
      "becoming": 3748,
      "ifa": 3749,
      "temper": 3750,
      "Bri": 3751,
      "Sam": 3752,
      "Tur": 3753,
      "cm": 3754,
      "fill": 3755,
      "otion": 3756,
      "ishop": 3757,
      "colon": 3758,
      "surface": 3759,
      "Western": 3760,
      "summer": 3761,
      "paren": 3762,
      "edy": 3763,
      "sey": 3764,
      "defeat": 3765,
      "ept": 3766,
      "intended": 3767,
      "Wood": 3768,
      "gal": 3769,
      "uter": 3770,
      "rael": 3771,
      "operation": 3772,
      "smaller": 3773,
      "Frank": 3774,
      "professional": 3775,
      "Great": 3776,
      "Not": 3777,
      "fell": 3778,
      "ger": 3779,
      "link": 3780,
      "verse": 3781,
      "idents": 3782,
      "percent": 3783,
      "groups": 3784,
      "favor": 3785,
      "Scientology": 3786,
      "Year": 3787,
      "cred": 3788,
      "ih": 3789,
      "champion": 3790,
      "apo": 3791,
      "div": 3792,
      "pole": 3793,
      "mostly": 3794,
      "themselves": 3795,
      "metres": 3796,
      "alifor": 3797,
      "referred": 3798,
      "radio": 3799,
      "Haifa": 3800,
      "Camp": 3801,
      "Spe": 3802,
      "fa": 3803,
      "gent": 3804,
      "makes": 3805,
      "orial": 3806,
      "ili": 3807,
      "secur": 3808,
      "atest": 3809,
      "office": 3810,
      "2016": 3811,
      "minutes": 3812,
      "media": 3813,
      "stitute": 3814,
      "captured": 3815,
      "Croat": 3816,
      "How": 3817,
      "Since": 3818,
      "Var": 3819,
      "vic": 3820,
      "entered": 3821,
      "demon": 3822,
      "tray": 3823,
      "indic": 3824,
      "largely": 3825,
      "Parliament": 3826,
      "problems": 3827,
      "Association": 3828,
      "49": 3829,
      "Del": 3830,
      "Mil": 3831,
      "coup": 3832,
      "send": 3833,
      "veston": 3834,
      "reser": 3835,
      "artment": 3836,
      "bled": 3837,
      "ranked": 3838,
      "Che": 3839,
      "Lord": 3840,
      "Sur": 3841,
      "gir": 3842,
      "thick": 3843,
      "rein": 3844,
      "ously": 3845,
      "jected": 3846,
      "location": 3847,
      "orning": 3848,
      "Israel": 3849,
      "market": 3850,
      "Earth": 3851,
      "discuss": 3852,
      "Califor": 3853,
      "Gul": 3854,
      "Land": 3855,
      "ML": 3856,
      "ror": 3857,
      "ato": 3858,
      "enty": 3859,
      "ership": 3860,
      "iano": 3861,
      "pring": 3862,
      "contains": 3863,
      "rict": 3864,
      "flict": 3865,
      "stories": 3866,
      "closed": 3867,
      "Over": 3868,
      "money": 3869,
      "1999": 3870,
      "appears": 3871,
      "Bey": 3872,
      "voice": 3873,
      "experience": 3874,
      "Council": 3875,
      "Bro": 3876,
      "Haw": 3877,
      "nature": 3878,
      "yn": 3879,
      "adop": 3880,
      "aging": 3881,
      "guitar": 3882,
      "relative": 3883,
      "musical": 3884,
      "effects": 3885,
      "Galveston": 3886,
      "brief": 3887,
      "Ale": 3888,
      "hop": 3889,
      "ergy": 3890,
      "reme": 3891,
      "secut": 3892,
      "dev": 3893,
      "1950": 3894,
      "earth": 3895,
      "grant": 3896,
      "Chic": 3897,
      "create": 3898,
      "critical": 3899,
      "majority": 3900,
      "Jewish": 3901,
      "Kh": 3902,
      "ency": 3903,
      "iva": 3904,
      "Record": 3905,
      "culture": 3906,
      "jud": 3907,
      "ugu": 3908,
      "leaving": 3909,
      "election": 3910,
      "ario": 3911,
      "married": 3912,
      "schol": 3913,
      "bon": 3914,
      "rare": 3915,
      "attract": 3916,
      "depart": 3917,
      "vey": 3918,
      "ports": 3919,
      "Station": 3920,
      "load": 3921,
      "Another": 3922,
      "runs": 3923,
      "Brad": 3924,
      "primary": 3925,
      "Ca": 3926,
      "hus": 3927,
      "throw": 3928,
      "always": 3929,
      "lyrics": 3930,
      "lived": 3931,
      "upper": 3932,
      "minute": 3933,
      "writers": 3934,
      "films": 3935,
      "officers": 3936,
      "course": 3937,
      "gods": 3938,
      "iff": 3939,
      "mitted": 3940,
      "settle": 3941,
      "ospital": 3942,
      "launched": 3943,
      "California": 3944,
      "Fore": 3945,
      "La": 3946,
      "Sto": 3947,
      "wing": 3948,
      "deep": 3949,
      "determin": 3950,
      "traff": 3951,
      "illery": 3952,
      "teams": 3953,
      "onym": 3954,
      "equip": 3955,
      "quickly": 3956,
      "Catholic": 3957,
      "76": 3958,
      "If": 3959,
      "Mr": 3960,
      "Sol": 3961,
      "Sha": 3962,
      "fans": 3963,
      "insp": 3964,
      "ulated": 3965,
      "proposed": 3966,
      "neg": 3967,
      "emer": 3968,
      "meant": 3969,
      "episodes": 3970,
      "occurred": 3971,
      "Chicago": 3972,
      "Go": 3973,
      "Saint": 3974,
      "nis": 3975,
      "takes": 3976,
      "ining": 3977,
      "conv": 3978,
      "progress": 3979,
      "exper": 3980,
      "achi": 3981,
      "syl": 3982,
      "increase": 3983,
      "Battle": 3984,
      "fighting": 3985,
      "daughter": 3986,
      "whether": 3987,
      "Bow": 3988,
      "Latin": 3989,
      "Mart": 3990,
      "mur": 3991,
      "onto": 3992,
      "administ": 3993,
      "ellow": 3994,
      "fected": 3995,
      "Ital": 3996,
      "northeast": 3997,
      "cient": 3998,
      "books": 3999,
      "consider": 4000,
      "stream": 4001,
      "destroyed": 4002,
      "meaning": 4003,
      "traffic": 4004,
      "Cal": 4005,
      "Do": 4006,
      "Nix": 4007,
      "Sal": 4008,
      "Tour": 4009,
      "bad": 4010,
      "job": 4011,
      "ns": 4012,
      "andon": 4013,
      "trade": 4014,
      "hero": 4015,
      "bring": 4016,
      "Enter": 4017,
      "longer": 4018,
      "Central": 4019,
      "400": 4020,
      "Lou": 4021,
      "Ross": 4022,
      "Sever": 4023,
      "mom": 4024,
      "path": 4025,
      "sus": 4026,
      "wal": 4027,
      "theme": 4028,
      "umb": 4029,
      "vie": 4030,
      "Alice": 4031,
      "numbers": 4032,
      "Northern": 4033,
      "positions": 4034,
      "undred": 4035,
      "competition": 4036,
      "nucle": 4037,
      "carried": 4038,
      "soldiers": 4039,
      "Dj": 4040,
      "NC": 4041,
      "Tex": 4042,
      "kil": 4043,
      "mig": 4044,
      "leave": 4045,
      "semb": 4046,
      "olk": 4047,
      "awarded": 4048,
      "anger": 4049,
      "newsp": 4050,
      "celebr": 4051,
      "32": 4052,
      "3rd": 4053,
      "Mill": 4054,
      "Pat": 4055,
      "pit": 4056,
      "za": 4057,
      "plot": 4058,
      "boy": 4059,
      "1998": 4060,
      "directly": 4061,
      "piece": 4062,
      "conducted": 4063,
      "private": 4064,
      "Otto": 4065,
      "Dis": 4066,
      "Os": 4067,
      "Tre": 4068,
      "anal": 4069,
      "iser": 4070,
      "itor": 4071,
      "earned": 4072,
      "overall": 4073,
      "worth": 4074,
      "gue": 4075,
      "Alkan": 4076,
      "records": 4077,
      "Second": 4078,
      "attacks": 4079,
      "request": 4080,
      "subsequently": 4081,
      "Cour": 4082,
      "Liver": 4083,
      "Villa": 4084,
      "tom": 4085,
      "tourn": 4086,
      "itation": 4087,
      "1930": 4088,
      "plans": 4089,
      "20th": 4090,
      "weight": 4091,
      "bodies": 4092,
      "issued": 4093,
      "44": 4094,
      "Ty": 4095,
      "atops": 4096,
      "concert": 4097,
      "necess": 4098,
      "whole": 4099,
      "1993": 4100,
      "Polish": 4101,
      "industry": 4102,
      "influence": 4103,
      "commented": 4104,
      "double": 4105,
      "Jam": 4106,
      "Tay": 4107,
      "Tran": 4108,
      "done": 4109,
      "waters": 4110,
      "ón": 4111,
      "iny": 4112,
      "image": 4113,
      "actor": 4114,
      "serious": 4115,
      "finally": 4116,
      "Nixon": 4117,
      "Liverpool": 4118,
      "anish": 4119,
      "sets": 4120,
      "beat": 4121,
      "abs": 4122,
      "alled": 4123,
      "compared": 4124,
      "method": 4125,
      "finan": 4126,
      "greater": 4127,
      "personal": 4128,
      "scenes": 4129,
      "Georg": 4130,
      "network": 4131,
      "Somer": 4132,
      "Back": 4133,
      "Lady": 4134,
      "bomb": 4135,
      "cad": 4136,
      "pow": 4137,
      "purch": 4138,
      "anas": 4139,
      "bey": 4140,
      "unable": 4141,
      "concept": 4142,
      "suit": 4143,
      "prison": 4144,
      "party": 4145,
      "Its": 4146,
      "centre": 4147,
      "speed": 4148,
      "legal": 4149,
      "itting": 4150,
      "Texas": 4151,
      "Fow": 4152,
      "Foot": 4153,
      "Hum": 4154,
      "dig": 4155,
      "health": 4156,
      "deb": 4157,
      "istics": 4158,
      "expected": 4159,
      "discover": 4160,
      "aily": 4161,
      "mium": 4162,
      "standard": 4163,
      "buildings": 4164,
      "brother": 4165,
      "rapid": 4166,
      "Mosley": 4167,
      "Somerset": 4168,
      "300": 4169,
      "Tropical": 4170,
      "bury": 4171,
      "hood": 4172,
      "kind": 4173,
      "yet": 4174,
      "step": 4175,
      "shoot": 4176,
      "advant": 4177,
      "stitut": 4178,
      "Bob": 4179,
      "Boy": 4180,
      "Out": 4181,
      "Squadron": 4182,
      "Tenn": 4183,
      "cu": 4184,
      "cé": 4185,
      "dark": 4186,
      "information": 4187,
      "alo": 4188,
      "living": 4189,
      "bery": 4190,
      "1996": 4191,
      "begins": 4192,
      "traditional": 4193,
      "Busch": 4194,
      "Di": 4195,
      "Lake": 4196,
      "Ram": 4197,
      "bank": 4198,
      "kick": 4199,
      "escap": 4200,
      "ican": 4201,
      "terms": 4202,
      "possess": 4203,
      "giving": 4204,
      "aught": 4205,
      "status": 4206,
      "sylvan": 4207,
      "Vict": 4208,
      "hor": 4209,
      "edge": 4210,
      "withdraw": 4211,
      "ultim": 4212,
      "portion": 4213,
      "Christmas": 4214,
      "Spanish": 4215,
      "movement": 4216,
      "African": 4217,
      "marriage": 4218,
      "figure": 4219,
      "inspired": 4220,
      "Taylor": 4221,
      "Fle": 4222,
      "Met": 4223,
      "dated": 4224,
      "pil": 4225,
      "wa": 4226,
      "athan": 4227,
      "helped": 4228,
      "portray": 4229,
      "activity": 4230,
      "associated": 4231,
      "planned": 4232,
      "dollar": 4233,
      "Several": 4234,
      "Fowler": 4235,
      "Tem": 4236,
      "batter": 4237,
      "hic": 4238,
      "mes": 4239,
      "sched": 4240,
      "chall": 4241,
      "forts": 4242,
      "demand": 4243,
      "Three": 4244,
      "web": 4245,
      "regard": 4246,
      "Common": 4247,
      "starting": 4248,
      "tracks": 4249,
      "sequence": 4250,
      "schools": 4251,
      "suffered": 4252,
      "Sovi": 4253,
      "husband": 4254,
      "sembly": 4255,
      "Fin": 4256,
      "Ill": 4257,
      "Just": 4258,
      "Tru": 4259,
      "fit": 4260,
      "ram": 4261,
      "wound": 4262,
      "olf": 4263,
      "unit": 4264,
      "conflict": 4265,
      "cting": 4266,
      "Infantry": 4267,
      "shire": 4268,
      "venue": 4269,
      "allowing": 4270,
      "performances": 4271,
      "source": 4272,
      "machine": 4273,
      "34": 4274,
      "Games": 4275,
      "Jane": 4276,
      "ederal": 4277,
      "arc": 4278,
      "abandon": 4279,
      "continue": 4280,
      "presented": 4281,
      "incor": 4282,
      "Series": 4283,
      "expand": 4284,
      "Party": 4285,
      "condoms": 4286,
      "Live": 4287,
      "bid": 4288,
      "gas": 4289,
      "pi": 4290,
      "rical": 4291,
      "slight": 4292,
      "án": 4293,
      "atre": 4294,
      "presence": 4295,
      "photo": 4296,
      "polic": 4297,
      "greatest": 4298,
      "companies": 4299,
      "education": 4300,
      "Cast": 4301,
      "Long": 4302,
      "MS": 4303,
      "eu": 4304,
      "hu": 4305,
      "hundred": 4306,
      "park": 4307,
      "confir": 4308,
      "except": 4309,
      "nearby": 4310,
      "Paris": 4311,
      "Anderson": 4312,
      "Carolina": 4313,
      "document": 4314,
      "Virginia": 4315,
      "Pennsylvan": 4316,
      "Open": 4317,
      "Rad": 4318,
      "Ven": 4319,
      "rich": 4320,
      "ils": 4321,
      "ada": 4322,
      "prov": 4323,
      "anta": 4324,
      "log": 4325,
      "genus": 4326,
      "complex": 4327,
      "extended": 4328,
      "Acad": 4329,
      "Club": 4330,
      "collection": 4331,
      "composed": 4332,
      "types": 4333,
      "cyclone": 4334,
      "Queen": 4335,
      "AI": 4336,
      "Fre": 4337,
      "Six": 4338,
      "ience": 4339,
      "ker": 4340,
      "mist": 4341,
      "pick": 4342,
      "rum": 4343,
      "itude": 4344,
      "dem": 4345,
      "plant": 4346,
      "essa": 4347,
      "overnor": 4348,
      "itect": 4349,
      "weap": 4350,
      "annual": 4351,
      "metal": 4352,
      "services": 4353,
      "Meyer": 4354,
      "commander": 4355,
      "friends": 4356,
      "figures": 4357,
      "College": 4358,
      "BA": 4359,
      "Lan": 4360,
      "Water": 4361,
      "things": 4362,
      "oncé": 4363,
      "really": 4364,
      "oud": 4365,
      "heav": 4366,
      "acing": 4367,
      "ado": 4368,
      "iple": 4369,
      "1997": 4370,
      "numerous": 4371,
      "producer": 4372,
      "cathedral": 4373,
      "strength": 4374,
      "territory": 4375,
      "Beyoncé": 4376,
      "Ottoman": 4377,
      "Jose": 4378,
      "Museum": 4379,
      "Nico": 4380,
      "mouth": 4381,
      "ta": 4382,
      "tax": 4383,
      "err": 4384,
      "rot": 4385,
      "uries": 4386,
      "umed": 4387,
      "utch": 4388,
      "artist": 4389,
      "something": 4390,
      "Germany": 4391,
      "proteins": 4392,
      "Jackson": 4393,
      "vocals": 4394,
      "Miami": 4395,
      "individual": 4396,
      "enjoy": 4397,
      "Ever": 4398,
      "Nations": 4399,
      "bing": 4400,
      "pson": 4401,
      "Their": 4402,
      "mole": 4403,
      "division": 4404,
      "ipal": 4405,
      "Sea": 4406,
      "attacked": 4407,
      "issues": 4408,
      "Service": 4409,
      "nuclear": 4410,
      "target": 4411,
      "investig": 4412,
      "Minn": 4413,
      "Soci": 4414,
      "cat": 4415,
      "ki": 4416,
      "morning": 4417,
      "inent": 4418,
      "detail": 4419,
      "estival": 4420,
      "orders": 4421,
      "acting": 4422,
      "owned": 4423,
      "scient": 4424,
      "Through": 4425,
      "render": 4426,
      "observ": 4427,
      "highly": 4428,
      "distin": 4429,
      "attempts": 4430,
      "initial": 4431,
      "responsible": 4432,
      "5th": 4433,
      "6th": 4434,
      "Crit": 4435,
      "Cross": 4436,
      "Los": 4437,
      "Mem": 4438,
      "cis": 4439,
      "ec": 4440,
      "horse": 4441,
      "anced": 4442,
      "thes": 4443,
      "aspect": 4444,
      "adium": 4445,
      "beer": 4446,
      "vement": 4447,
      "artillery": 4448,
      "recover": 4449,
      "offered": 4450,
      "dise": 4451,
      "symb": 4452,
      "Prince": 4453,
      "ribution": 4454,
      "immediately": 4455,
      "Pennsylvania": 4456,
      "Fl": 4457,
      "Wel": 4458,
      "fast": 4459,
      "pun": 4460,
      "piano": 4461,
      "inside": 4462,
      "rect": 4463,
      "removed": 4464,
      "omer": 4465,
      "grand": 4466,
      "blood": 4467,
      "struction": 4468,
      "150": 4469,
      "severe": 4470,
      "distance": 4471,
      "studies": 4472,
      "Major": 4473,
      "sexual": 4474,
      "situation": 4475,
      "Dou": 4476,
      "Green": 4477,
      "Sir": 4478,
      "spl": 4479,
      "andid": 4480,
      "selected": 4481,
      "odon": 4482,
      "Chris": 4483,
      "Storm": 4484,
      "rule": 4485,
      "thens": 4486,
      "chester": 4487,
      "variety": 4488,
      "advance": 4489,
      "Scotland": 4490,
      "needed": 4491,
      "peaked": 4492,
      "houses": 4493,
      "Victor": 4494,
      "Bu": 4495,
      "Both": 4496,
      "Hot": 4497,
      "Pen": 4498,
      "lers": 4499,
      "pul": 4500,
      "ening": 4501,
      "ousand": 4502,
      "portun": 4503,
      "scoring": 4504,
      "means": 4505,
      "1991": 4506,
      "viewers": 4507,
      "headquarters": 4508,
      "Colon": 4509,
      "countries": 4510,
      "attempted": 4511,
      "copies": 4512,
      "murder": 4513,
      "Football": 4514,
      "46": 4515,
      "dro": 4516,
      "gain": 4517,
      "hi": 4518,
      "lb": 4519,
      "qual": 4520,
      "China": 4521,
      "appearances": 4522,
      "casual": 4523,
      "widely": 4524,
      "respectively": 4525,
      "Smith": 4526,
      "Govern": 4527,
      "eve": 4528,
      "alty": 4529,
      "secret": 4530,
      "eway": 4531,
      "eves": 4532,
      "spect": 4533,
      "annel": 4534,
      "higher": 4535,
      "describes": 4536,
      "middle": 4537,
      "Department": 4538,
      "touchdown": 4539,
      "Alex": 4540,
      "Cle": 4541,
      "Er": 4542,
      "Up": 4543,
      "cam": 4544,
      "corn": 4545,
      "xenon": 4546,
      "isation": 4547,
      "ications": 4548,
      "adult": 4549,
      "sec": 4550,
      "quality": 4551,
      "iving": 4552,
      "izing": 4553,
      "observed": 4554,
      "1992": 4555,
      "missed": 4556,
      "powerful": 4557,
      "Corps": 4558,
      "completely": 4559,
      "Braa": 4560,
      "impact": 4561,
      "heavily": 4562,
      "Bol": 4563,
      "Ka": 4564,
      "Time": 4565,
      "Young": 4566,
      "crow": 4567,
      "hed": 4568,
      "paper": 4569,
      "below": 4570,
      "iron": 4571,
      "mob": 4572,
      "true": 4573,
      "managed": 4574,
      "ender": 4575,
      "eval": 4576,
      "rane": 4577,
      "vised": 4578,
      "rug": 4579,
      "1994": 4580,
      "sixth": 4581,
      "matches": 4582,
      "Like": 4583,
      "meeting": 4584,
      "relief": 4585,
      "reduced": 4586,
      "rated": 4587,
      "rhy": 4588,
      "esota": 4589,
      "opportun": 4590,
      "ements": 4591,
      "affected": 4592,
      "award": 4593,
      "singer": 4594,
      "resulted": 4595,
      "stitution": 4596,
      "tellig": 4597,
      "Center": 4598,
      "words": 4599,
      "ricket": 4600,
      "concluded": 4601,
      "audience": 4602,
      "parents": 4603,
      "Minnesota": 4604,
      "Prote": 4605,
      "hour": 4606,
      "jun": 4607,
      "lic": 4608,
      "pra": 4609,
      "wear": 4610,
      "clim": 4611,
      "akapo": 4612,
      "offer": 4613,
      "sole": 4614,
      "Force": 4615,
      "inkel": 4616,
      "activities": 4617,
      "viron": 4618,
      "42": 4619,
      "Are": 4620,
      "Bul": 4621,
      "Fur": 4622,
      "Jim": 4623,
      "Jul": 4624,
      "Pan": 4625,
      "Post": 4626,
      "mile": 4627,
      "rout": 4628,
      "var": 4629,
      "ert": 4630,
      "stating": 4631,
      "armed": 4632,
      "chor": 4633,
      "contemporary": 4634,
      "die": 4635,
      "aware": 4636,
      "athus": 4637,
      "phy": 4638,
      "write": 4639,
      "drum": 4640,
      "draft": 4641,
      "declared": 4642,
      "Townsend": 4643,
      "revealed": 4644,
      "Rosebery": 4645,
      "Southern": 4646,
      "Hawai": 4647,
      "Italian": 4648,
      "Ben": 4649,
      "Dist": 4650,
      "Van": 4651,
      "ging": 4652,
      "sa": 4653,
      "oft": 4654,
      "heart": 4655,
      "residents": 4656,
      "excl": 4657,
      "wealth": 4658,
      "refused": 4659,
      "levels": 4660,
      "historical": 4661,
      "trees": 4662,
      "separate": 4663,
      "Meyerbeer": 4664,
      "4th": 4665,
      "Dam": 4666,
      "Fri": 4667,
      "Finkel": 4668,
      "brown": 4669,
      "core": 4670,
      "drew": 4671,
      "ustr": 4672,
      "thers": 4673,
      "isl": 4674,
      "opin": 4675,
      "peace": 4676,
      "ift": 4677,
      "offensive": 4678,
      "Thunder": 4679,
      "pret": 4680,
      "charge": 4681,
      "Because": 4682,
      "1970": 4683,
      "faced": 4684,
      "initi": 4685,
      "Walpole": 4686,
      "contrast": 4687,
      "Finkelstein": 4688,
      "Dire": 4689,
      "Tessa": 4690,
      "Yue": 4691,
      "cere": 4692,
      "uth": 4693,
      "reception": 4694,
      "today": 4695,
      "university": 4696,
      "peror": 4697,
      "bles": 4698,
      "blue": 4699,
      "recent": 4700,
      "ension": 4701,
      "elected": 4702,
      "Leg": 4703,
      "background": 4704,
      "Shiva": 4705,
      "featuring": 4706,
      "carry": 4707,
      "titles": 4708,
      "typically": 4709,
      "vocal": 4710,
      "Adam": 4711,
      "Nes": 4712,
      "Pit": 4713,
      "fish": 4714,
      "kin": 4715,
      "vehic": 4716,
      "tran": 4717,
      "havi": 4718,
      "grass": 4719,
      "conditions": 4720,
      "ledge": 4721,
      "maxim": 4722,
      "Blue": 4723,
      "hands": 4724,
      "sites": 4725,
      "Illino": 4726,
      "Nicole": 4727,
      "Society": 4728,
      "Cra": 4729,
      "Gi": 4730,
      "bat": 4731,
      "pup": 4732,
      "iled": 4733,
      "becomes": 4734,
      "Indu": 4735,
      "lip": 4736,
      "ounds": 4737,
      "assault": 4738,
      "attention": 4739,
      "weaken": 4740,
      "mainly": 4741,
      "forest": 4742,
      "efforts": 4743,
      "tower": 4744,
      "organized": 4745,
      "girl": 4746,
      "Rob": 4747,
      "Turn": 4748,
      "bul": 4749,
      "ka": 4750,
      "sense": 4751,
      "winter": 4752,
      "instr": 4753,
      "ulpt": 4754,
      "poly": 4755,
      "shell": 4756,
      "color": 4757,
      "strugg": 4758,
      "produce": 4759,
      "specim": 4760,
      "Johnson": 4761,
      "divided": 4762,
      "Highway": 4763,
      "evolution": 4764,
      "Braathens": 4765,
      "Little": 4766,
      "Tod": 4767,
      "dition": 4768,
      "ufact": 4769,
      "wick": 4770,
      "ene": 4771,
      "estic": 4772,
      "mentioned": 4773,
      "actually": 4774,
      "athlet": 4775,
      "mond": 4776,
      "architect": 4777,
      "struck": 4778,
      "calling": 4779,
      "tainment": 4780,
      "depict": 4781,
      "protein": 4782,
      "extreme": 4783,
      "ysis": 4784,
      "Hait": 4785,
      "practice": 4786,
      "demonstr": 4787,
      "Court": 4788,
      "advantage": 4789,
      "incorpor": 4790,
      "Of": 4791,
      "border": 4792,
      "folk": 4793,
      "thousand": 4794,
      "alle": 4795,
      "roles": 4796,
      "preser": 4797,
      "flank": 4798,
      "cannot": 4799,
      "1990": 4800,
      "seasons": 4801,
      "transl": 4802,
      "rights": 4803,
      "Book": 4804,
      "says": 4805,
      "Portugu": 4806,
      "combat": 4807,
      "accepted": 4808,
      "achieved": 4809,
      "Soviet": 4810,
      "Government": 4811,
      "9th": 4812,
      "Bet": 4813,
      "Fam": 4814,
      "Mog": 4815,
      "fiction": 4816,
      "atives": 4817,
      "ider": 4818,
      "180": 4819,
      "anning": 4820,
      "Group": 4821,
      "Vietnam": 4822,
      "Captain": 4823,
      "deliver": 4824,
      "fruit": 4825,
      "Portuguese": 4826,
      "Emp": 4827,
      "SR": 4828,
      "Tele": 4829,
      "ban": 4830,
      "kes": 4831,
      "oo": 4832,
      "paid": 4833,
      "tailed": 4834,
      "infantry": 4835,
      "rem": 4836,
      "restr": 4837,
      "sust": 4838,
      "sculpt": 4839,
      "helm": 4840,
      "function": 4841,
      "Spain": 4842,
      "arent": 4843,
      "primarily": 4844,
      "Academy": 4845,
      "96": 4846,
      "Burn": 4847,
      "Civil": 4848,
      "push": 4849,
      "sales": 4850,
      "sister": 4851,
      "wen": 4852,
      "iles": 4853,
      "union": 4854,
      "berg": 4855,
      "twenty": 4856,
      "scale": 4857,
      "rance": 4858,
      "spread": 4859,
      "Engine": 4860,
      "1986": 4861,
      "Secret": 4862,
      "extensive": 4863,
      "inches": 4864,
      "commissioned": 4865,
      "slightly": 4866,
      "Horse": 4867,
      "Ocean": 4868,
      "Sarn": 4869,
      "Tint": 4870,
      "Way": 4871,
      "cers": 4872,
      "igan": 4873,
      "ows": 4874,
      "concent": 4875,
      "expressed": 4876,
      "creation": 4877,
      "visions": 4878,
      "Form": 4879,
      "Fey": 4880,
      "protest": 4881,
      "county": 4882,
      "ceeded": 4883,
      "onymous": 4884,
      "Louis": 4885,
      "53": 4886,
      "Def": 4887,
      "farm": 4888,
      "gn": 4889,
      "sides": 4890,
      "shore": 4891,
      "neigh": 4892,
      "Studi": 4893,
      "boat": 4894,
      "serve": 4895,
      "phil": 4896,
      "ologist": 4897,
      "showed": 4898,
      "officer": 4899,
      "titled": 4900,
      "defense": 4901,
      "street": 4902,
      "looking": 4903,
      "excav": 4904,
      "Welsh": 4905,
      "Tintin": 4906,
      "Oda": 4907,
      "Sil": 4908,
      "Zhou": 4909,
      "bour": 4910,
      "bitt": 4911,
      "ras": 4912,
      "rey": 4913,
      "recomm": 4914,
      "prop": 4915,
      "ems": 4916,
      "raid": 4917,
      "Though": 4918,
      "themes": 4919,
      "battalion": 4920,
      "Andrew": 4921,
      "represented": 4922,
      "combined": 4923,
      "Ceres": 4924,
      "Varanas": 4925,
      "newspaper": 4926,
      "vironment": 4927,
      "ceremon": 4928,
      "Empire": 4929,
      "Varanasi": 4930,
      "55": 4931,
      "7th": 4932,
      "Fred": 4933,
      "PA": 4934,
      "Rh": 4935,
      "gam": 4936,
      "mess": 4937,
      "thir": 4938,
      "ental": 4939,
      "ulations": 4940,
      "umn": 4941,
      "osen": 4942,
      "astic": 4943,
      "avoid": 4944,
      "Commun": 4945,
      "captain": 4946,
      "founded": 4947,
      "places": 4948,
      "Produ": 4949,
      "cultural": 4950,
      "mountain": 4951,
      "Apple": 4952,
      "square": 4953,
      "casualties": 4954,
      "Nesbitt": 4955,
      "Odaen": 4956,
      "Bur": 4957,
      "cies": 4958,
      "hill": 4959,
      "ancient": 4960,
      "repe": 4961,
      "reign": 4962,
      "revol": 4963,
      "alone": 4964,
      "esh": 4965,
      "lif": 4966,
      "ordin": 4967,
      "science": 4968,
      "Ann": 4969,
      "workers": 4970,
      "Demo": 4971,
      "direction": 4972,
      "identified": 4973,
      "continues": 4974,
      "Francis": 4975,
      "castle": 4976,
      "earliest": 4977,
      "Eva": 4978,
      "Angeles": 4979,
      "Illinois": 4980,
      "Odaenathus": 4981,
      "56": 4982,
      "CA": 4983,
      "Home": 4984,
      "MD": 4985,
      "Wash": 4986,
      "eth": 4987,
      "lock": 4988,
      "ole": 4989,
      "rush": 4990,
      "sac": 4991,
      "uzz": 4992,
      "agan": 4993,
      "1920": 4994,
      "artists": 4995,
      "manufact": 4996,
      "18th": 4997,
      "content": 4998,
      "phen": 4999
    },
    "merges": [
      [
        "t",
        "h"
      ],
      [
        "i",
        "n"
      ],
      [
        "e",
        "r"
      ],
      [
        "a",
        "n"
      ],
      [
        "th",
        "e"
      ],
      [
        "o",
        "n"
      ],
      [
        "e",
        "d"
      ],
      [
        "r",
        "e"
      ],
      [
        "a",
        "t"
      ],
      [
        "o",
        "r"
      ],
      [
        "e",
        "n"
      ],
      [
        "s",
        "t"
      ],
      [
        "a",
        "l"
      ],
      [
        "a",
        "r"
      ],
      [
        "an",
        "d"
      ],
      [
        "o",
        "f"
      ],
      [
        "a",
        "s"
      ],
      [
        "e",
        "s"
      ],
      [
        "i",
        "s"
      ],
      [
        "in",
        "g"
      ],
      [
        "t",
        "o"
      ],
      [
        "i",
        "t"
      ],
      [
        "o",
        "u"
      ],
      [
        "i",
        "c"
      ],
      [
        "i",
        "on"
      ],
      [
        "h",
        "e"
      ],
      [
        "l",
        "e"
      ],
      [
        "r",
        "o"
      ],
      [
        "a",
        "c"
      ],
      [
        "i",
        "l"
      ],
      [
        "en",
        "t"
      ],
      [
        "a",
        "d"
      ],
      [
        "s",
        "e"
      ],
      [
        "a",
        "m"
      ],
      [
        "o",
        "m"
      ],
      [
        "b",
        "e"
      ],
      [
        "l",
        "y"
      ],
      [
        "c",
        "h"
      ],
      [
        "u",
        "r"
      ],
      [
        "w",
        "as"
      ],
      [
        "f",
        "or"
      ],
      [
        "d",
        "e"
      ],
      [
        "v",
        "e"
      ],
      [
        "T",
        "he"
      ],
      [
        "o",
        "l"
      ],
      [
        "i",
        "r"
      ],
      [
        "i",
        "m"
      ],
      [
        "-",
        "@"
      ],
      [
        "@",
        "-@"
      ],
      [
        "i",
        "g"
      ],
      [
        "v",
        "er"
      ],
      [
        "o",
        "w"
      ],
      [
        "w",
        "h"
      ],
      [
        "u",
        "n"
      ],
      [
        "t",
        "er"
      ],
      [
        "i",
        "th"
      ],
      [
        "a",
        "y"
      ],
      [
        "c",
        "e"
      ],
      [
        "at",
        "ion"
      ],
      [
        "c",
        "on"
      ],
      [
        "th",
        "at"
      ],
      [
        "w",
        "ith"
      ],
      [
        "a",
        "g"
      ],
      [
        "c",
        "t"
      ],
      [
        "i",
        "d"
      ],
      [
        "t",
        "e"
      ],
      [
        "u",
        "s"
      ],
      [
        "b",
        "y"
      ],
      [
        "e",
        "l"
      ],
      [
        "u",
        "l"
      ],
      [
        "r",
        "i"
      ],
      [
        "o",
        "t"
      ],
      [
        "er",
        "e"
      ],
      [
        "a",
        "p"
      ],
      [
        "re",
        "s"
      ],
      [
        "e",
        "t"
      ],
      [
        "1",
        "9"
      ],
      [
        "o",
        "p"
      ],
      [
        "a",
        "in"
      ],
      [
        "c",
        "om"
      ],
      [
        "ro",
        "m"
      ],
      [
        "er",
        "s"
      ],
      [
        "p",
        "l"
      ],
      [
        "u",
        "m"
      ],
      [
        "u",
        "t"
      ],
      [
        "a",
        "b"
      ],
      [
        "ou",
        "n"
      ],
      [
        "al",
        "l"
      ],
      [
        "0",
        "0"
      ],
      [
        "h",
        "is"
      ],
      [
        "m",
        "o"
      ],
      [
        "i",
        "st"
      ],
      [
        "s",
        "u"
      ],
      [
        "a",
        "re"
      ],
      [
        "f",
        "rom"
      ],
      [
        "p",
        "e"
      ],
      [
        "p",
        "ro"
      ],
      [
        "I",
        "n"
      ],
      [
        "s",
        "h"
      ],
      [
        "n",
        "e"
      ],
      [
        "l",
        "i"
      ],
      [
        "t",
        "r"
      ],
      [
        "at",
        "e"
      ],
      [
        "c",
        "l"
      ],
      [
        "o",
        "s"
      ],
      [
        "th",
        "er"
      ],
      [
        "ar",
        "t"
      ],
      [
        "i",
        "es"
      ],
      [
        "e",
        "m"
      ],
      [
        "w",
        "ere"
      ],
      [
        "o",
        "d"
      ],
      [
        "on",
        "g"
      ],
      [
        "ig",
        "h"
      ],
      [
        "e",
        "st"
      ],
      [
        "e",
        "x"
      ],
      [
        "a",
        "k"
      ],
      [
        "o",
        "c"
      ],
      [
        "il",
        "l"
      ],
      [
        "ar",
        "d"
      ],
      [
        "l",
        "d"
      ],
      [
        "ic",
        "h"
      ],
      [
        "a",
        "st"
      ],
      [
        "is",
        "h"
      ],
      [
        "d",
        "i"
      ],
      [
        "b",
        "er"
      ],
      [
        "an",
        "t"
      ],
      [
        "g",
        "h"
      ],
      [
        "it",
        "y"
      ],
      [
        "or",
        "t"
      ],
      [
        "am",
        "e"
      ],
      [
        "at",
        "ed"
      ],
      [
        "p",
        "er"
      ],
      [
        "m",
        "an"
      ],
      [
        "es",
        "s"
      ],
      [
        "i",
        "ve"
      ],
      [
        "q",
        "u"
      ],
      [
        "m",
        "ent"
      ],
      [
        "al",
        "s"
      ],
      [
        "ou",
        "t"
      ],
      [
        "f",
        "e"
      ],
      [
        "ac",
        "k"
      ],
      [
        "en",
        "d"
      ],
      [
        "v",
        "i"
      ],
      [
        "h",
        "ad"
      ],
      [
        "on",
        "e"
      ],
      [
        "e",
        "ar"
      ],
      [
        "t",
        "w"
      ],
      [
        "o",
        "ver"
      ],
      [
        "ou",
        "gh"
      ],
      [
        "ou",
        "r"
      ],
      [
        "h",
        "a"
      ],
      [
        "wh",
        "ich"
      ],
      [
        "or",
        "d"
      ],
      [
        "r",
        "a"
      ],
      [
        "g",
        "e"
      ],
      [
        "oun",
        "d"
      ],
      [
        "n",
        "ot"
      ],
      [
        "in",
        "e"
      ],
      [
        "r",
        "it"
      ],
      [
        "b",
        "ut"
      ],
      [
        "al",
        "ly"
      ],
      [
        "as",
        "s"
      ],
      [
        "g",
        "r"
      ],
      [
        "u",
        "d"
      ],
      [
        "i",
        "f"
      ],
      [
        "i",
        "p"
      ],
      [
        "ac",
        "t"
      ],
      [
        "i",
        "v"
      ],
      [
        "it",
        "s"
      ],
      [
        "C",
        "h"
      ],
      [
        "i",
        "an"
      ],
      [
        "st",
        "r"
      ],
      [
        "igh",
        "t"
      ],
      [
        "ar",
        "y"
      ],
      [
        "h",
        "er"
      ],
      [
        "d",
        "u"
      ],
      [
        "f",
        "ir"
      ],
      [
        "ow",
        "n"
      ],
      [
        "2",
        "00"
      ],
      [
        "a",
        "v"
      ],
      [
        "a",
        "f"
      ],
      [
        "u",
        "p"
      ],
      [
        "ou",
        "s"
      ],
      [
        "p",
        "o"
      ],
      [
        "2",
        "0"
      ],
      [
        "b",
        "l"
      ],
      [
        "o",
        "re"
      ],
      [
        "com",
        "p"
      ],
      [
        "p",
        "ort"
      ],
      [
        "S",
        "t"
      ],
      [
        "l",
        "and"
      ],
      [
        "e",
        "w"
      ],
      [
        "d",
        "er"
      ],
      [
        "e",
        "v"
      ],
      [
        "ac",
        "h"
      ],
      [
        "s",
        "i"
      ],
      [
        "the",
        "ir"
      ],
      [
        "e",
        "p"
      ],
      [
        "ic",
        "al"
      ],
      [
        "fir",
        "st"
      ],
      [
        "w",
        "or"
      ],
      [
        "ou",
        "ld"
      ],
      [
        "ag",
        "e"
      ],
      [
        "i",
        "a"
      ],
      [
        "p",
        "r"
      ],
      [
        "l",
        "l"
      ],
      [
        "b",
        "o"
      ],
      [
        "a",
        "u"
      ],
      [
        "it",
        "ion"
      ],
      [
        "als",
        "o"
      ],
      [
        "t",
        "im"
      ],
      [
        "l",
        "ow"
      ],
      [
        "ct",
        "ion"
      ],
      [
        "p",
        "t"
      ],
      [
        "l",
        "o"
      ],
      [
        "for",
        "m"
      ],
      [
        "at",
        "er"
      ],
      [
        "s",
        "c"
      ],
      [
        "ig",
        "n"
      ],
      [
        "h",
        "as"
      ],
      [
        "s",
        "er"
      ],
      [
        "u",
        "re"
      ],
      [
        "k",
        "e"
      ],
      [
        "at",
        "t"
      ],
      [
        "in",
        "t"
      ],
      [
        "i",
        "al"
      ],
      [
        "re",
        "c"
      ],
      [
        "pl",
        "ay"
      ],
      [
        "ha",
        "ve"
      ],
      [
        "o",
        "ther"
      ],
      [
        "H",
        "e"
      ],
      [
        "1",
        "8"
      ],
      [
        "wh",
        "o"
      ],
      [
        "o",
        "k"
      ],
      [
        "r",
        "an"
      ],
      [
        "om",
        "e"
      ],
      [
        "p",
        "art"
      ],
      [
        "en",
        "ce"
      ],
      [
        "g",
        "u"
      ],
      [
        "be",
        "en"
      ],
      [
        "tw",
        "o"
      ],
      [
        "re",
        "e"
      ],
      [
        "con",
        "t"
      ],
      [
        ".",
        "@"
      ],
      [
        "@",
        ".@"
      ],
      [
        "p",
        "res"
      ],
      [
        "a",
        "w"
      ],
      [
        "ur",
        "ing"
      ],
      [
        "of",
        "f"
      ],
      [
        "d",
        "is"
      ],
      [
        "i",
        "le"
      ],
      [
        "or",
        "y"
      ],
      [
        "th",
        "is"
      ],
      [
        "s",
        "p"
      ],
      [
        "m",
        "e"
      ],
      [
        "I",
        "t"
      ],
      [
        "d",
        "es"
      ],
      [
        "ad",
        "e"
      ],
      [
        "ul",
        "t"
      ],
      [
        "it",
        "e"
      ],
      [
        "p",
        "os"
      ],
      [
        "y",
        "ear"
      ],
      [
        "the",
        "y"
      ],
      [
        "com",
        "m"
      ],
      [
        "20",
        "1"
      ],
      [
        "c",
        "re"
      ],
      [
        "ve",
        "l"
      ],
      [
        "A",
        "n"
      ],
      [
        "el",
        "l"
      ],
      [
        "T",
        "h"
      ],
      [
        "w",
        "e"
      ],
      [
        "af",
        "ter"
      ],
      [
        "an",
        "s"
      ],
      [
        "f",
        "in"
      ],
      [
        "re",
        "n"
      ],
      [
        "c",
        "ent"
      ],
      [
        "o",
        "g"
      ],
      [
        "v",
        "ed"
      ],
      [
        "b",
        "r"
      ],
      [
        "in",
        "cl"
      ],
      [
        "ation",
        "s"
      ],
      [
        "u",
        "e"
      ],
      [
        "ab",
        "le"
      ],
      [
        ",",
        "@"
      ],
      [
        "@",
        ",@"
      ],
      [
        "ic",
        "e"
      ],
      [
        "wor",
        "k"
      ],
      [
        "ur",
        "n"
      ],
      [
        "e",
        "ver"
      ],
      [
        "ac",
        "e"
      ],
      [
        "n",
        "o"
      ],
      [
        "p",
        "re"
      ],
      [
        "r",
        "ic"
      ],
      [
        "ar",
        "k"
      ],
      [
        "m",
        "er"
      ],
      [
        "i",
        "z"
      ],
      [
        "tim",
        "e"
      ],
      [
        "U",
        "n"
      ],
      [
        "f",
        "f"
      ],
      [
        "en",
        "s"
      ],
      [
        "c",
        "o"
      ],
      [
        "s",
        "pe"
      ],
      [
        "an",
        "ce"
      ],
      [
        "in",
        "to"
      ],
      [
        "ion",
        "s"
      ],
      [
        "mo",
        "re"
      ],
      [
        "sh",
        "ip"
      ],
      [
        "an",
        "y"
      ],
      [
        "oun",
        "t"
      ],
      [
        "c",
        "es"
      ],
      [
        "mo",
        "st"
      ],
      [
        "am",
        "p"
      ],
      [
        "a",
        "th"
      ],
      [
        "c",
        "ed"
      ],
      [
        "in",
        "ter"
      ],
      [
        "s",
        "he"
      ],
      [
        "te",
        "m"
      ],
      [
        "r",
        "ed"
      ],
      [
        "as",
        "on"
      ],
      [
        "w",
        "ould"
      ],
      [
        "A",
        "l"
      ],
      [
        "con",
        "d"
      ],
      [
        "h",
        "im"
      ],
      [
        "ol",
        "d"
      ],
      [
        "p",
        "h"
      ],
      [
        "an",
        "n"
      ],
      [
        "us",
        "ed"
      ],
      [
        "m",
        "ain"
      ],
      [
        "an",
        "g"
      ],
      [
        "it",
        "ed"
      ],
      [
        "ct",
        "ed"
      ],
      [
        "i",
        "re"
      ],
      [
        "ing",
        "s"
      ],
      [
        "as",
        "ed"
      ],
      [
        "f",
        "l"
      ],
      [
        "i",
        "e"
      ],
      [
        "f",
        "ore"
      ],
      [
        "be",
        "c"
      ],
      [
        "m",
        "on"
      ],
      [
        "m",
        "in"
      ],
      [
        "incl",
        "ud"
      ],
      [
        "th",
        "ough"
      ],
      [
        "at",
        "es"
      ],
      [
        "ic",
        "t"
      ],
      [
        "A",
        "r"
      ],
      [
        "a",
        "ir"
      ],
      [
        "w",
        "ay"
      ],
      [
        "A",
        "u"
      ],
      [
        "ro",
        "w"
      ],
      [
        "ver",
        "s"
      ],
      [
        "ne",
        "w"
      ],
      [
        "v",
        "is"
      ],
      [
        "a",
        "il"
      ],
      [
        "r",
        "ough"
      ],
      [
        "o",
        "od"
      ],
      [
        "f",
        "t"
      ],
      [
        "ak",
        "e"
      ],
      [
        "b",
        "u"
      ],
      [
        "o",
        "b"
      ],
      [
        "as",
        "e"
      ],
      [
        "r",
        "y"
      ],
      [
        "ic",
        "k"
      ],
      [
        "ent",
        "s"
      ],
      [
        "c",
        "ess"
      ],
      [
        "s",
        "ong"
      ],
      [
        "il",
        "d"
      ],
      [
        "on",
        "ly"
      ],
      [
        "wh",
        "en"
      ],
      [
        "ar",
        "ch"
      ],
      [
        "g",
        "an"
      ],
      [
        "un",
        "der"
      ],
      [
        "u",
        "bl"
      ],
      [
        "re",
        "g"
      ],
      [
        "b",
        "le"
      ],
      [
        "the",
        "m"
      ],
      [
        "is",
        "s"
      ],
      [
        "or",
        "s"
      ],
      [
        "l",
        "es"
      ],
      [
        "c",
        "ol"
      ],
      [
        "o",
        "se"
      ],
      [
        "E",
        "n"
      ],
      [
        "d",
        "uring"
      ],
      [
        "d",
        "ay"
      ],
      [
        "in",
        "d"
      ],
      [
        "k",
        "n"
      ],
      [
        "re",
        "t"
      ],
      [
        "g",
        "ame"
      ],
      [
        "s",
        "on"
      ],
      [
        "er",
        "ed"
      ],
      [
        "R",
        "e"
      ],
      [
        "il",
        "m"
      ],
      [
        "w",
        "ard"
      ],
      [
        "e",
        "en"
      ],
      [
        "g",
        "en"
      ],
      [
        "r",
        "u"
      ],
      [
        "c",
        "an"
      ],
      [
        "ol",
        "low"
      ],
      [
        "ou",
        "th"
      ],
      [
        "ab",
        "out"
      ],
      [
        "i",
        "de"
      ],
      [
        "19",
        "9"
      ],
      [
        "t",
        "s"
      ],
      [
        "se",
        "ason"
      ],
      [
        "th",
        "an"
      ],
      [
        "n",
        "or"
      ],
      [
        "t",
        "en"
      ],
      [
        "l",
        "ar"
      ],
      [
        "o",
        "y"
      ],
      [
        "s",
        "ome"
      ],
      [
        "er",
        "n"
      ],
      [
        "w",
        "rit"
      ],
      [
        "s",
        "y"
      ],
      [
        "ch",
        "ar"
      ],
      [
        "wh",
        "ile"
      ],
      [
        "ag",
        "ain"
      ],
      [
        "th",
        "ree"
      ],
      [
        "str",
        "u"
      ],
      [
        "ation",
        "al"
      ],
      [
        "ul",
        "ar"
      ],
      [
        "C",
        "om"
      ],
      [
        "t",
        "y"
      ],
      [
        "O",
        "n"
      ],
      [
        "s",
        "o"
      ],
      [
        "f",
        "ul"
      ],
      [
        "W",
        "h"
      ],
      [
        "tw",
        "een"
      ],
      [
        "be",
        "tween"
      ],
      [
        "n",
        "um"
      ],
      [
        "pro",
        "du"
      ],
      [
        "rec",
        "ord"
      ],
      [
        "r",
        "on"
      ],
      [
        "th",
        "rough"
      ],
      [
        "t",
        "ed"
      ],
      [
        "at",
        "ing"
      ],
      [
        "wh",
        "ere"
      ],
      [
        "A",
        "s"
      ],
      [
        "i",
        "ed"
      ],
      [
        "l",
        "ater"
      ],
      [
        "1",
        "0"
      ],
      [
        "re",
        "le"
      ],
      [
        "spe",
        "c"
      ],
      [
        "vi",
        "ew"
      ],
      [
        "am",
        "es"
      ],
      [
        "f",
        "ilm"
      ],
      [
        "t",
        "on"
      ],
      [
        "con",
        "s"
      ],
      [
        "e",
        "le"
      ],
      [
        "e",
        "f"
      ],
      [
        "re",
        "l"
      ],
      [
        "c",
        "k"
      ],
      [
        "A",
        "f"
      ],
      [
        "u",
        "st"
      ],
      [
        "ish",
        "ed"
      ],
      [
        "se",
        "t"
      ],
      [
        "m",
        "ade"
      ],
      [
        "L",
        "e"
      ],
      [
        "su",
        "b"
      ],
      [
        "ur",
        "y"
      ],
      [
        "m",
        "y"
      ],
      [
        "the",
        "n"
      ],
      [
        "N",
        "ew"
      ],
      [
        "l",
        "ed"
      ],
      [
        "d",
        "o"
      ],
      [
        "a",
        "id"
      ],
      [
        "mer",
        "ic"
      ],
      [
        "A",
        "meric"
      ],
      [
        "b",
        "um"
      ],
      [
        "oc",
        "k"
      ],
      [
        "in",
        "s"
      ],
      [
        "se",
        "l"
      ],
      [
        "m",
        "a"
      ],
      [
        "ap",
        "pe"
      ],
      [
        "s",
        "ing"
      ],
      [
        "00",
        "0"
      ],
      [
        "J",
        "o"
      ],
      [
        "f",
        "ollow"
      ],
      [
        "g",
        "o"
      ],
      [
        "ter",
        "s"
      ],
      [
        "h",
        "igh"
      ],
      [
        "se",
        "cond"
      ],
      [
        "su",
        "ch"
      ],
      [
        "ro",
        "p"
      ],
      [
        "v",
        "ing"
      ],
      [
        "f",
        "our"
      ],
      [
        "c",
        "ap"
      ],
      [
        "ar",
        "i"
      ],
      [
        "p",
        "ubl"
      ],
      [
        "j",
        "e"
      ],
      [
        "ic",
        "s"
      ],
      [
        "1",
        "6"
      ],
      [
        "m",
        "ed"
      ],
      [
        "w",
        "ell"
      ],
      [
        "i",
        "el"
      ],
      [
        "b",
        "ack"
      ],
      [
        "A",
        "t"
      ],
      [
        "m",
        "us"
      ],
      [
        "D",
        "e"
      ],
      [
        "il",
        "y"
      ],
      [
        "T",
        "his"
      ],
      [
        "u",
        "al"
      ],
      [
        "if",
        "ic"
      ],
      [
        "c",
        "all"
      ],
      [
        ".",
        "."
      ],
      [
        "v",
        "en"
      ],
      [
        "al",
        "bum"
      ],
      [
        "be",
        "fore"
      ],
      [
        "m",
        "i"
      ],
      [
        "c",
        "ri"
      ],
      [
        "c",
        "ur"
      ],
      [
        "f",
        "er"
      ],
      [
        "he",
        "l"
      ],
      [
        "ur",
        "ch"
      ],
      [
        "ar",
        "s"
      ],
      [
        "su",
        "p"
      ],
      [
        "f",
        "ound"
      ],
      [
        "1",
        "2"
      ],
      [
        "En",
        "g"
      ],
      [
        "be",
        "ing"
      ],
      [
        "N",
        "o"
      ],
      [
        "u",
        "b"
      ],
      [
        "th",
        "ere"
      ],
      [
        "year",
        "s"
      ],
      [
        "at",
        "ive"
      ],
      [
        "s",
        "ur"
      ],
      [
        "1",
        "5"
      ],
      [
        "ar",
        "ri"
      ],
      [
        "in",
        "n"
      ],
      [
        "ow",
        "ever"
      ],
      [
        "p",
        "ar"
      ],
      [
        "u",
        "se"
      ],
      [
        "al",
        "e"
      ],
      [
        "1",
        "7"
      ],
      [
        "an",
        "e"
      ],
      [
        "ad",
        "d"
      ],
      [
        "man",
        "y"
      ],
      [
        "kn",
        "own"
      ],
      [
        "si",
        "de"
      ],
      [
        "l",
        "ong"
      ],
      [
        "li",
        "ke"
      ],
      [
        "num",
        "ber"
      ],
      [
        "l",
        "oc"
      ],
      [
        "a",
        "ve"
      ],
      [
        "N",
        "or"
      ],
      [
        "po",
        "int"
      ],
      [
        "ir",
        "d"
      ],
      [
        "it",
        "ies"
      ],
      [
        "ro",
        "s"
      ],
      [
        "ser",
        "ies"
      ],
      [
        "vel",
        "op"
      ],
      [
        "ol",
        "og"
      ],
      [
        "au",
        "se"
      ],
      [
        "re",
        "at"
      ],
      [
        "m",
        "ber"
      ],
      [
        "in",
        "ce"
      ],
      [
        "un",
        "t"
      ],
      [
        "or",
        "n"
      ],
      [
        "ce",
        "pt"
      ],
      [
        "l",
        "ine"
      ],
      [
        "C",
        "on"
      ],
      [
        "in",
        "es"
      ],
      [
        "ch",
        "o"
      ],
      [
        "bo",
        "th"
      ],
      [
        "se",
        "ver"
      ],
      [
        "en",
        "g"
      ],
      [
        "h",
        "n"
      ],
      [
        "p",
        "op"
      ],
      [
        "di",
        "re"
      ],
      [
        "is",
        "e"
      ],
      [
        "B",
        "rit"
      ],
      [
        "ep",
        "is"
      ],
      [
        "ment",
        "s"
      ],
      [
        "includ",
        "ing"
      ],
      [
        "at",
        "ch"
      ],
      [
        "d",
        "own"
      ],
      [
        "ig",
        "in"
      ],
      [
        "again",
        "st"
      ],
      [
        "o",
        "de"
      ],
      [
        "bec",
        "ame"
      ],
      [
        "u",
        "ary"
      ],
      [
        "ou",
        "p"
      ],
      [
        "char",
        "ac"
      ],
      [
        "S",
        "h"
      ],
      [
        "res",
        "s"
      ],
      [
        "I",
        "I"
      ],
      [
        "fe",
        "at"
      ],
      [
        "id",
        "ent"
      ],
      [
        "c",
        "i"
      ],
      [
        "19",
        "8"
      ],
      [
        "c",
        "er"
      ],
      [
        "e",
        "k"
      ],
      [
        "on",
        "d"
      ],
      [
        "t",
        "ain"
      ],
      [
        "iel",
        "d"
      ],
      [
        "3",
        "0"
      ],
      [
        "B",
        "e"
      ],
      [
        "p",
        "ed"
      ],
      [
        "des",
        "cri"
      ],
      [
        "R",
        "o"
      ],
      [
        "appe",
        "ar"
      ],
      [
        "o",
        "st"
      ],
      [
        "Un",
        "ited"
      ],
      [
        "is",
        "ed"
      ],
      [
        "c",
        "le"
      ],
      [
        "te",
        "am"
      ],
      [
        "Jo",
        "hn"
      ],
      [
        "de",
        "c"
      ],
      [
        "u",
        "res"
      ],
      [
        "h",
        "y"
      ],
      [
        "r",
        "un"
      ],
      [
        "su",
        "c"
      ],
      [
        "b",
        "ed"
      ],
      [
        "de",
        "velop"
      ],
      [
        "per",
        "i"
      ],
      [
        "cent",
        "ury"
      ],
      [
        "sh",
        "ow"
      ],
      [
        "Af",
        "ter"
      ],
      [
        "h",
        "ist"
      ],
      [
        "le",
        "ad"
      ],
      [
        "m",
        "em"
      ],
      [
        "cont",
        "in"
      ],
      [
        "u",
        "ch"
      ],
      [
        "st",
        "or"
      ],
      [
        "tr",
        "ans"
      ],
      [
        "or",
        "igin"
      ],
      [
        "he",
        "ad"
      ],
      [
        "l",
        "an"
      ],
      [
        "m",
        "ill"
      ],
      [
        "p",
        "ol"
      ],
      [
        "19",
        "4"
      ],
      [
        "le",
        "t"
      ],
      [
        "st",
        "e"
      ],
      [
        "op",
        "er"
      ],
      [
        "w",
        "est"
      ],
      [
        "le",
        "y"
      ],
      [
        "d",
        "am"
      ],
      [
        "b",
        "all"
      ],
      [
        "v",
        "es"
      ],
      [
        "ro",
        "ad"
      ],
      [
        "s",
        "ign"
      ],
      [
        "s",
        "m"
      ],
      [
        "sever",
        "al"
      ],
      [
        "di",
        "ff"
      ],
      [
        "m",
        "ay"
      ],
      [
        "be",
        "gan"
      ],
      [
        "19",
        "6"
      ],
      [
        "u",
        "ally"
      ],
      [
        "S",
        "he"
      ],
      [
        "er",
        "al"
      ],
      [
        "19",
        "7"
      ],
      [
        "B",
        "r"
      ],
      [
        "un",
        "e"
      ],
      [
        "je",
        "ct"
      ],
      [
        "re",
        "main"
      ],
      [
        "c",
        "ord"
      ],
      [
        "S",
        "e"
      ],
      [
        "ne",
        "ar"
      ],
      [
        "ear",
        "ly"
      ],
      [
        "pres",
        "ent"
      ],
      [
        "w",
        "ar"
      ],
      [
        "c",
        "rit"
      ],
      [
        "m",
        "et"
      ],
      [
        "n",
        "am"
      ],
      [
        "c",
        "over"
      ],
      [
        "end",
        "ed"
      ],
      [
        "a",
        "z"
      ],
      [
        "c",
        "y"
      ],
      [
        "c",
        "ould"
      ],
      [
        "d",
        "id"
      ],
      [
        "M",
        "ar"
      ],
      [
        "m",
        "s"
      ],
      [
        "call",
        "ed"
      ],
      [
        "tr",
        "y"
      ],
      [
        "W",
        "or"
      ],
      [
        "epis",
        "ode"
      ],
      [
        "i",
        "o"
      ],
      [
        "le",
        "g"
      ],
      [
        "p",
        "or"
      ],
      [
        "de",
        "p"
      ],
      [
        "op",
        "le"
      ],
      [
        "sel",
        "f"
      ],
      [
        "F",
        "or"
      ],
      [
        "i",
        "b"
      ],
      [
        "re",
        "ce"
      ],
      [
        "al",
        "ong"
      ],
      [
        "ak",
        "ing"
      ],
      [
        "v",
        "id"
      ],
      [
        "lar",
        "ge"
      ],
      [
        "as",
        "h"
      ],
      [
        "I",
        "s"
      ],
      [
        "d",
        "ist"
      ],
      [
        "g",
        "g"
      ],
      [
        "v",
        "al"
      ],
      [
        "1",
        "3"
      ],
      [
        "m",
        "il"
      ],
      [
        "M",
        "ay"
      ],
      [
        "p",
        "ass"
      ],
      [
        "s",
        "aid"
      ],
      [
        "Americ",
        "an"
      ],
      [
        "in",
        "k"
      ],
      [
        "es",
        "e"
      ],
      [
        "pres",
        "s"
      ],
      [
        "gu",
        "st"
      ],
      [
        "ers",
        "on"
      ],
      [
        "suc",
        "cess"
      ],
      [
        "to",
        "w"
      ],
      [
        "the",
        "se"
      ],
      [
        "iz",
        "ed"
      ],
      [
        "n",
        "ow"
      ],
      [
        "op",
        "en"
      ],
      [
        "gr",
        "ap"
      ],
      [
        "1",
        "4"
      ],
      [
        "c",
        "a"
      ],
      [
        "t",
        "ri"
      ],
      [
        "G",
        "er"
      ],
      [
        "st",
        "em"
      ],
      [
        "f",
        "am"
      ],
      [
        "ri",
        "st"
      ],
      [
        "Brit",
        "ish"
      ],
      [
        "5",
        "0"
      ],
      [
        "mus",
        "ic"
      ],
      [
        "unt",
        "il"
      ],
      [
        "c",
        "ity"
      ],
      [
        "st",
        "art"
      ],
      [
        "over",
        "n"
      ],
      [
        "ros",
        "s"
      ],
      [
        "comp",
        "le"
      ],
      [
        "rele",
        "ased"
      ],
      [
        "x",
        "t"
      ],
      [
        "G",
        "r"
      ],
      [
        "l",
        "ess"
      ],
      [
        "it",
        "t"
      ],
      [
        "s",
        "ame"
      ],
      [
        "ther",
        "n"
      ],
      [
        "iv",
        "ed"
      ],
      [
        "v",
        "ol"
      ],
      [
        "ist",
        "s"
      ],
      [
        "a",
        "h"
      ],
      [
        "s",
        "im"
      ],
      [
        "j",
        "or"
      ],
      [
        "ret",
        "urn"
      ],
      [
        "pl",
        "ac"
      ],
      [
        "i",
        "ous"
      ],
      [
        "k",
        "m"
      ],
      [
        "The",
        "y"
      ],
      [
        "st",
        "ate"
      ],
      [
        "an",
        "k"
      ],
      [
        "are",
        "a"
      ],
      [
        "des",
        "ign"
      ],
      [
        "re",
        "ad"
      ],
      [
        "oc",
        "i"
      ],
      [
        "mill",
        "ion"
      ],
      [
        "ou",
        "se"
      ],
      [
        "fe",
        "ct"
      ],
      [
        "form",
        "ed"
      ],
      [
        "m",
        "en"
      ],
      [
        "bec",
        "ause"
      ],
      [
        "o",
        "ot"
      ],
      [
        "ow",
        "er"
      ],
      [
        "e",
        "ach"
      ],
      [
        "W",
        "ar"
      ],
      [
        "off",
        "ic"
      ],
      [
        "C",
        "ar"
      ],
      [
        "c",
        "he"
      ],
      [
        "en",
        "n"
      ],
      [
        "Au",
        "gust"
      ],
      [
        "l",
        "a"
      ],
      [
        "c",
        "oun"
      ],
      [
        "vi",
        "de"
      ],
      [
        "com",
        "e"
      ],
      [
        "S",
        "ep"
      ],
      [
        "ser",
        "v"
      ],
      [
        "d",
        "r"
      ],
      [
        "li",
        "fe"
      ],
      [
        "e",
        "ast"
      ],
      [
        "pe",
        "ople"
      ],
      [
        "cho",
        "ol"
      ],
      [
        "p",
        "le"
      ],
      [
        "c",
        "ar"
      ],
      [
        "n",
        "ational"
      ],
      [
        "bo",
        "ok"
      ],
      [
        "r",
        "is"
      ],
      [
        "b",
        "od"
      ],
      [
        "ro",
        "te"
      ],
      [
        "str",
        "al"
      ],
      [
        "l",
        "ight"
      ],
      [
        "si",
        "x"
      ],
      [
        "E",
        "u"
      ],
      [
        "sup",
        "port"
      ],
      [
        "f",
        "ield"
      ],
      [
        "J",
        "u"
      ],
      [
        "C",
        "ol"
      ],
      [
        "a",
        "ther"
      ],
      [
        "gr",
        "oup"
      ],
      [
        "i",
        "ver"
      ],
      [
        "ar",
        "ound"
      ],
      [
        "to",
        "p"
      ],
      [
        "ur",
        "ed"
      ],
      [
        "F",
        "e"
      ],
      [
        "is",
        "ion"
      ],
      [
        "H",
        "owever"
      ],
      [
        "P",
        "l"
      ],
      [
        "v",
        "ent"
      ],
      [
        "d",
        "om"
      ],
      [
        "s",
        "ol"
      ],
      [
        "m",
        "ark"
      ],
      [
        "pro",
        "te"
      ],
      [
        "nor",
        "th"
      ],
      [
        "cons",
        "id"
      ],
      [
        "charac",
        "ter"
      ],
      [
        "att",
        "ack"
      ],
      [
        "al",
        "es"
      ],
      [
        "tem",
        "ber"
      ],
      [
        "Sep",
        "tember"
      ],
      [
        "w",
        "ill"
      ],
      [
        "contin",
        "u"
      ],
      [
        "sm",
        "all"
      ],
      [
        "g",
        "et"
      ],
      [
        "ex",
        "t"
      ],
      [
        "B",
        "l"
      ],
      [
        "pos",
        "ition"
      ],
      [
        "re",
        "st"
      ],
      [
        "follow",
        "ing"
      ],
      [
        "gr",
        "ound"
      ],
      [
        "Wor",
        "ld"
      ],
      [
        "o",
        "th"
      ],
      [
        "U",
        "S"
      ],
      [
        "f",
        "un"
      ],
      [
        "st",
        "ud"
      ],
      [
        "cont",
        "ro"
      ],
      [
        "Au",
        "stral"
      ],
      [
        "ver",
        "y"
      ],
      [
        "in",
        "a"
      ],
      [
        "l",
        "ish"
      ],
      [
        "re",
        "qu"
      ],
      [
        "H",
        "er"
      ],
      [
        "i",
        "vers"
      ],
      [
        "ur",
        "al"
      ],
      [
        "f",
        "ive"
      ],
      [
        "st",
        "and"
      ],
      [
        "ion",
        "al"
      ],
      [
        "res",
        "ult"
      ],
      [
        "a",
        "im"
      ],
      [
        "t",
        "it"
      ],
      [
        "b",
        "ers"
      ],
      [
        "at",
        "ter"
      ],
      [
        "tr",
        "ack"
      ],
      [
        "g",
        "y"
      ],
      [
        "ag",
        "ue"
      ],
      [
        "ct",
        "or"
      ],
      [
        "m",
        "iss"
      ],
      [
        "p",
        "on"
      ],
      [
        "de",
        "f"
      ],
      [
        "wh",
        "at"
      ],
      [
        "n",
        "ame"
      ],
      [
        "cord",
        "ing"
      ],
      [
        "1",
        "1"
      ],
      [
        "b",
        "re"
      ],
      [
        "ag",
        "ed"
      ],
      [
        "Nor",
        "th"
      ],
      [
        "G",
        "u"
      ],
      [
        "M",
        "e"
      ],
      [
        "F",
        "ran"
      ],
      [
        "re",
        "port"
      ],
      [
        "g",
        "un"
      ],
      [
        "ir",
        "ed"
      ],
      [
        "is",
        "m"
      ],
      [
        "W",
        "il"
      ],
      [
        "c",
        "r"
      ],
      [
        "c",
        "ut"
      ],
      [
        "on",
        "y"
      ],
      [
        "p",
        "rom"
      ],
      [
        "play",
        "ed"
      ],
      [
        "J",
        "une"
      ],
      [
        "all",
        "ow"
      ],
      [
        "c",
        "our"
      ],
      [
        "t",
        "al"
      ],
      [
        "we",
        "ek"
      ],
      [
        "g",
        "overn"
      ],
      [
        "l",
        "ate"
      ],
      [
        "as",
        "k"
      ],
      [
        "ag",
        "es"
      ],
      [
        "om",
        "an"
      ],
      [
        "0",
        "s"
      ],
      [
        "h",
        "am"
      ],
      [
        "O",
        "c"
      ],
      [
        "c",
        "are"
      ],
      [
        "y",
        "s"
      ],
      [
        "vis",
        "ion"
      ],
      [
        "c",
        "ast"
      ],
      [
        "M",
        "an"
      ],
      [
        "2",
        "5"
      ],
      [
        "J",
        "an"
      ],
      [
        "d",
        "ra"
      ],
      [
        "fin",
        "al"
      ],
      [
        "publ",
        "ic"
      ],
      [
        "ate",
        "ly"
      ],
      [
        "s",
        "ince"
      ],
      [
        "St",
        "ates"
      ],
      [
        "A",
        "c"
      ],
      [
        "C",
        "l"
      ],
      [
        "im",
        "e"
      ],
      [
        "spec",
        "ies"
      ],
      [
        "ma",
        "jor"
      ],
      [
        "in",
        "ed"
      ],
      [
        "re",
        "ach"
      ],
      [
        "c",
        "ount"
      ],
      [
        "l",
        "ing"
      ],
      [
        "ain",
        "ed"
      ],
      [
        "s",
        "outh"
      ],
      [
        "rece",
        "ived"
      ],
      [
        "M",
        "on"
      ],
      [
        "S",
        "outh"
      ],
      [
        "ch",
        "ild"
      ],
      [
        "ap",
        "p"
      ],
      [
        "ev",
        "en"
      ],
      [
        "bu",
        "ild"
      ],
      [
        "l",
        "ist"
      ],
      [
        "l",
        "ast"
      ],
      [
        "to",
        "ok"
      ],
      [
        "ap",
        "pro"
      ],
      [
        "cl",
        "ass"
      ],
      [
        "part",
        "ic"
      ],
      [
        "b",
        "att"
      ],
      [
        "w",
        "on"
      ],
      [
        "il",
        "ity"
      ],
      [
        "Ch",
        "rist"
      ],
      [
        "j",
        "ust"
      ],
      [
        "st",
        "ar"
      ],
      [
        "sy",
        "stem"
      ],
      [
        "K",
        "ing"
      ],
      [
        "g",
        "re"
      ],
      [
        "or",
        "gan"
      ],
      [
        "or",
        "k"
      ],
      [
        "ward",
        "s"
      ],
      [
        "os",
        "s"
      ],
      [
        "v",
        "ari"
      ],
      [
        "il",
        "t"
      ],
      [
        "descri",
        "bed"
      ],
      [
        "P",
        "ar"
      ],
      [
        "in",
        "c"
      ],
      [
        "ain",
        "s"
      ],
      [
        "wor",
        "ld"
      ],
      [
        "nam",
        "ed"
      ],
      [
        "tow",
        "n"
      ],
      [
        "pl",
        "ace"
      ],
      [
        "g",
        "iv"
      ],
      [
        "ard",
        "s"
      ],
      [
        "to",
        "ber"
      ],
      [
        "Oc",
        "tober"
      ],
      [
        "b",
        "and"
      ],
      [
        "mo",
        "ved"
      ],
      [
        "A",
        "ll"
      ],
      [
        "p",
        "ri"
      ],
      [
        "er",
        "y"
      ],
      [
        "con",
        "stru"
      ],
      [
        "li",
        "am"
      ],
      [
        "u",
        "te"
      ],
      [
        "w",
        "ater"
      ],
      [
        "in",
        "cre"
      ],
      [
        "u",
        "de"
      ],
      [
        "vi",
        "ous"
      ],
      [
        "rop",
        "ical"
      ],
      [
        "a",
        "ur"
      ],
      [
        "ant",
        "s"
      ],
      [
        "et",
        "s"
      ],
      [
        "k",
        "ill"
      ],
      [
        "se",
        "qu"
      ],
      [
        "w",
        "rote"
      ],
      [
        "Y",
        "ork"
      ],
      [
        "Ju",
        "ly"
      ],
      [
        "c",
        "amp"
      ],
      [
        "h",
        "and"
      ],
      [
        "C",
        "an"
      ],
      [
        "i",
        "x"
      ],
      [
        "du",
        "e"
      ],
      [
        "W",
        "est"
      ],
      [
        "at",
        "s"
      ],
      [
        "or",
        "ed"
      ],
      [
        "a",
        "e"
      ],
      [
        "row",
        "n"
      ],
      [
        "i",
        "um"
      ],
      [
        "D",
        "uring"
      ],
      [
        "m",
        "uch"
      ],
      [
        "f",
        "ur"
      ],
      [
        "p",
        "ower"
      ],
      [
        "sing",
        "le"
      ],
      [
        "A",
        "pr"
      ],
      [
        "Apr",
        "il"
      ],
      [
        "ent",
        "ly"
      ],
      [
        "on",
        "s"
      ],
      [
        "at",
        "ure"
      ],
      [
        "tem",
        "pt"
      ],
      [
        "h",
        "um"
      ],
      [
        "ic",
        "ally"
      ],
      [
        "..",
        "."
      ],
      [
        "diff",
        "er"
      ],
      [
        "de",
        "ath"
      ],
      [
        "Eu",
        "ro"
      ],
      [
        "it",
        "al"
      ],
      [
        "ord",
        "er"
      ],
      [
        "h",
        "al"
      ],
      [
        "o",
        "ve"
      ],
      [
        "M",
        "c"
      ],
      [
        "tr",
        "a"
      ],
      [
        "gen",
        "er"
      ],
      [
        "Ger",
        "man"
      ],
      [
        "an",
        "other"
      ],
      [
        "19",
        "5"
      ],
      [
        "ship",
        "s"
      ],
      [
        "sh",
        "ort"
      ],
      [
        "includ",
        "ed"
      ],
      [
        "S",
        "c"
      ],
      [
        "ar",
        "m"
      ],
      [
        "em",
        "ent"
      ],
      [
        "ev",
        "ent"
      ],
      [
        "S",
        "te"
      ],
      [
        "p",
        "erson"
      ],
      [
        "r",
        "ight"
      ],
      [
        "Jan",
        "uary"
      ],
      [
        "est",
        "ab"
      ],
      [
        "ak",
        "es"
      ],
      [
        "with",
        "in"
      ],
      [
        "Eng",
        "land"
      ],
      [
        "pe",
        "ct"
      ],
      [
        "ian",
        "s"
      ],
      [
        "s",
        "ent"
      ],
      [
        "le",
        "ft"
      ],
      [
        "b",
        "ased"
      ],
      [
        "c",
        "as"
      ],
      [
        "bu",
        "ilt"
      ],
      [
        "f",
        "all"
      ],
      [
        "be",
        "li"
      ],
      [
        "cl",
        "aim"
      ],
      [
        "al",
        "though"
      ],
      [
        "at",
        "tempt"
      ],
      [
        "if",
        "ied"
      ],
      [
        "fam",
        "ily"
      ],
      [
        "G",
        "e"
      ],
      [
        "M",
        "arch"
      ],
      [
        "h",
        "ome"
      ],
      [
        "g",
        "ames"
      ],
      [
        "th",
        "ird"
      ],
      [
        "en",
        "se"
      ],
      [
        "qu",
        "e"
      ],
      [
        "j",
        "o"
      ],
      [
        "t",
        "urn"
      ],
      [
        "be",
        "st"
      ],
      [
        "de",
        "st"
      ],
      [
        "No",
        "ve"
      ],
      [
        "s",
        "chool"
      ],
      [
        "pre",
        "vious"
      ],
      [
        "t",
        "ing"
      ],
      [
        "ro",
        "y"
      ],
      [
        "a",
        "x"
      ],
      [
        "st",
        "ory"
      ],
      [
        "ul",
        "ation"
      ],
      [
        "19",
        "3"
      ],
      [
        "ex",
        "pl"
      ],
      [
        "Nove",
        "mber"
      ],
      [
        "re",
        "view"
      ],
      [
        "il",
        "ar"
      ],
      [
        "An",
        "d"
      ],
      [
        "i",
        "ally"
      ],
      [
        "is",
        "su"
      ],
      [
        "peri",
        "od"
      ],
      [
        "H",
        "is"
      ],
      [
        "B",
        "y"
      ],
      [
        "op",
        "s"
      ],
      [
        "fl",
        "u"
      ],
      [
        "govern",
        "ment"
      ],
      [
        "Euro",
        "pe"
      ],
      [
        "st",
        "er"
      ],
      [
        "P",
        "r"
      ],
      [
        "S",
        "p"
      ],
      [
        "ad",
        "v"
      ],
      [
        "ch",
        "an"
      ],
      [
        "m",
        "ar"
      ],
      [
        "l",
        "s"
      ],
      [
        "De",
        "ce"
      ],
      [
        "m",
        "ake"
      ],
      [
        "A",
        "d"
      ],
      [
        "m",
        "b"
      ],
      [
        "us",
        "ing"
      ],
      [
        "Dece",
        "mber"
      ],
      [
        "th",
        "ose"
      ],
      [
        "P",
        "ro"
      ],
      [
        "W",
        "e"
      ],
      [
        "stor",
        "m"
      ],
      [
        "ur",
        "ric"
      ],
      [
        "k",
        "ing"
      ],
      [
        "r",
        "al"
      ],
      [
        "us",
        "h"
      ],
      [
        "av",
        "y"
      ],
      [
        "Th",
        "ere"
      ],
      [
        "re",
        "f"
      ],
      [
        "ch",
        "ed"
      ],
      [
        "n",
        "ess"
      ],
      [
        "st",
        "on"
      ],
      [
        "C",
        "ity"
      ],
      [
        "a",
        "i"
      ],
      [
        "re",
        "al"
      ],
      [
        "origin",
        "al"
      ],
      [
        "ough",
        "t"
      ],
      [
        "comp",
        "any"
      ],
      [
        "l",
        "er"
      ],
      [
        "b",
        "ro"
      ],
      [
        "comm",
        "and"
      ],
      [
        "f",
        "act"
      ],
      [
        "m",
        "atch"
      ],
      [
        "en",
        "ces"
      ],
      [
        "f",
        "ac"
      ],
      [
        "et",
        "y"
      ],
      [
        "mon",
        "th"
      ],
      [
        "Wh",
        "en"
      ],
      [
        "O",
        "r"
      ],
      [
        "it",
        "ary"
      ],
      [
        "au",
        "th"
      ],
      [
        "2",
        "4"
      ],
      [
        "st",
        "it"
      ],
      [
        "tr",
        "ad"
      ],
      [
        "L",
        "i"
      ],
      [
        "gr",
        "am"
      ],
      [
        "af",
        "f"
      ],
      [
        "st",
        "ri"
      ],
      [
        "N",
        "ational"
      ],
      [
        "oun",
        "g"
      ],
      [
        "B",
        "o"
      ],
      [
        "P",
        "h"
      ],
      [
        "200",
        "9"
      ],
      [
        "s",
        "k"
      ],
      [
        "cl",
        "ub"
      ],
      [
        "vide",
        "o"
      ],
      [
        "z",
        "e"
      ],
      [
        "2",
        "6"
      ],
      [
        "200",
        "8"
      ],
      [
        "ra",
        "ft"
      ],
      [
        "201",
        "0"
      ],
      [
        "ren",
        "ch"
      ],
      [
        "col",
        "le"
      ],
      [
        "2",
        "1"
      ],
      [
        "ch",
        "urch"
      ],
      [
        "tr",
        "act"
      ],
      [
        "R",
        "iver"
      ],
      [
        "th",
        "ing"
      ],
      [
        "id",
        "es"
      ],
      [
        "iv",
        "ision"
      ],
      [
        "2",
        "8"
      ],
      [
        "ro",
        "le"
      ],
      [
        "l",
        "im"
      ],
      [
        "m",
        "ag"
      ],
      [
        "st",
        "ill"
      ],
      [
        "2",
        "3"
      ],
      [
        "ar",
        "n"
      ],
      [
        "for",
        "man"
      ],
      [
        "mo",
        "ve"
      ],
      [
        "end",
        "s"
      ],
      [
        "ivers",
        "ity"
      ],
      [
        "play",
        "er"
      ],
      [
        "pos",
        "si"
      ],
      [
        "C",
        "o"
      ],
      [
        "m",
        "p"
      ],
      [
        "ens",
        "ive"
      ],
      [
        "m",
        "id"
      ],
      [
        "loc",
        "al"
      ],
      [
        "G",
        "en"
      ],
      [
        "P",
        "e"
      ],
      [
        "g",
        "ed"
      ],
      [
        "In",
        "di"
      ],
      [
        "add",
        "ition"
      ],
      [
        "D",
        "y"
      ],
      [
        "1",
        "00"
      ],
      [
        "c",
        "ame"
      ],
      [
        "of",
        "ten"
      ],
      [
        "vers",
        "ion"
      ],
      [
        "p",
        "ut"
      ],
      [
        "v",
        "o"
      ],
      [
        "un",
        "d"
      ],
      [
        "hist",
        "ory"
      ],
      [
        "id",
        "ge"
      ],
      [
        "ak",
        "en"
      ],
      [
        "s",
        "ite"
      ],
      [
        "form",
        "er"
      ],
      [
        "ber",
        "t"
      ],
      [
        "s",
        "ay"
      ],
      [
        "qu",
        "ar"
      ],
      [
        "hal",
        "f"
      ],
      [
        "dra",
        "w"
      ],
      [
        "f",
        "el"
      ],
      [
        "urric",
        "ane"
      ],
      [
        "s",
        "ou"
      ],
      [
        "gg",
        "est"
      ],
      [
        "in",
        "it"
      ],
      [
        "l",
        "or"
      ],
      [
        "d",
        "en"
      ],
      [
        "end",
        "ing"
      ],
      [
        "continu",
        "ed"
      ],
      [
        "h",
        "ouse"
      ],
      [
        "r",
        "ound"
      ],
      [
        "al",
        "i"
      ],
      [
        "ut",
        "ion"
      ],
      [
        "bod",
        "y"
      ],
      [
        "consid",
        "ered"
      ],
      [
        "In",
        "ter"
      ],
      [
        "inn",
        "ing"
      ],
      [
        "su",
        "ggest"
      ],
      [
        "ne",
        "xt"
      ],
      [
        "200",
        "7"
      ],
      [
        "ef",
        "fect"
      ],
      [
        "O",
        "ne"
      ],
      [
        "m",
        "and"
      ],
      [
        "ar",
        "ed"
      ],
      [
        "ri",
        "but"
      ],
      [
        "re",
        "fer"
      ],
      [
        "f",
        "ri"
      ],
      [
        "sim",
        "ilar"
      ],
      [
        "plac",
        "ed"
      ],
      [
        "record",
        "ed"
      ],
      [
        "Eng",
        "lish"
      ],
      [
        "publ",
        "ished"
      ],
      [
        "F",
        "rench"
      ],
      [
        "im",
        "port"
      ],
      [
        "fe",
        "w"
      ],
      [
        "care",
        "er"
      ],
      [
        "w",
        "ind"
      ],
      [
        "he",
        "ld"
      ],
      [
        "be",
        "g"
      ],
      [
        "B",
        "att"
      ],
      [
        "P",
        "er"
      ],
      [
        "ast",
        "er"
      ],
      [
        "T",
        "e"
      ],
      [
        "at",
        "or"
      ],
      [
        "per",
        "forman"
      ],
      [
        "t",
        "ake"
      ],
      [
        "ch",
        "ang"
      ],
      [
        "produ",
        "ction"
      ],
      [
        "E",
        "ar"
      ],
      [
        "ic",
        "o"
      ],
      [
        "im",
        "es"
      ],
      [
        "pos",
        "ed"
      ],
      [
        "grap",
        "h"
      ],
      [
        "differ",
        "ent"
      ],
      [
        "st",
        "y"
      ],
      [
        "ain",
        "ing"
      ],
      [
        "comm",
        "un"
      ],
      [
        "p",
        "s"
      ],
      [
        "for",
        "t"
      ],
      [
        "b",
        "ar"
      ],
      [
        "c",
        "raft"
      ],
      [
        "W",
        "ith"
      ],
      [
        "B",
        "ar"
      ],
      [
        "y",
        "ou"
      ],
      [
        "ou",
        "te"
      ],
      [
        "with",
        "out"
      ],
      [
        "amp",
        "ion"
      ],
      [
        "song",
        "s"
      ],
      [
        "f",
        "r"
      ],
      [
        "writ",
        "ten"
      ],
      [
        "2",
        "7"
      ],
      [
        "act",
        "ion"
      ],
      [
        "pol",
        "it"
      ],
      [
        "M",
        "us"
      ],
      [
        "for",
        "ce"
      ],
      [
        "ev",
        "ed"
      ],
      [
        "str",
        "ong"
      ],
      [
        "am",
        "ong"
      ],
      [
        "stru",
        "ct"
      ],
      [
        "w",
        "ood"
      ],
      [
        "le",
        "vel"
      ],
      [
        "2",
        "2"
      ],
      [
        "S",
        "er"
      ],
      [
        "g",
        "l"
      ],
      [
        "for",
        "d"
      ],
      [
        "St",
        "ate"
      ],
      [
        "i",
        "k"
      ],
      [
        "se",
        "ven"
      ],
      [
        "im",
        "ent"
      ],
      [
        "T",
        "r"
      ],
      [
        "day",
        "s"
      ],
      [
        "ever",
        "y"
      ],
      [
        "ste",
        "ad"
      ],
      [
        "wh",
        "ite"
      ],
      [
        "Ch",
        "ar"
      ],
      [
        "olog",
        "y"
      ],
      [
        "f",
        "ire"
      ],
      [
        "w",
        "in"
      ],
      [
        "it",
        "er"
      ],
      [
        "it",
        "ar"
      ],
      [
        "D",
        "ivision"
      ],
      [
        "201",
        "1"
      ],
      [
        "lar",
        "g"
      ],
      [
        "rele",
        "ase"
      ],
      [
        "b",
        "ird"
      ],
      [
        "f",
        "oot"
      ],
      [
        "t",
        "ropical"
      ],
      [
        "fur",
        "ther"
      ],
      [
        "fin",
        "d"
      ],
      [
        "be",
        "come"
      ],
      [
        "200",
        "6"
      ],
      [
        "Ac",
        "cording"
      ],
      [
        "Ch",
        "urch"
      ],
      [
        "Al",
        "though"
      ],
      [
        "Can",
        "ad"
      ],
      [
        "h",
        "owever"
      ],
      [
        "te",
        "st"
      ],
      [
        "auth",
        "or"
      ],
      [
        "er",
        "ing"
      ],
      [
        "pr",
        "of"
      ],
      [
        "c",
        "or"
      ],
      [
        "p",
        "ite"
      ],
      [
        "au",
        "gh"
      ],
      [
        "res",
        "pon"
      ],
      [
        "partic",
        "ular"
      ],
      [
        "h",
        "ow"
      ],
      [
        "o",
        "x"
      ],
      [
        "w",
        "ide"
      ],
      [
        "P",
        "ort"
      ],
      [
        "tit",
        "le"
      ],
      [
        "f",
        "an"
      ],
      [
        "te",
        "le"
      ],
      [
        "T",
        "w"
      ],
      [
        "h",
        "old"
      ],
      [
        "n",
        "ing"
      ],
      [
        "mil",
        "itary"
      ],
      [
        "M",
        "o"
      ],
      [
        "R",
        "oman"
      ],
      [
        "mem",
        "bers"
      ],
      [
        "Le",
        "ague"
      ],
      [
        "pop",
        "ular"
      ],
      [
        "dire",
        "ct"
      ],
      [
        "c",
        "ial"
      ],
      [
        "c",
        "ult"
      ],
      [
        "s",
        "it"
      ],
      [
        "iv",
        "es"
      ],
      [
        "ction",
        "s"
      ],
      [
        "it",
        "ch"
      ],
      [
        "om",
        "in"
      ],
      [
        "hist",
        "or"
      ],
      [
        "itt",
        "le"
      ],
      [
        "u",
        "di"
      ],
      [
        "id",
        "ed"
      ],
      [
        "ic",
        "es"
      ],
      [
        "tim",
        "es"
      ],
      [
        "S",
        "ong"
      ],
      [
        "p",
        "en"
      ],
      [
        "br",
        "uary"
      ],
      [
        "Fe",
        "bruary"
      ],
      [
        "cle",
        "ar"
      ],
      [
        "P",
        "ol"
      ],
      [
        "u",
        "c"
      ],
      [
        "in",
        "du"
      ],
      [
        "mo",
        "der"
      ],
      [
        "lo",
        "st"
      ],
      [
        "sc",
        "en"
      ],
      [
        "b",
        "ur"
      ],
      [
        "Ge",
        "or"
      ],
      [
        "g",
        "ave"
      ],
      [
        "n",
        "a"
      ],
      [
        "produ",
        "ced"
      ],
      [
        "success",
        "ful"
      ],
      [
        "report",
        "ed"
      ],
      [
        "pro",
        "vid"
      ],
      [
        "Dy",
        "lan"
      ],
      [
        "M",
        "iss"
      ],
      [
        "di",
        "vid"
      ],
      [
        "ser",
        "ved"
      ],
      [
        "P",
        "ark"
      ],
      [
        "po",
        "st"
      ],
      [
        "ition",
        "s"
      ],
      [
        "am",
        "a"
      ],
      [
        "n",
        "ight"
      ],
      [
        "to",
        "tal"
      ],
      [
        "D",
        "es"
      ],
      [
        "f",
        "lo"
      ],
      [
        "b",
        "as"
      ],
      [
        "se",
        "arch"
      ],
      [
        "su",
        "re"
      ],
      [
        "aw",
        "ay"
      ],
      [
        "201",
        "2"
      ],
      [
        "O",
        "ld"
      ],
      [
        "ive",
        "ly"
      ],
      [
        "comm",
        "on"
      ],
      [
        "r",
        "ad"
      ],
      [
        "ne",
        "y"
      ],
      [
        "Com",
        "p"
      ],
      [
        "n",
        "et"
      ],
      [
        "ist",
        "er"
      ],
      [
        "de",
        "cl"
      ],
      [
        "child",
        "ren"
      ],
      [
        "giv",
        "en"
      ],
      [
        "ch",
        "n"
      ],
      [
        "ap",
        "an"
      ],
      [
        "H",
        "a"
      ],
      [
        "se",
        "en"
      ],
      [
        "for",
        "ces"
      ],
      [
        "S",
        "im"
      ],
      [
        "f",
        "ron"
      ],
      [
        "at",
        "ic"
      ],
      [
        "to",
        "ur"
      ],
      [
        "cept",
        "ion"
      ],
      [
        "se",
        "e"
      ],
      [
        "f",
        "ace"
      ],
      [
        "g",
        "es"
      ],
      [
        "v",
        "ict"
      ],
      [
        "st",
        "ated"
      ],
      [
        "el",
        "s"
      ],
      [
        "ha",
        "ving"
      ],
      [
        "cl",
        "ose"
      ],
      [
        "crit",
        "ic"
      ],
      [
        "J",
        "apan"
      ],
      [
        "om",
        "en"
      ],
      [
        "ab",
        "ly"
      ],
      [
        "ail",
        "ed"
      ],
      [
        "t",
        "ro"
      ],
      [
        "st",
        "re"
      ],
      [
        "pl",
        "an"
      ],
      [
        "ex",
        "p"
      ],
      [
        "incl",
        "ude"
      ],
      [
        "2",
        "9"
      ],
      [
        "T",
        "o"
      ],
      [
        "in",
        "vol"
      ],
      [
        "re",
        "present"
      ],
      [
        "C",
        "ount"
      ],
      [
        "g",
        "ar"
      ],
      [
        "m",
        "aking"
      ],
      [
        "in",
        "flu"
      ],
      [
        "cap",
        "t"
      ],
      [
        "N",
        "e"
      ],
      [
        "g",
        "reat"
      ],
      [
        "w",
        "ant"
      ],
      [
        "al",
        "ion"
      ],
      [
        "ed",
        "er"
      ],
      [
        "M",
        "a"
      ],
      [
        "Af",
        "ric"
      ],
      [
        "coun",
        "try"
      ],
      [
        "y",
        "oung"
      ],
      [
        "comp",
        "et"
      ],
      [
        "way",
        "s"
      ],
      [
        "pl",
        "oy"
      ],
      [
        "c",
        "us"
      ],
      [
        "i",
        "er"
      ],
      [
        "te",
        "ll"
      ],
      [
        "man",
        "ag"
      ],
      [
        "C",
        "ent"
      ],
      [
        "lo",
        "ok"
      ],
      [
        "sign",
        "ific"
      ],
      [
        "com",
        "b"
      ],
      [
        "pro",
        "gram"
      ],
      [
        "Gen",
        "eral"
      ],
      [
        "H",
        "ar"
      ],
      [
        "an",
        "ces"
      ],
      [
        "ant",
        "ic"
      ],
      [
        "land",
        "s"
      ],
      [
        "no",
        "vel"
      ],
      [
        "e",
        "qu"
      ],
      [
        "our",
        "s"
      ],
      [
        "201",
        "3"
      ],
      [
        "p",
        "ur"
      ],
      [
        "int",
        "ro"
      ],
      [
        "contro",
        "l"
      ],
      [
        "4",
        "0"
      ],
      [
        "f",
        "em"
      ],
      [
        "m",
        "m"
      ],
      [
        "oc",
        "cur"
      ],
      [
        "sc",
        "ri"
      ],
      [
        "A",
        "ir"
      ],
      [
        "w",
        "ent"
      ],
      [
        "w",
        "ord"
      ],
      [
        "ne",
        "ver"
      ],
      [
        "ren",
        "t"
      ],
      [
        "V",
        "i"
      ],
      [
        "r",
        "ap"
      ],
      [
        "om",
        "et"
      ],
      [
        "pro",
        "ject"
      ],
      [
        "comp",
        "os"
      ],
      [
        "dep",
        "end"
      ],
      [
        "B",
        "C"
      ],
      [
        "constru",
        "ction"
      ],
      [
        "l",
        "ished"
      ],
      [
        "sh",
        "ould"
      ],
      [
        "bo",
        "ard"
      ],
      [
        "chan",
        "ge"
      ],
      [
        "ra",
        "ised"
      ],
      [
        "act",
        "iv"
      ],
      [
        "Wh",
        "ile"
      ],
      [
        "mi",
        "x"
      ],
      [
        "D",
        "av"
      ],
      [
        "l",
        "aw"
      ],
      [
        "writ",
        "ing"
      ],
      [
        "Sc",
        "ot"
      ],
      [
        "s",
        "oci"
      ],
      [
        "x",
        "im"
      ],
      [
        "return",
        "ed"
      ],
      [
        "S",
        "u"
      ],
      [
        "f",
        "ather"
      ],
      [
        "op",
        "e"
      ],
      [
        "work",
        "s"
      ],
      [
        "Un",
        "iversity"
      ],
      [
        "develop",
        "ed"
      ],
      [
        "b",
        "or"
      ],
      [
        "ch",
        "art"
      ],
      [
        "are",
        "n"
      ],
      [
        "estab",
        "lished"
      ],
      [
        "k",
        "s"
      ],
      [
        "s",
        "ound"
      ],
      [
        "19",
        "0"
      ],
      [
        "ke",
        "y"
      ],
      [
        "E",
        "d"
      ],
      [
        "d",
        "ri"
      ],
      [
        "g",
        "od"
      ],
      [
        "ith",
        "er"
      ],
      [
        "Th",
        "ese"
      ],
      [
        "ann",
        "oun"
      ],
      [
        "Americ",
        "a"
      ],
      [
        "ro",
        "om"
      ],
      [
        "pop",
        "ulation"
      ],
      [
        "I",
        "re"
      ],
      [
        "n",
        "er"
      ],
      [
        "ad",
        "es"
      ],
      [
        "intro",
        "du"
      ],
      [
        "J",
        "ack"
      ],
      [
        "m",
        "it"
      ],
      [
        "com",
        "ing"
      ],
      [
        "am",
        "b"
      ],
      [
        "reach",
        "ed"
      ],
      [
        "C",
        "or"
      ],
      [
        "K",
        "e"
      ],
      [
        "i",
        "ent"
      ],
      [
        "ear",
        "li"
      ],
      [
        "ran",
        "ge"
      ],
      [
        "not",
        "ed"
      ],
      [
        "Ire",
        "land"
      ],
      [
        "ag",
        "re"
      ],
      [
        "Bl",
        "ack"
      ],
      [
        "ig",
        "ade"
      ],
      [
        "though",
        "t"
      ],
      [
        "um",
        "ent"
      ],
      [
        "build",
        "ing"
      ],
      [
        "ac",
        "ross"
      ],
      [
        "ty",
        "p"
      ],
      [
        "through",
        "out"
      ],
      [
        "ond",
        "on"
      ],
      [
        "M",
        "ich"
      ],
      [
        "ain",
        "t"
      ],
      [
        "ce",
        "ll"
      ],
      [
        "hum",
        "an"
      ],
      [
        "L",
        "ondon"
      ],
      [
        "h",
        "ip"
      ],
      [
        "s",
        "um"
      ],
      [
        "E",
        "x"
      ],
      [
        "E",
        "ast"
      ],
      [
        "te",
        "en"
      ],
      [
        "Wil",
        "liam"
      ],
      [
        "fel",
        "t"
      ],
      [
        "g",
        "ood"
      ],
      [
        "on",
        "es"
      ],
      [
        "ac",
        "y"
      ],
      [
        "ful",
        "l"
      ],
      [
        "b",
        "urn"
      ],
      [
        "ar",
        "a"
      ],
      [
        "him",
        "self"
      ],
      [
        "Re",
        "g"
      ],
      [
        "develop",
        "ment"
      ],
      [
        "B",
        "er"
      ],
      [
        "bl",
        "ack"
      ],
      [
        "med",
        "i"
      ],
      [
        "olog",
        "ical"
      ],
      [
        "W",
        "al"
      ],
      [
        "in",
        "ess"
      ],
      [
        "n",
        "d"
      ],
      [
        "per",
        "formed"
      ],
      [
        "f",
        "le"
      ],
      [
        "comple",
        "te"
      ],
      [
        "su",
        "ff"
      ],
      [
        "set",
        "t"
      ],
      [
        "Austral",
        "ia"
      ],
      [
        "import",
        "ant"
      ],
      [
        "signific",
        "ant"
      ],
      [
        "e",
        "ight"
      ],
      [
        "l",
        "ay"
      ],
      [
        "6",
        "0"
      ],
      [
        "cover",
        "ed"
      ],
      [
        "iv",
        "il"
      ],
      [
        "At",
        "l"
      ],
      [
        "mil",
        "es"
      ],
      [
        "M",
        "ag"
      ],
      [
        "i",
        "or"
      ],
      [
        "o",
        "v"
      ],
      [
        "un",
        "g"
      ],
      [
        "li",
        "ve"
      ],
      [
        "R",
        "ich"
      ],
      [
        "S",
        "y"
      ],
      [
        "b",
        "us"
      ],
      [
        "dest",
        "roy"
      ],
      [
        "moder",
        "n"
      ],
      [
        "n",
        "u"
      ],
      [
        "an",
        "a"
      ],
      [
        "it",
        "ive"
      ],
      [
        "inter",
        "est"
      ],
      [
        "tele",
        "vision"
      ],
      [
        "P",
        "al"
      ],
      [
        "R",
        "oy"
      ],
      [
        "r",
        "ing"
      ],
      [
        "vari",
        "ous"
      ],
      [
        "sty",
        "le"
      ],
      [
        "are",
        "as"
      ],
      [
        "pr",
        "im"
      ],
      [
        "fron",
        "t"
      ],
      [
        "appear",
        "ed"
      ],
      [
        "re",
        "w"
      ],
      [
        "di",
        "ed"
      ],
      [
        "a",
        "ign"
      ],
      [
        "c",
        "ing"
      ],
      [
        "c",
        "il"
      ],
      [
        "ne",
        "ed"
      ],
      [
        "ree",
        "k"
      ],
      [
        "og",
        "n"
      ],
      [
        "rel",
        "ation"
      ],
      [
        "T",
        "V"
      ],
      [
        "ag",
        "o"
      ],
      [
        "oth",
        "ers"
      ],
      [
        "m",
        "arri"
      ],
      [
        "ro",
        "ck"
      ],
      [
        "ev",
        "ents"
      ],
      [
        "do",
        "es"
      ],
      [
        "ot",
        "s"
      ],
      [
        "ab",
        "or"
      ],
      [
        "Ro",
        "ad"
      ],
      [
        "a",
        "ver"
      ],
      [
        "d",
        "a"
      ],
      [
        "m",
        "un"
      ],
      [
        "to",
        "o"
      ],
      [
        "se",
        "x"
      ],
      [
        "te",
        "chn"
      ],
      [
        "ap",
        "point"
      ],
      [
        "start",
        "ed"
      ],
      [
        "id",
        "ence"
      ],
      [
        "play",
        "ers"
      ],
      [
        "miss",
        "ion"
      ],
      [
        "H",
        "igh"
      ],
      [
        "J",
        "ames"
      ],
      [
        "f",
        "ig"
      ],
      [
        "om",
        "b"
      ],
      [
        "ge",
        "ther"
      ],
      [
        "P",
        "o"
      ],
      [
        "is",
        "on"
      ],
      [
        "ic",
        "ult"
      ],
      [
        "fe",
        "et"
      ],
      [
        "re",
        "en"
      ],
      [
        "st",
        "ant"
      ],
      [
        "ex",
        "peri"
      ],
      [
        "in",
        "o"
      ],
      [
        "it",
        "ing"
      ],
      [
        "po",
        "em"
      ],
      [
        "iz",
        "ation"
      ],
      [
        "Mon",
        "t"
      ],
      [
        "M",
        "ount"
      ],
      [
        "i",
        "ble"
      ],
      [
        "n",
        "al"
      ],
      [
        "v",
        "ill"
      ],
      [
        "in",
        "ation"
      ],
      [
        "performan",
        "ce"
      ],
      [
        "Count",
        "y"
      ],
      [
        "b",
        "es"
      ],
      [
        "s",
        "l"
      ],
      [
        "ca",
        "used"
      ],
      [
        "is",
        "ing"
      ],
      [
        "al",
        "th"
      ],
      [
        "pr",
        "ed"
      ],
      [
        "form",
        "ation"
      ],
      [
        "18",
        "9"
      ],
      [
        "A",
        "b"
      ],
      [
        "Y",
        "ou"
      ],
      [
        "E",
        "l"
      ],
      [
        "P",
        "a"
      ],
      [
        "k",
        "ed"
      ],
      [
        "qu",
        "ad"
      ],
      [
        "i",
        "fe"
      ],
      [
        "m",
        "ount"
      ],
      [
        "gr",
        "ad"
      ],
      [
        "H",
        "am"
      ],
      [
        "b",
        "orn"
      ],
      [
        "os",
        "aur"
      ],
      [
        "co",
        "ast"
      ],
      [
        "h",
        "ind"
      ],
      [
        "al",
        "ity"
      ],
      [
        "cre",
        "ated"
      ],
      [
        "Ph",
        "il"
      ],
      [
        "scri",
        "pt"
      ],
      [
        "200",
        "4"
      ],
      [
        "amp",
        "le"
      ],
      [
        "rel",
        "ig"
      ],
      [
        "r",
        "ul"
      ],
      [
        "ent",
        "ire"
      ],
      [
        "ul",
        "l"
      ],
      [
        "ab",
        "ility"
      ],
      [
        "200",
        "5"
      ],
      [
        "in",
        "v"
      ],
      [
        "er",
        "a"
      ],
      [
        "ver",
        "t"
      ],
      [
        "polit",
        "ical"
      ],
      [
        "S",
        "o"
      ],
      [
        "f",
        "ar"
      ],
      [
        "v",
        "an"
      ],
      [
        "mo",
        "ther"
      ],
      [
        "charac",
        "ters"
      ],
      [
        "c",
        "ir"
      ],
      [
        "the",
        "ast"
      ],
      [
        "al",
        "y"
      ],
      [
        "S",
        "ci"
      ],
      [
        "ion",
        "ed"
      ],
      [
        "le",
        "ct"
      ],
      [
        "S",
        "om"
      ],
      [
        "t",
        "aken"
      ],
      [
        "f",
        "ight"
      ],
      [
        "s",
        "w"
      ],
      [
        "st",
        "one"
      ],
      [
        "batt",
        "le"
      ],
      [
        "f",
        "av"
      ],
      [
        "on",
        "ce"
      ],
      [
        "ex",
        "ist"
      ],
      [
        "T",
        "own"
      ],
      [
        "c",
        "op"
      ],
      [
        "as",
        "ing"
      ],
      [
        "us",
        "es"
      ],
      [
        "ard",
        "ed"
      ],
      [
        "C",
        "are"
      ],
      [
        "H",
        "ist"
      ],
      [
        "y",
        "ard"
      ],
      [
        "an",
        "im"
      ],
      [
        "con",
        "ne"
      ],
      [
        "loc",
        "ated"
      ],
      [
        "kill",
        "ed"
      ],
      [
        "a",
        "el"
      ],
      [
        "l",
        "ines"
      ],
      [
        "u",
        "es"
      ],
      [
        "il",
        "le"
      ],
      [
        "remain",
        "ed"
      ],
      [
        "g",
        "row"
      ],
      [
        "u",
        "ck"
      ],
      [
        "trad",
        "ition"
      ],
      [
        "r",
        "ain"
      ],
      [
        "s",
        "ess"
      ],
      [
        "be",
        "t"
      ],
      [
        "de",
        "but"
      ],
      [
        "kn",
        "ow"
      ],
      [
        "comple",
        "ted"
      ],
      [
        "Mus",
        "ic"
      ],
      [
        "F",
        "eder"
      ],
      [
        "sc",
        "ored"
      ],
      [
        "ubl",
        "ic"
      ],
      [
        "diff",
        "icult"
      ],
      [
        "gun",
        "s"
      ],
      [
        "King",
        "dom"
      ],
      [
        "h",
        "ar"
      ],
      [
        "t",
        "ar"
      ],
      [
        "camp",
        "aign"
      ],
      [
        "announ",
        "ced"
      ],
      [
        "C",
        "up"
      ],
      [
        "h",
        "ost"
      ],
      [
        "p",
        "ing"
      ],
      [
        "st",
        "ars"
      ],
      [
        "ap",
        "e"
      ],
      [
        "me",
        "et"
      ],
      [
        "Gr",
        "and"
      ],
      [
        "Austral",
        "ian"
      ],
      [
        "st",
        "at"
      ],
      [
        "pe",
        "ak"
      ],
      [
        "reg",
        "ion"
      ],
      [
        "h",
        "ab"
      ],
      [
        "n",
        "ames"
      ],
      [
        "or",
        "ies"
      ],
      [
        "be",
        "l"
      ],
      [
        "An",
        "g"
      ],
      [
        "S",
        "un"
      ],
      [
        "pro",
        "cess"
      ],
      [
        "go",
        "al"
      ],
      [
        "Comp",
        "any"
      ],
      [
        "l",
        "ittle"
      ],
      [
        "in",
        "stead"
      ],
      [
        "add",
        "ed"
      ],
      [
        "bre",
        "ak"
      ],
      [
        "en",
        "ced"
      ],
      [
        "mem",
        "ber"
      ],
      [
        "ele",
        "ct"
      ],
      [
        "possi",
        "ble"
      ],
      [
        "g",
        "in"
      ],
      [
        "st",
        "udi"
      ],
      [
        "ve",
        "st"
      ],
      [
        "reg",
        "ular"
      ],
      [
        "press",
        "ion"
      ],
      [
        "v",
        "oc"
      ],
      [
        "w",
        "ife"
      ],
      [
        "is",
        "land"
      ],
      [
        "le",
        "ast"
      ],
      [
        "follow",
        "ed"
      ],
      [
        "or",
        "se"
      ],
      [
        "p",
        "air"
      ],
      [
        "to",
        "gether"
      ],
      [
        "ap",
        "er"
      ],
      [
        "c",
        "ause"
      ],
      [
        "t",
        "re"
      ],
      [
        "origin",
        "ally"
      ],
      [
        "month",
        "s"
      ],
      [
        "sou",
        "thern"
      ],
      [
        "m",
        "ot"
      ],
      [
        "m",
        "ass"
      ],
      [
        "n",
        "on"
      ],
      [
        "n",
        "ed"
      ],
      [
        "com",
        "ment"
      ],
      [
        "Ar",
        "my"
      ],
      [
        "B",
        "ra"
      ],
      [
        "S",
        "ome"
      ],
      [
        "i",
        "que"
      ],
      [
        "k",
        "y"
      ],
      [
        "l",
        "oss"
      ],
      [
        "w",
        "all"
      ],
      [
        "res",
        "ident"
      ],
      [
        "ass",
        "oci"
      ],
      [
        "stud",
        "y"
      ],
      [
        "Dav",
        "id"
      ],
      [
        "B",
        "ill"
      ],
      [
        "f",
        "if"
      ],
      [
        "ot",
        "a"
      ],
      [
        "play",
        "ing"
      ],
      [
        "c",
        "ru"
      ],
      [
        "h",
        "urricane"
      ],
      [
        "s",
        "port"
      ],
      [
        "w",
        "omen"
      ],
      [
        "en",
        "ed"
      ],
      [
        "Fran",
        "ce"
      ],
      [
        "E",
        "v"
      ],
      [
        "b",
        "road"
      ],
      [
        "g",
        "ot"
      ],
      [
        "re",
        "li"
      ],
      [
        "rec",
        "ogn"
      ],
      [
        "cons",
        "ist"
      ],
      [
        "open",
        "ed"
      ],
      [
        "3",
        "5"
      ],
      [
        "ter",
        "min"
      ],
      [
        "east",
        "ern"
      ],
      [
        "c",
        "arri"
      ],
      [
        "at",
        "a"
      ],
      [
        "crit",
        "ics"
      ],
      [
        "Ch",
        "ampion"
      ],
      [
        "200",
        "3"
      ],
      [
        "b",
        "ase"
      ],
      [
        "os",
        "p"
      ],
      [
        "Ro",
        "bert"
      ],
      [
        "event",
        "ually"
      ],
      [
        "prof",
        "ess"
      ],
      [
        "L",
        "ove"
      ],
      [
        "e",
        "y"
      ],
      [
        "h",
        "o"
      ],
      [
        "od",
        "es"
      ],
      [
        "est",
        "im"
      ],
      [
        "feat",
        "ures"
      ],
      [
        "cer",
        "t"
      ],
      [
        "G",
        "od"
      ],
      [
        "M",
        "in"
      ],
      [
        "d",
        "on"
      ],
      [
        "m",
        "ph"
      ],
      [
        "201",
        "5"
      ],
      [
        "cre",
        "t"
      ],
      [
        "S",
        "A"
      ],
      [
        "four",
        "th"
      ],
      [
        "D",
        "u"
      ],
      [
        "V",
        "al"
      ],
      [
        "r",
        "oute"
      ],
      [
        "dec",
        "ided"
      ],
      [
        "bird",
        "s"
      ],
      [
        "v",
        "ir"
      ],
      [
        "for",
        "ced"
      ],
      [
        "cl",
        "os"
      ],
      [
        "av",
        "ing"
      ],
      [
        "tem",
        "por"
      ],
      [
        "Tw",
        "o"
      ],
      [
        "s",
        "aw"
      ],
      [
        "ac",
        "cept"
      ],
      [
        "comm",
        "er"
      ],
      [
        "point",
        "s"
      ],
      [
        "grap",
        "hy"
      ],
      [
        "in",
        "al"
      ],
      [
        "ill",
        "a"
      ],
      [
        "l",
        "ack"
      ],
      [
        "dam",
        "age"
      ],
      [
        "s",
        "old"
      ],
      [
        "ic",
        "a"
      ],
      [
        "ic",
        "ated"
      ],
      [
        "he",
        "avy"
      ],
      [
        "im",
        "pro"
      ],
      [
        "lead",
        "ing"
      ],
      [
        "az",
        "ine"
      ],
      [
        "d",
        "ed"
      ],
      [
        "e",
        "ither"
      ],
      [
        "p",
        "at"
      ],
      [
        "cur",
        "rent"
      ],
      [
        "Batt",
        "alion"
      ],
      [
        "H",
        "en"
      ],
      [
        "M",
        "i"
      ],
      [
        "S",
        "w"
      ],
      [
        "se",
        "par"
      ],
      [
        "pro",
        "ble"
      ],
      [
        "form",
        "s"
      ],
      [
        "ric",
        "k"
      ],
      [
        "writ",
        "er"
      ],
      [
        "c",
        "up"
      ],
      [
        "n",
        "ar"
      ],
      [
        "p",
        "ie"
      ],
      [
        "be",
        "hind"
      ],
      [
        "fin",
        "ished"
      ],
      [
        "fri",
        "end"
      ],
      [
        "3",
        "1"
      ],
      [
        "d",
        "ou"
      ],
      [
        "u",
        "g"
      ],
      [
        "in",
        "divid"
      ],
      [
        "beli",
        "eved"
      ],
      [
        "Care",
        "y"
      ],
      [
        "M",
        "ad"
      ],
      [
        "P",
        "art"
      ],
      [
        "d",
        "le"
      ],
      [
        "spec",
        "ial"
      ],
      [
        "liam",
        "ent"
      ],
      [
        "claim",
        "ed"
      ],
      [
        "vi",
        "er"
      ],
      [
        "cond",
        "om"
      ],
      [
        "M",
        "or"
      ],
      [
        "R",
        "ed"
      ],
      [
        "m",
        "ater"
      ],
      [
        "id",
        "a"
      ],
      [
        "res",
        "pect"
      ],
      [
        "appear",
        "ance"
      ],
      [
        "Roy",
        "al"
      ],
      [
        "ign",
        "ed"
      ],
      [
        "Pl",
        "ay"
      ],
      [
        "2",
        "nd"
      ],
      [
        "A",
        "m"
      ],
      [
        "M",
        "ed"
      ],
      [
        "s",
        "en"
      ],
      [
        "s",
        "our"
      ],
      [
        "ll",
        "ed"
      ],
      [
        "fan",
        "try"
      ],
      [
        "8",
        "0"
      ],
      [
        "M",
        "ex"
      ],
      [
        "em",
        "ploy"
      ],
      [
        "ex",
        "ample"
      ],
      [
        "St",
        "re"
      ],
      [
        "cent",
        "ral"
      ],
      [
        "lan",
        "gu"
      ],
      [
        "serv",
        "ice"
      ],
      [
        "D",
        "ay"
      ],
      [
        "y",
        "ards"
      ],
      [
        "al",
        "most"
      ],
      [
        "ing",
        "ton"
      ],
      [
        "av",
        "es"
      ],
      [
        "Wh",
        "ite"
      ],
      [
        "dire",
        "cted"
      ],
      [
        "west",
        "ern"
      ],
      [
        "7",
        "0"
      ],
      [
        "G",
        "ame"
      ],
      [
        "c",
        "ase"
      ],
      [
        "l",
        "in"
      ],
      [
        "com",
        "pl"
      ],
      [
        "comp",
        "an"
      ],
      [
        "vi",
        "a"
      ],
      [
        "Europe",
        "an"
      ],
      [
        "at",
        "ors"
      ],
      [
        "te",
        "l"
      ],
      [
        "ant",
        "i"
      ],
      [
        "me",
        "an"
      ],
      [
        "gener",
        "ally"
      ],
      [
        "Feder",
        "er"
      ],
      [
        "c",
        "ul"
      ],
      [
        "h",
        "on"
      ],
      [
        "to",
        "wards"
      ],
      [
        "ele",
        "ments"
      ],
      [
        "A",
        "ct"
      ],
      [
        "he",
        "el"
      ],
      [
        "ri",
        "ver"
      ],
      [
        "gen",
        "eral"
      ],
      [
        "O",
        "li"
      ],
      [
        "c",
        "ross"
      ],
      [
        "t",
        "ail"
      ],
      [
        "ur",
        "b"
      ],
      [
        "ter",
        "m"
      ],
      [
        "con",
        "cl"
      ],
      [
        "ass",
        "ist"
      ],
      [
        "str",
        "y"
      ],
      [
        "low",
        "er"
      ],
      [
        "br",
        "ought"
      ],
      [
        "Br",
        "igade"
      ],
      [
        "read",
        "y"
      ],
      [
        "week",
        "s"
      ],
      [
        "W",
        "ales"
      ],
      [
        "f",
        "ly"
      ],
      [
        "st",
        "age"
      ],
      [
        "ce",
        "ed"
      ],
      [
        "up",
        "on"
      ],
      [
        "sp",
        "ir"
      ],
      [
        "hel",
        "p"
      ],
      [
        "Inter",
        "national"
      ],
      [
        "F",
        "lor"
      ],
      [
        "S",
        "an"
      ],
      [
        "in",
        "ch"
      ],
      [
        "high",
        "way"
      ],
      [
        "la",
        "un"
      ],
      [
        "R",
        "ep"
      ],
      [
        "f",
        "ree"
      ],
      [
        "p",
        "ly"
      ],
      [
        "de",
        "fe"
      ],
      [
        "ot",
        "ed"
      ],
      [
        "dire",
        "ctor"
      ],
      [
        "feat",
        "ured"
      ],
      [
        "Vi",
        "et"
      ],
      [
        "I",
        "r"
      ],
      [
        "O",
        "ther"
      ],
      [
        "d",
        "ate"
      ],
      [
        "l",
        "am"
      ],
      [
        "air",
        "craft"
      ],
      [
        "sur",
        "vi"
      ],
      [
        "C",
        "r"
      ],
      [
        "n",
        "ine"
      ],
      [
        "M",
        "y"
      ],
      [
        "r",
        "ation"
      ],
      [
        "re",
        "search"
      ],
      [
        "con",
        "tract"
      ],
      [
        "ord",
        "an"
      ],
      [
        "u",
        "k"
      ],
      [
        "ra",
        "il"
      ],
      [
        "appro",
        "ach"
      ],
      [
        "S",
        "tr"
      ],
      [
        "st",
        "s"
      ],
      [
        "id",
        "s"
      ],
      [
        "mo",
        "de"
      ],
      [
        "oc",
        "ial"
      ],
      [
        "me",
        "as"
      ],
      [
        "ict",
        "ion"
      ],
      [
        "4",
        "5"
      ],
      [
        "A",
        "p"
      ],
      [
        "g",
        "ress"
      ],
      [
        "con",
        "du"
      ],
      [
        "part",
        "s"
      ],
      [
        "Geor",
        "ge"
      ],
      [
        "provid",
        "ed"
      ],
      [
        "F",
        "ollow"
      ],
      [
        "G",
        "al"
      ],
      [
        "re",
        "ve"
      ],
      [
        "red",
        "u"
      ],
      [
        "flo",
        "od"
      ],
      [
        "J",
        "ordan"
      ],
      [
        "se",
        "a"
      ],
      [
        "allow",
        "ed"
      ],
      [
        "A",
        "A"
      ],
      [
        "F",
        "rom"
      ],
      [
        "R",
        "ock"
      ],
      [
        "n",
        "at"
      ],
      [
        "ist",
        "ic"
      ],
      [
        "au",
        "di"
      ],
      [
        "H",
        "o"
      ],
      [
        "J",
        "ew"
      ],
      [
        "se",
        "m"
      ],
      [
        "se",
        "ction"
      ],
      [
        "Th",
        "om"
      ],
      [
        "ci",
        "ally"
      ],
      [
        "cer",
        "tain"
      ],
      [
        "earli",
        "er"
      ],
      [
        "Pa",
        "ul"
      ],
      [
        "H",
        "ouse"
      ],
      [
        "at",
        "in"
      ],
      [
        "col",
        "l"
      ],
      [
        "use",
        "um"
      ],
      [
        "M",
        "ac"
      ],
      [
        "r",
        "id"
      ],
      [
        "re",
        "ason"
      ],
      [
        "ou",
        "ri"
      ],
      [
        "ra",
        "ther"
      ],
      [
        "201",
        "4"
      ],
      [
        "work",
        "ed"
      ],
      [
        "sub",
        "sequ"
      ],
      [
        "fem",
        "ale"
      ],
      [
        "Atl",
        "antic"
      ],
      [
        "C",
        "ap"
      ],
      [
        "F",
        "ir"
      ],
      [
        "d",
        "y"
      ],
      [
        "ish",
        "ing"
      ],
      [
        "pr",
        "act"
      ],
      [
        "lo",
        "ve"
      ],
      [
        "open",
        "ing"
      ],
      [
        "Christ",
        "ian"
      ],
      [
        "M",
        "ary"
      ],
      [
        "cre",
        "w"
      ],
      [
        "work",
        "ing"
      ],
      [
        "II",
        "I"
      ],
      [
        "oper",
        "ations"
      ],
      [
        "larg",
        "est"
      ],
      [
        "vict",
        "ory"
      ],
      [
        "Follow",
        "ing"
      ],
      [
        "3",
        "8"
      ],
      [
        "B",
        "ay"
      ],
      [
        "ran",
        "g"
      ],
      [
        "Com",
        "mand"
      ],
      [
        "Is",
        "land"
      ],
      [
        "Her",
        "o"
      ],
      [
        "particular",
        "ly"
      ],
      [
        "want",
        "ed"
      ],
      [
        "manag",
        "er"
      ],
      [
        "P",
        "ri"
      ],
      [
        "d",
        "ing"
      ],
      [
        "f",
        "oc"
      ],
      [
        "ar",
        "ies"
      ],
      [
        "19",
        "th"
      ],
      [
        "stand",
        "ing"
      ],
      [
        "tra",
        "vel"
      ],
      [
        "jo",
        "ined"
      ],
      [
        "tro",
        "ops"
      ],
      [
        "D",
        "on"
      ],
      [
        "p",
        "ers"
      ],
      [
        "te",
        "e"
      ],
      [
        "nor",
        "thern"
      ],
      [
        "cour",
        "t"
      ],
      [
        "V",
        "er"
      ],
      [
        "a",
        "ult"
      ],
      [
        "l",
        "eng"
      ],
      [
        "th",
        "od"
      ],
      [
        "5",
        "00"
      ],
      [
        "st",
        "ren"
      ],
      [
        "he",
        "st"
      ],
      [
        "ev",
        "idence"
      ],
      [
        "g",
        "ra"
      ],
      [
        "qu",
        "est"
      ],
      [
        "Flor",
        "ida"
      ],
      [
        "con",
        "om"
      ],
      [
        "em",
        "y"
      ],
      [
        "eng",
        "ine"
      ],
      [
        "coun",
        "ter"
      ],
      [
        "Stre",
        "et"
      ],
      [
        "p",
        "ast"
      ],
      [
        "it",
        "a"
      ],
      [
        "su",
        "per"
      ],
      [
        "out",
        "side"
      ],
      [
        "18",
        "5"
      ],
      [
        "say",
        "ing"
      ],
      [
        "M",
        "ost"
      ],
      [
        "m",
        "ach"
      ],
      [
        "in",
        "j"
      ],
      [
        "ac",
        "count"
      ],
      [
        "iv",
        "al"
      ],
      [
        "cy",
        "cl"
      ],
      [
        "M",
        "ark"
      ],
      [
        "Z",
        "e"
      ],
      [
        "m",
        "al"
      ],
      [
        "er",
        "ous"
      ],
      [
        "issu",
        "e"
      ],
      [
        "Te",
        "ch"
      ],
      [
        "h",
        "ours"
      ],
      [
        "t",
        "ies"
      ],
      [
        "ent",
        "ial"
      ],
      [
        "wh",
        "om"
      ],
      [
        "stren",
        "g"
      ],
      [
        "al",
        "d"
      ],
      [
        "se",
        "ll"
      ],
      [
        "av",
        "ail"
      ],
      [
        "min",
        "ist"
      ],
      [
        "Miss",
        "ouri"
      ],
      [
        "F",
        "A"
      ],
      [
        "t",
        "or"
      ],
      [
        "one",
        "y"
      ],
      [
        "200",
        "1"
      ],
      [
        "18",
        "8"
      ],
      [
        "leng",
        "th"
      ],
      [
        "d",
        "rop"
      ],
      [
        "g",
        "old"
      ],
      [
        "h",
        "ous"
      ],
      [
        "st",
        "ay"
      ],
      [
        "de",
        "al"
      ],
      [
        "ter",
        "rit"
      ],
      [
        "ap",
        "s"
      ],
      [
        "pl",
        "ann"
      ],
      [
        "quar",
        "ter"
      ],
      [
        "m",
        "ing"
      ],
      [
        "th",
        "ink"
      ],
      [
        "st",
        "ation"
      ],
      [
        "pro",
        "b"
      ],
      [
        "vi",
        "ol"
      ],
      [
        "Q",
        "u"
      ],
      [
        "T",
        "or"
      ],
      [
        "k",
        "en"
      ],
      [
        "n",
        "omin"
      ],
      [
        "ac",
        "c"
      ],
      [
        "am",
        "ent"
      ],
      [
        "ty",
        "pe"
      ],
      [
        "al",
        "ter"
      ],
      [
        "ar",
        "gu"
      ],
      [
        "le",
        "arn"
      ],
      [
        "se",
        "em"
      ],
      [
        "qu",
        "ick"
      ],
      [
        "po",
        "or"
      ],
      [
        "po",
        "ol"
      ],
      [
        "B",
        "el"
      ],
      [
        "V",
        "ir"
      ],
      [
        "t",
        "ic"
      ],
      [
        "so",
        "on"
      ],
      [
        "design",
        "ed"
      ],
      [
        "C",
        "am"
      ],
      [
        "D",
        "ep"
      ],
      [
        "G",
        "l"
      ],
      [
        "b",
        "ill"
      ],
      [
        "d",
        "ol"
      ],
      [
        "h",
        "ib"
      ],
      [
        "am",
        "ount"
      ],
      [
        "if",
        "y"
      ],
      [
        "ran",
        "ch"
      ],
      [
        "foot",
        "ball"
      ],
      [
        "C",
        "ro"
      ],
      [
        "C",
        "oun"
      ],
      [
        "p",
        "an"
      ],
      [
        "p",
        "raised"
      ],
      [
        "al",
        "and"
      ],
      [
        "B",
        "est"
      ],
      [
        "e",
        "cut"
      ],
      [
        "m",
        "el"
      ],
      [
        "m",
        "ult"
      ],
      [
        "p",
        "ain"
      ],
      [
        "s",
        "po"
      ],
      [
        "de",
        "li"
      ],
      [
        "fl",
        "ight"
      ],
      [
        "go",
        "als"
      ],
      [
        "remain",
        "s"
      ],
      [
        "Fir",
        "st"
      ],
      [
        "p",
        "has"
      ],
      [
        "u",
        "el"
      ],
      [
        "Mich",
        "ael"
      ],
      [
        "3",
        "6"
      ],
      [
        "B",
        "us"
      ],
      [
        "r",
        "ace"
      ],
      [
        "pl",
        "es"
      ],
      [
        "press",
        "ed"
      ],
      [
        "offic",
        "ial"
      ],
      [
        "wind",
        "s"
      ],
      [
        "appoint",
        "ed"
      ],
      [
        "D",
        "r"
      ],
      [
        "H",
        "el"
      ],
      [
        "b",
        "i"
      ],
      [
        "c",
        "ivil"
      ],
      [
        "ab",
        "ove"
      ],
      [
        "dis",
        "cus"
      ],
      [
        "incre",
        "ased"
      ],
      [
        "E",
        "gy"
      ],
      [
        "a",
        "ut"
      ],
      [
        "f",
        "re"
      ],
      [
        "h",
        "om"
      ],
      [
        "i",
        "als"
      ],
      [
        "ig",
        "g"
      ],
      [
        "previous",
        "ly"
      ],
      [
        "H",
        "ill"
      ],
      [
        "in",
        "vest"
      ],
      [
[...]
