{
  "version": "1.0",
  "truncation": null,
  "padding": null,
  "added_tokens": [
    {
      "id": 0,
      "content": "[UNK]",
      "single_word": false,
      "lstrip": false,
      "rstrip": false,
      "normalized": false,
      "special": true
    },
    {
      "id": 1,
      "content": "[CLS]",
      "single_word": false,
      "lstrip": false,
      "rstrip": false,
      "normalized": false,
      "special": true
    },
    {
      "id": 2,
      "content": "[SEP]",
      "single_word": false,
      "lstrip": false,
      "rstrip": false,
      "normalized": false,
      "special": true
    },
    {
      "id": 3,
      "content": "[PAD]",
      "single_word": false,
      "lstrip": false,
      "rstrip": false,
      "normalized": false,
      "special": true
    },
    {
      "id": 4,
      "content": "[MASK]",
      "single_word": false,
      "lstrip": false,
      "rstrip": false,
      "normalized": false,
      "special": true
    }
  ],
  "normalizer": null,
  "pre_tokenizer": {
    "type": "Whitespace"
  },
  "post_processor": {
    "type": "TemplateProcessing",
    "single": [
      {
        "Sequence": {
          "id": "A",
          "type_id": 0
        }
      },
      {
        "SpecialToken": {
          "id": "[SEP]",
          "type_id": 0
        }
      }
    ],
    "pair": [
      {
        "Sequence": {
          "id": "A",
          "type_id": 0
        }
      },
      {
        "SpecialToken": {
          "id": "[SEP]",
          "type_id": 0
        }
      },
      {
        "Sequence": {
          "id": "B",
          "type_id": 1
        }
      },
      {
        "SpecialToken": {
          "id": "[SEP]",
          "type_id": 1
        }
      }
    ],
    "special_tokens": {
      "[SEP]": {
        "id": "[SEP]",
        "ids": [
          2
        ],
        "tokens": [
          "[SEP]"
        ]
      }
    }
  },
  "decoder": null,
  "model": {
    "type": "BPE",
    "dropout": null,
    "unk_token": "[UNK]",
    "continuing_subword_prefix": null,
    "end_of_word_suffix": null,
    "fuse_unk": false,
    "byte_fallback": false,
    "ignore_merges": false,
    "vocab": {
      "[UNK]": 0,
      "[CLS]": 1,
      "[SEP]": 2,
      "[PAD]": 3,
      "[MASK]": 4,
      "\"": 5,
      "$": 6,
      "&": 7,
      "'": 8,
      "(": 9,
      ")": 10,
      ",": 11,
      "-": 12,
      ".": 13,
      "/": 14,
      "0": 15,
      "1": 16,
      "2": 17,
      "3": 18,
      "4": 19,
      "5": 20,
      "6": 21,
      "7": 22,
      "8": 23,
      "9": 24,
      ":": 25,
      ";": 26,
      "=": 27,
      "@": 28,
      "A": 29,
      "B": 30,
      "C": 31,
      "D": 32,
      "E": 33,
      "F": 34,
      "G": 35,
      "H": 36,
      "I": 37,
      "J": 38,
      "K": 39,
      "L": 40,
      "M": 41,
      "N": 42,
      "O": 43,
      "P": 44,
      "Q": 45,
      "R": 46,
      "S": 47,
      "T": 48,
      "U": 49,
      "V": 50,
      "W": 51,
      "X": 52,
      "Y": 53,
      "Z": 54,
      "[": 55,
      "]": 56,
      "a": 57,
      "b": 58,
      "c": 59,
      "d": 60,
      "e": 61,
      "f": 62,
      "g": 63,
      "h": 64,
      "i": 65,
      "j": 66,
      "k": 67,
      "l": 68,
      "m": 69,
      "n": 70,
      "o": 71,
      "p": 72,
      "q": 73,
      "r": 74,
      "s": 75,
      "t": 76,
      "u": 77,
      "v": 78,
      "w": 79,
      "x": 80,
      "y": 81,
      "z": 82,
      "Æ": 83,
      "Ō": 84,
      "ō": 85,
      "ū": 86,
      "い": 87,
      "う": 88,
      "か": 89,
      "が": 90,
      "き": 91,
      "く": 92,
      "し": 93,
      "た": 94,
      "つ": 95,
      "な": 96,
      "の": 97,
      "め": 98,
      "も": 99,
      "ら": 100,
      "ァ": 101,
      "ア": 102,
      "キ": 103,
      "ュ": 104,
      "リ": 105,
      "ル": 106,
      "ヴ": 107,
      "乙": 108,
      "光": 109,
      "名": 110,
      "君": 111,
      "命": 112,
      "咲": 113,
      "場": 114,
      "女": 115,
      "戦": 116,
      "灯": 117,
      "瘡": 118,
      "花": 119,
      "誓": 120,
      "誰": 121,
      "赤": 122,
      "運": 123,
      "銃": 124,
      "願": 125,
      "３": 126,
      "�": 127,
      "th": 128,
      "the": 129,
      "in": 130,
      "er": 131,
      "an": 132,
      "on": 133,
      "ed": 134,
      "al": 135,
      "en": 136,
      "or": 137,
      "es": 138,
      "ar": 139,
      "it": 140,
      "at": 141,
      "as": 142,
      "of": 143,
      "to": 144,
      "re": 145,
      "and": 146,
      "le": 147,
      "ing": 148,
      "is": 149,
      "me": 150,
      "ou": 151,
      "ic": 152,
      "ion": 153,
      "st": 154,
      "ct": 155,
      "ent": 156,
      "ro": 157,
      "ch": 158,
      "ga": 159,
      "ri": 160,
      "for": 161,
      "he": 162,
      "ad": 163,
      "was": 164,
      "el": 165,
      "il": 166,
      "un": 167,
      "be": 168,
      "ap": 169,
      "ur": 170,
      "se": 171,
      "ay": 172,
      "les": 173,
      "ers": 174,
      "The": 175,
      "ky": 176,
      "Val": 177,
      "all": 178,
      "Valky": 179,
      "ce": 180,
      "ck": 181,
      "ith": 182,
      "pl": 183,
      "Valkyri": 184,
      "Ar": 185,
      "de": 186,
      "ir": 187,
      "game": 188,
      "Valkyria": 189,
      "ment": 190,
      "by": 191,
      "act": 192,
      "op": 193,
      "wer": 194,
      "with": 195,
      "ld": 196,
      "su": 197,
      "iv": 198,
      "om": 199,
      "tle": 200,
      "wh": 201,
      "ab": 202,
      "ov": 203,
      "con": 204,
      "ron": 205,
      "sen": 206,
      "Ch": 207,
      "II": 208,
      "ot": 209,
      "ock": 210,
      "im": 211,
      "that": 212,
      "were": 213,
      "am": 214,
      "icles": 215,
      "po": 216,
      "so": 217,
      "us": 218,
      "ronicles": 219,
      "Chronicles": 220,
      "ly": 221,
      "com": 222,
      "ow": 223,
      "pro": 224,
      "ary": 225,
      "ate": 226,
      "its": 227,
      "char": 228,
      "senal": 229,
      "-@": 230,
      "@-@": 231,
      "der": 232,
      "em": 233,
      "ation": 234,
      "Lit": 235,
      "Rock": 236,
      "ak": 237,
      "Little": 238,
      "ig": 239,
      "ne": 240,
      "eri": 241,
      "ain": 242,
      "qu": 243,
      "ut": 244,
      "ans": 245,
      "play": 246,
      "18": 247,
      "ame": 248,
      "est": 249,
      "had": 250,
      "ru": 251,
      "oun": 252,
      "charact": 253,
      "art": 254,
      "ity": 255,
      "ould": 256,
      "ex": 257,
      "ect": 258,
      "fro": 259,
      "if": 260,
      "sion": 261,
      "ter": 262,
      "ul": 263,
      "ition": 264,
      "from": 265,
      "St": 266,
      "ge": 267,
      "vi": 268,
      "ory": 269,
      "00": 270,
      "ol": 271,
      "we": 272,
      "Ark": 273,
      "over": 274,
      "av": 275,
      "pr": 276,
      "pre": 277,
      "tr": 278,
      "their": 279,
      "per": 280,
      "ts": 281,
      "ten": 282,
      "ous": 283,
      "ments": 284,
      "20": 285,
      "hi": 286,
      "are": 287,
      "oug": 288,
      "pos": 289,
      "des": 290,
      "ear": 291,
      "his": 292,
      "leas": 293,
      "Arsenal": 294,
      "Arkans": 295,
      "ough": 296,
      "ms": 297,
      "ti": 298,
      "ted": 299,
      "ord": 300,
      "ork": 301,
      "iti": 302,
      "ated": 303,
      "ound": 304,
      "201": 305,
      "Arkansas": 306,
      "ac": 307,
      "ach": 308,
      "this": 309,
      "eral": 310,
      "one": 311,
      "ess": 312,
      "uring": 313,
      "du": 314,
      "lo": 315,
      "no": 316,
      "ned": 317,
      "sp": 318,
      "tur": 319,
      "vel": 320,
      "ther": 321,
      "out": 322,
      "velop": 323,
      ",@": 324,
      "@,@": 325,
      "ber": 326,
      "can": 327,
      "fic": 328,
      "man": 329,
      "not": 330,
      "sh": 331,
      "si": 332,
      "seri": 333,
      "ust": 334,
      "work": 335,
      "also": 336,
      "releas": 337,
      "able": 338,
      "character": 339,
      "Re": 340,
      "af": 341,
      "ele": 342,
      "fer": 343,
      "id": 344,
      "ian": 345,
      "mo": 346,
      "mes": 347,
      "mis": 348,
      "mil": 349,
      "main": 350,
      "would": 351,
      "ong": 352,
      "attle": 353,
      "ally": 354,
      "develop": 355,
      "ive": 356,
      "who": 357,
      "III": 358,
      "186": 359,
      "overn": 360,
      "previ": 361,
      "bu": 362,
      "ial": 363,
      "ire": 364,
      "ke": 365,
      "mov": 366,
      "rit": 367,
      "rough": 368,
      "tro": 369,
      "ure": 370,
      "into": 371,
      "arsenal": 372,
      "ich": 373,
      "ction": 374,
      "ill": 375,
      "less": 376,
      "such": 377,
      "series": 378,
      "mission": 379,
      "previous": 380,
      "Gall": 381,
      "Se": 382,
      "au": 383,
      "bo": 384,
      "cl": 385,
      "gr": 386,
      "my": 387,
      "mand": 388,
      "ning": 389,
      "pt": 390,
      "tain": 391,
      "ve": 392,
      "inst": 393,
      "ance": 394,
      "itary": 395,
      "ist": 396,
      "story": 397,
      "In": 398,
      "Name": 399,
      "aw": 400,
      "but": 401,
      "ding": 402,
      "fed": 403,
      "iel": 404,
      "ple": 405,
      "part": 406,
      "theme": 407,
      "orig": 408,
      "form": 409,
      "ely": 410,
      "been": 411,
      "which": 412,
      "characters": 413,
      "Nameless": 414,
      "origin": 415,
      "Govern": 416,
      "Pl": 417,
      "aga": 418,
      "cre": 419,
      "during": 420,
      "ec": 421,
      "fir": 422,
      "lin": 423,
      "lis": 424,
      "sc": 425,
      "vent": 426,
      "war": 427,
      "through": 428,
      "ant": 429,
      "ons": 430,
      "ort": 431,
      "order": 432,
      "ass": 433,
      "games": 434,
      "ops": 435,
      "sold": 436,
      "own": 437,
      "new": 438,
      "weap": 439,
      "military": 440,
      "development": 441,
      "M18": 442,
      "ag": 443,
      "ced": 444,
      "cal": 445,
      "cus": 446,
      "dition": 447,
      "ia": 448,
      "iz": 449,
      "low": 450,
      "mus": 451,
      "other": 452,
      "pa": 453,
      "um": 454,
      "arms": 455,
      "offic": 456,
      "rec": 457,
      "stru": 458,
      "under": 459,
      "gameplay": 460,
      "ake": 461,
      "erial": 462,
      "released": 463,
      "Play": 464,
      "first": 465,
      "Con": 466,
      "It": 467,
      "Jap": 468,
      "Tot": 469,
      "Un": 470,
      "bl": 471,
      "ble": 472,
      "battle": 473,
      "ces": 474,
      "could": 475,
      "dif": 476,
      "found": 477,
      "fiel": 478,
      "mp": 479,
      "mor": 480,
      "te": 481,
      "ver": 482,
      "they": 483,
      "state": 484,
      "ilding": 485,
      "beg": 486,
      "command": 487,
      "Station": 488,
      "000": 489,
      "2011": 490,
      "troops": 491,
      "missions": 492,
      "original": 493,
      "PlayStation": 494,
      "Japan": 495,
      "field": 496,
      "22": 497,
      "Dun": 498,
      "Fe": 499,
      "Gen": 500,
      "Ma": 501,
      "To": 502,
      "ail": 503,
      "ack": 504,
      "bru": 505,
      "fact": 506,
      "ies": 507,
      "ile": 508,
      "iers": 509,
      "lock": 510,
      "med": 511,
      "mun": 512,
      "nance": 513,
      "red": 514,
      "res": 515,
      "same": 516,
      "ty": 517,
      "ton": 518,
      "twe": 519,
      "up": 520,
      "wo": 521,
      "writ": 522,
      "them": 523,
      "ind": 524,
      "along": 525,
      "ited": 526,
      "ates": 527,
      "ating": 528,
      "ast": 529,
      "retur": 530,
      "force": 531,
      "being": 532,
      "aps": 533,
      "cont": 534,
      "some": 535,
      "ember": 536,
      "ations": 537,
      "igh": 538,
      "quad": 539,
      "exp": 540,
      "State": 541,
      "posit": 542,
      "time": 543,
      "ities": 544,
      "due": 545,
      "after": 546,
      "elements": 547,
      "move": 548,
      "Gallian": 549,
      "nington": 550,
      "soldiers": 551,
      "Totten": 552,
      "Dunnington": 553,
      "Febru": 554,
      "munition": 555,
      "February": 556,
      "Cap": 557,
      "Jan": 558,
      "ah": 559,
      "ace": 560,
      "car": 561,
      "ded": 562,
      "fe": 563,
      "hand": 564,
      "ie": 565,
      "ik": 566,
      "ime": 567,
      "ject": 568,
      "kn": 569,
      "men": 570,
      "ok": 571,
      "oy": 572,
      "pp": 573,
      "pat": 574,
      "ry": 575,
      "sm": 576,
      "ting": 577,
      "use": 578,
      "uary": 579,
      "vol": 580,
      "than": 581,
      "there": 582,
      "inc": 583,
      "ere": 584,
      "ery": 585,
      "anime": 586,
      "enj": 587,
      "ite": 588,
      "att": 589,
      "ision": 590,
      "ics": 591,
      "cted": 592,
      "rid": 593,
      "ade": 594,
      "addition": 595,
      "unit": 596,
      "units": 597,
      "betwe": 598,
      "Army": 599,
      "while": 600,
      "abor": 601,
      "about": 602,
      "used": 603,
      "early": 604,
      "most": 605,
      "1862": 606,
      "both": 607,
      "Governor": 608,
      "against": 609,
      "weapons": 610,
      "ized": 611,
      "pair": 612,
      "team": 613,
      "January": 614,
      "between": 615,
      "10": 616,
      "Bu": 617,
      "Battle": 618,
      "Mo": 619,
      "May": 620,
      "No": 621,
      "Nov": 622,
      "Sak": 623,
      "Th": 624,
      "cc": 625,
      "cart": 626,
      "do": 627,
      "den": 628,
      "dest": 629,
      "dire": 630,
      "down": 631,
      "each": 632,
      "fol": 633,
      "flin": 634,
      "gu": 635,
      "has": 636,
      "jor": 637,
      "ki": 638,
      "ks": 639,
      "lat": 640,
      "labor": 641,
      "oh": 642,
      "ome": 643,
      "pe": 644,
      "pen": 645,
      "por": 646,
      "pers": 647,
      "ran": 648,
      "sy": 649,
      "sim": 650,
      "squad": 651,
      "two": 652,
      "year": 653,
      "ine": 654,
      "inter": 655,
      "arc": 656,
      "ari": 657,
      "aterial": 658,
      "ason": 659,
      "ased": 660,
      "ree": 661,
      "repair": 662,
      "issu": 663,
      "mem": 664,
      "our": 665,
      "ential": 666,
      "rif": 667,
      "fore": 668,
      "cept": 669,
      "activ": 670,
      "open": 671,
      "ived": 672,
      "imo": 673,
      "impro": 674,
      "poin": 675,
      "aking": 676,
      "igned": 677,
      "player": 678,
      "ulti": 679,
      "States": 680,
      "tra": 681,
      "trans": 682,
      "percus": 683,
      "ordnance": 684,
      "release": 685,
      "awa": 686,
      "feder": 687,
      "lish": 688,
      "Confeder": 689,
      "United": 690,
      "began": 691,
      "General": 692,
      "written": 693,
      "Captain": 694,
      "November": 695,
      "cartrid": 696,
      "follow": 697,
      "flint": 698,
      "percussion": 699,
      "Al": 700,
      "As": 701,
      "By": 702,
      "Cal": 703,
      "During": 704,
      "He": 705,
      "Hind": 706,
      "Its": 707,
      "Joh": 708,
      "Kur": 709,
      "On": 710,
      "Rect": 711,
      "Rav": 712,
      "Sh": 713,
      "Senj": 714,
      "This": 715,
      "War": 716,
      "ais": 717,
      "bers": 718,
      "citi": 719,
      "ep": 720,
      "ew": 721,
      "event": 722,
      "fan": 723,
      "ful": 724,
      "ges": 725,
      "gun": 726,
      "ially": 727,
      "ji": 728,
      "just": 729,
      "kill": 730,
      "mon": 731,
      "made": 732,
      "material": 733,
      "multi": 734,
      "nd": 735,
      "num": 736,
      "old": 737,
      "pan": 738,
      "pon": 739,
      "pur": 740,
      "pect": 741,
      "ser": 742,
      "sing": 743,
      "sis": 744,
      "sent": 745,
      "tim": 746,
      "tele": 747,
      "take": 748,
      "ufact": 749,
      "uki": 750,
      "ving": 751,
      "way": 752,
      "zen": 753,
      "thor": 754,
      "though": 755,
      "three": 756,
      "these": 757,
      "edition": 758,
      "als": 759,
      "ality": 760,
      "end": 761,
      "ese": 762,
      "ard": 763,
      "arge": 764,
      "around": 765,
      "ask": 766,
      "asse": 767,
      "rel": 768,
      "refer": 769,
      "remov": 770,
      "ise": 771,
      "ical": 772,
      "roy": 773,
      "role": 774,
      "ell": 775,
      "uni": 776,
      "aph": 777,
      "ply": 778,
      "oper": 779,
      "within": 780,
      "where": 781,
      "ablish": 782,
      "cond": 783,
      "constru": 784,
      "otential": 785,
      "ammunition": 786,
      "pose": 787,
      "compos": 788,
      "produ": 789,
      "ign": 790,
      "need": 791,
      "players": 792,
      "establish": 793,
      "ular": 794,
      "avail": 795,
      "pres": 796,
      "prais": 797,
      "2010": 798,
      "spec": 799,
      "manufact": 800,
      "shot": 801,
      "aff": 802,
      "ided": 803,
      "1861": 804,
      "Gallia": 805,
      "Sega": 806,
      "author": 807,
      "class": 808,
      "graph": 809,
      "federal": 810,
      "muske": 811,
      "record": 812,
      "differ": 813,
      "Japanese": 814,
      "ight": 815,
      "feat": 816,
      "patch": 817,
      "small": 818,
      "Building": 819,
      "Sakimo": 820,
      "improve": 821,
      "Confederate": 822,
      "cartridges": 823,
      "following": 824,
      "flintlock": 825,
      "Calam": 826,
      "Hindman": 827,
      "John": 828,
      "Kurt": 829,
      "Rector": 830,
      "Raven": 831,
      "Senjō": 832,
      "citizen": 833,
      "Sakimoto": 834,
      "422": 835,
      "69": 836,
      "75": 837,
      "An": 838,
      "Au": 839,
      "De": 840,
      "Dah": 841,
      "Darc": 842,
      "Ex": 843,
      "Fu": 844,
      "Im": 845,
      "Imp": 846,
      "Lt": 847,
      "Med": 848,
      "Mis": 849,
      "Po": 850,
      "Potential": 851,
      "Tak": 852,
      "Vision": 853,
      "Whi": 854,
      "age": 855,
      "bin": 856,
      "ball": 857,
      "cap": 858,
      "col": 859,
      "crit": 860,
      "dis": 861,
      "dut": 862,
      "dist": 863,
      "ee": 864,
      "et": 865,
      "fron": 866,
      "gi": 867,
      "go": 868,
      "gen": 869,
      "gust": 870,
      "govern": 871,
      "her": 872,
      "him": 873,
      "how": 874,
      "hav": 875,
      "ied": 876,
      "ike": 877,
      "ible": 878,
      "ker": 879,
      "led": 880,
      "lit": 881,
      "large": 882,
      "ma": 883,
      "min": 884,
      "mer": 885,
      "make": 886,
      "od": 887,
      "pu": 888,
      "par": 889,
      "pri": 890,
      "phi": 891,
      "pite": 892,
      "ra": 893,
      "ris": 894,
      "ric": 895,
      "sal": 896,
      "ses": 897,
      "sel": 898,
      "sun": 899,
      "sur": 900,
      "shi": 901,
      "skill": 902,
      "ved": 903,
      "west": 904,
      "xim": 905,
      "のヴ": 906,
      "ァル": 907,
      "キュ": 908,
      "リア": 909,
      "場のヴ": 910,
      "戦場のヴ": 911,
      "then": 912,
      "inu": 913,
      "inery": 914,
      "ang": 915,
      "any": 916,
      "ances": 917,
      "once": 918,
      "only": 919,
      "edec": 920,
      "although": 921,
      "enem": 922,
      "armed": 923,
      "itar": 924,
      "atform": 925,
      "ately": 926,
      "ase": 927,
      "real": 928,
      "rece": 929,
      "remain": 930,
      "reason": 931,
      "anded": 932,
      "lead": 933,
      "ish": 934,
      "outs": 935,
      "ict": 936,
      "stor": 937,
      "stem": 938,
      "cture": 939,
      "head": 940,
      "adel": 941,
      "adap": 942,
      "ility": 943,
      "ilian": 944,
      "before": 945,
      "appro": 946,
      "sev": 947,
      "sele": 948,
      "ploy": 949,
      "platform": 950,
      "dec": 951,
      "deo": 952,
      "demo": 953,
      "sub": 954,
      "sup": 955,
      "ively": 956,
      "when": 957,
      "what": 958,
      "abric": 959,
      "sense": 960,
      "ames": 961,
      "using": 962,
      "comple": 963,
      "que": 964,
      "ution": 965,
      "ected": 966,
      "ulty": 967,
      "video": 968,
      "Arkadel": 969,
      "avy": 970,
      "press": 971,
      "predec": 972,
      "try": 973,
      "perform": 974,
      "despite": 975,
      "orders": 976,
      "itia": 977,
      "aced": 978,
      "achinery": 979,
      "essor": 980,
      "turn": 981,
      "ficulty": 982,
      "side": 983,
      "works": 984,
      "worked": 985,
      "buil": 986,
      "building": 987,
      "Government": 988,
      "scen": 989,
      "weapon": 990,
      "M1822": 991,
      "aged": 992,
      "music": 993,
      "structure": 994,
      "blic": 995,
      "battlefield": 996,
      "difficulty": 997,
      "Tower": 998,
      "respon": 999,
      "content": 1000,
      "continu": 1001,
      "expanded": 1002,
      "volution": 1003,
      "Battlefield": 1004,
      "destroy": 1005,
      "direct": 1006,
      "guitar": 1007,
      "person": 1008,
      "system": 1009,
      "rifles": 1010,
      "opening": 1011,
      "epis": 1012,
      "multiple": 1013,
      "assem": 1014,
      "removed": 1015,
      "unique": 1016,
      "established": 1017,
      "available": 1018,
      "praised": 1019,
      "manufacture": 1020,
      "different": 1021,
      "improvements": 1022,
      "Calamity": 1023,
      "citizens": 1024,
      "August": 1025,
      "Dahau": 1026,
      "Darcsen": 1027,
      "Imperial": 1028,
      "Media": 1029,
      "While": 1030,
      "public": 1031,
      "phia": 1032,
      "sales": 1033,
      "self": 1034,
      "sung": 1035,
      "ァルキュ": 1036,
      "戦場のヴァルキュ": 1037,
      "Arkadelphia": 1038,
      "predecessor": 1039,
      "戦場のヴァルキュリア": 1040,
      "14": 1041,
      "15": 1042,
      "25": 1043,
      "47": 1044,
      "Ab": 1045,
      "Af": 1046,
      "Az": 1047,
      "Apri": 1048,
      "Bl": 1049,
      "Com": 1050,
      "DL": 1051,
      "Dor": 1052,
      "Each": 1053,
      "Edition": 1054,
      "Emp": 1055,
      "Fed": 1056,
      "Game": 1057,
      "Hon": 1058,
      "Har": 1059,
      "Hall": 1060,
      "Ku": 1061,
      "Mil": 1062,
      "Mac": 1063,
      "Muse": 1064,
      "Or": 1065,
      "Oz": 1066,
      "PS": 1067,
      "Port": 1068,
      "Rif": 1069,
      "Riel": 1070,
      "Van": 1071,
      "Wh": 1072,
      "Work": 1073,
      "ait": 1074,
      "brough": 1075,
      "ca": 1076,
      "cur": 1077,
      "call": 1078,
      "coun": 1079,
      "city": 1080,
      "cated": 1081,
      "caps": 1082,
      "div": 1083,
      "ef": 1084,
      "ead": 1085,
      "equ": 1086,
      "ever": 1087,
      "ft": 1088,
      "fel": 1089,
      "five": 1090,
      "four": 1091,
      "gar": 1092,
      "gre": 1093,
      "ide": 1094,
      "ides": 1095,
      "jou": 1096,
      "ka": 1097,
      "lp": 1098,
      "last": 1099,
      "like": 1100,
      "map": 1101,
      "maps": 1102,
      "making": 1103,
      "machinery": 1104,
      "nation": 1105,
      "name": 1106,
      "oic": 1107,
      "oshi": 1108,
      "pear": 1109,
      "pie": 1110,
      "ren": 1111,
      "rest": 1112,
      "sist": 1113,
      "site": 1114,
      "til": 1115,
      "tact": 1116,
      "tone": 1117,
      "tail": 1118,
      "ue": 1119,
      "ually": 1120,
      "ves": 1121,
      "vis": 1122,
      "vision": 1123,
      "yle": 1124,
      "thing": 1125,
      "thur": 1126,
      "thir": 1127,
      "thems": 1128,
      "themes": 1129,
      "ince": 1130,
      "inten": 1131,
      "insp": 1132,
      "inforce": 1133,
      "ered": 1134,
      "ertain": 1135,
      "anim": 1136,
      "ence": 1137,
      "orpor": 1138,
      "arch": 1139,
      "ital": 1140,
      "itsu": 1141,
      "atory": 1142,
      "aspect": 1143,
      "off": 1144,
      "top": 1145,
      "tool": 1146,
      "took": 1147,
      "reinforce": 1148,
      "leg": 1149,
      "left": 1150,
      "ists": 1151,
      "ice": 1152,
      "sts": 1153,
      "staff": 1154,
      "row": 1155,
      "chan": 1156,
      "ribut": 1157,
      "held": 1158,
      "help": 1159,
      "ady": 1160,
      "adjust": 1161,
      "eling": 1162,
      "elves": 1163,
      "une": 1164,
      "unlock": 1165,
      "until": 1166,
      "bec": 1167,
      "appear": 1168,
      "sequ": 1169,
      "They": 1170,
      "place": 1171,
      "Arthur": 1172,
      "detail": 1173,
      "action": 1174,
      "ople": 1175,
      "suf": 1176,
      "ability": 1177,
      "contro": 1178,
      "convent": 1179,
      "consist": 1180,
      "prot": 1181,
      "project": 1182,
      "charge": 1183,
      "employ": 1184,
      "played": 1185,
      "playing": 1186,
      "rumor": 1187,
      "ext": 1188,
      "ific": 1189,
      "view": 1190,
      "posses": 1191,
      "designed": 1192,
      "design": 1193,
      "leased": 1194,
      "tier": 1195,
      "2012": 1196,
      "acing": 1197,
      "load": 1198,
      "local": 1199,
      "turned": 1200,
      "six": 1201,
      "sipp": 1202,
      "ustr": 1203,
      "Regi": 1204,
      "Revolution": 1205,
      "ident": 1206,
      "militia": 1207,
      "developed": 1208,
      "buck": 1209,
      "kept": 1210,
      "illustr": 1211,
      "Second": 1212,
      "clu": 1213,
      "instru": 1214,
      "originally": 1215,
      "creating": 1216,
      "scri": 1217,
      "cused": 1218,
      "official": 1219,
      "more": 1220,
      "begin": 1221,
      "Major": 1222,
      "acks": 1223,
      "return": 1224,
      "returned": 1225,
      "positive": 1226,
      "positively": 1227,
      "movement": 1228,
      "munitions": 1229,
      "ikes": 1230,
      "known": 1231,
      "incorpor": 1232,
      "additional": 1233,
      "Most": 1234,
      "download": 1235,
      "later": 1236,
      "issue": 1237,
      "members": 1238,
      "point": 1239,
      "points": 1240,
      "transl": 1241,
      "transfer": 1242,
      "events": 1243,
      "fantry": 1244,
      "guns": 1245,
      "month": 1246,
      "number": 1247,
      "purch": 1248,
      "sissipp": 1249,
      "times": 1250,
      "telegraph": 1251,
      "ways": 1252,
      "referred": 1253,
      "operations": 1254,
      "constructed": 1255,
      "composed": 1256,
      "produced": 1257,
      "needed": 1258,
      "present": 1259,
      "recorded": 1260,
      "422nd": 1261,
      "Extra": 1262,
      "Fuji": 1263,
      "Imca": 1264,
      "Mississipp": 1265,
      "Potentials": 1266,
      "capital": 1267,
      "critic": 1268,
      "frontier": 1269,
      "governor": 1270,
      "himself": 1271,
      "however": 1272,
      "have": 1273,
      "major": 1274,
      "rison": 1275,
      "surren": 1276,
      "skills": 1277,
      "enemy": 1278,
      "received": 1279,
      "selected": 1280,
      "decided": 1281,
      "turns": 1282,
      "continued": 1283,
      "destroyed": 1284,
      "director": 1285,
      "episo": 1286,
      "戦場のヴァルキュリア3": 1287,
      "After": 1288,
      "Azure": 1289,
      "April": 1290,
      "DLC": 1291,
      "Dorn": 1292,
      "Empire": 1293,
      "Federal": 1294,
      "Honjou": 1295,
      "Harrel": 1296,
      "MacArthur": 1297,
      "Museum": 1298,
      "Ozawa": 1299,
      "Portable": 1300,
      "Riela": 1301,
      "When": 1302,
      "brought": 1303,
      "garrison": 1304,
      "piece": 1305,
      "tactical": 1306,
      "third": 1307,
      "themselves": 1308,
      "tools": 1309,
      "unlocked": 1310,
      "control": 1311,
      "convention": 1312,
      "consisting": 1313,
      "possession": 1314,
      "Mississippi": 1315,
      "surrender": 1316,
      "..": 1317,
      "11": 1318,
      "13": 1319,
      "19": 1320,
      "26": 1321,
      "2nd": 1322,
      "247": 1323,
      "31": 1324,
      "40": 1325,
      "42": 1326,
      "500": 1327,
      "64": 1328,
      "9th": 1329,
      "Ak": 1330,
      "Action": 1331,
      "Acc": 1332,
      "Amer": 1333,
      "Bo": 1334,
      "But": 1335,
      "Cro": 1336,
      "Civ": 1337,
      "Cam": 1338,
      "Col": 1339,
      "Due": 1340,
      "En": 1341,
      "Eu": 1342,
      "For": 1343,
      "Fam": 1344,
      "Fort": 1345,
      "Fabric": 1346,
      "GS": 1347,
      "Hi": 1348,
      "Han": 1349,
      "Hit": 1350,
      "Hist": 1351,
      "James": 1352,
      "June": 1353,
      "Li": 1354,
      "Lo": 1355,
      "Light": 1356,
      "Na": 1357,
      "Nat": 1358,
      "Navy": 1359,
      "Of": 1360,
      "Pon": 1361,
      "Pro": 1362,
      "Ro": 1363,
      "Riv": 1364,
      "Rait": 1365,
      "Sm": 1366,
      "Squad": 1367,
      "TZ": 1368,
      "Tro": 1369,
      "Two": 1370,
      "TGS": 1371,
      "Wor": 1372,
      "With": 1373,
      "az": 1374,
      "ath": 1375,
      "aid": 1376,
      "bor": 1377,
      "bel": 1378,
      "bay": 1379,
      "best": 1380,
      "based": 1381,
      "bsite": 1382,
      "ci": 1383,
      "cy": 1384,
      "civ": 1385,
      "cam": 1386,
      "cess": 1387,
      "cast": 1388,
      "certain": 1389,
      "dr": 1390,
      "dar": 1391,
      "del": 1392,
      "day": 1393,
      "dam": 1394,
      "done": 1395,
      "dnance": 1396,
      "dang": 1397,
      "ega": 1398,
      "fl": 1399,
      "fo": 1400,
      "fu": 1401,
      "fin": 1402,
      "fem": 1403,
      "fran": 1404,
      "fight": 1405,
      "fabric": 1406,
      "giv": 1407,
      "gine": 1408,
      "grow": 1409,
      "hou": 1410,
      "hap": 1411,
      "hop": 1412,
      "high": 1413,
      "home": 1414,
      "hold": 1415,
      "ip": 1416,
      "idu": 1417,
      "ither": 1418,
      "ko": 1419,
      "las": 1420,
      "lim": 1421,
      "mu": 1422,
      "ming": 1423,
      "mot": 1424,
      "must": 1425,
      "mason": 1426,
      "mmer": 1427,
      "march": 1428,
      "nthe": 1429,
      "non": 1430,
      "nor": 1431,
      "names": 1432,
      "ob": 1433,
      "occ": 1434,
      "pit": 1435,
      "pap": 1436,
      "pop": 1437,
      "pot": 1438,
      "poun": 1439,
      "pted": 1440,
      "port": 1441,
      "pass": 1442,
      "pleased": 1443,
      "pacing": 1444,
      "round": 1445,
      "rics": 1446,
      "sit": 1447,
      "spre": 1448,
      "scan": 1449,
      "song": 1450,
      "since": 1451,
      "tit": 1452,
      "tion": 1453,
      "ters": 1454,
      "tak": 1455,
      "tru": 1456,
      "tations": 1457,
      "tting": 1458,
      "task": 1459,
      "text": 1460,
      "vad": 1461,
      "vari": 1462,
      "voic": 1463,
      "will": 1464,
      "wise": 1465,
      "well": 1466,
      "wish": 1467,
      "xt": 1468,
      "ycl": 1469,
      "your": 1470,
      "の花": 1471,
      "ined": 1472,
      "ines": 1473,
      "inct": 1474,
      "initi": 1475,
      "incre": 1476,
      "invent": 1477,
      "inclu": 1478,
      "ern": 1479,
      "aning": 1480,
      "anted": 1481,
      "anned": 1482,
      "onal": 1483,
      "ale": 1484,
      "aled": 1485,
      "alized": 1486,
      "enge": 1487,
      "ending": 1488,
      "enant": 1489,
      "orch": 1490,
      "ories": 1491,
      "eshi": 1492,
      "esides": 1493,
      "aract": 1494,
      "army": 1495,
      "itor": 1496,
      "itch": 1497,
      "itable": 1498,
      "atch": 1499,
      "assu": 1500,
      "ashi": 1501,
      "told": 1502,
      "rev": 1503,
      "reed": 1504,
      "requ": 1505,
      "retain": 1506,
      "reve": 1507,
      "reject": 1508,
      "ready": 1509,
      "let": 1510,
      "ingly": 1511,
      "mechan": 1512,
      "meaning": 1513,
      "outh": 1514,
      "ick": 1515,
      "icular": 1516,
      "stand": 1517,
      "start": 1518,
      "stated": 1519,
      "style": 1520,
      "enter": 1521,
      "ropan": 1522,
      "chance": 1523,
      "chise": 1524,
      "gaming": 1525,
      "gained": 1526,
      "ried": 1527,
      "forms": 1528,
      "forced": 1529,
      "forces": 1530,
      "heavy": 1531,
      "ilar": 1532,
      "ilities": 1533,
      "becom": 1534,
      "urg": 1535,
      "ures": 1536,
      "seem": 1537,
      "secre": 1538,
      "second": 1539,
      "separ": 1540,
      "allow": 1541,
      "Valkyir": 1542,
      "iths": 1543,
      "plans": 1544,
      "placed": 1545,
      "planned": 1546,
      "Valkyrian": 1547,
      "deter": 1548,
      "demand": 1549,
      "deposit": 1550,
      "depen": 1551,
      "depot": 1552,
      "iron": 1553,
      "ired": 1554,
      "opers": 1555,
      "super": 1556,
      "succ": 1557,
      "summer": 1558,
      "ives": 1559,
      "ividu": 1560,
      "ably": 1561,
      "conne": 1562,
      "consi": 1563,
      "conver": 1564,
      "concept": 1565,
      "consis": 1566,
      "consequ": 1567,
      "Charact": 1568,
      "impress": 1569,
      "lyrics": 1570,
      "coming": 1571,
      "commen": 1572,
      "common": 1573,
      "compan": 1574,
      "owned": 1575,
      "proble": 1576,
      "procur": 1577,
      "chartr": 1578,
      "dern": 1579,
      "dered": 1580,
      "aki": 1581,
      "near": 1582,
      "necess": 1583,
      "next": 1584,
      "erior": 1585,
      "quart": 1586,
      "quality": 1587,
      "utenant": 1588,
      "1840": 1589,
      "estra": 1590,
      "exc": 1591,
      "exten": 1592,
      "except": 1593,
      "ift": 1594,
      "ified": 1595,
      "ultim": 1596,
      "website": 1597,
      "aval": 1598,
      "hiro": 1599,
      "hiko": 1600,
      "posed": 1601,
      "position": 1602,
      "desper": 1603,
      "ording": 1604,
      "2014": 1605,
      "accoun": 1606,
      "accused": 1607,
      "ached": 1608,
      "essful": 1609,
      "lower": 1610,
      "located": 1611,
      "spir": 1612,
      "spee": 1613,
      "spikes": 1614,
      "velopment": 1615,
      "manga": 1616,
      "noted": 1617,
      "noting": 1618,
      "should": 1619,
      "short": 1620,
      "shift": 1621,
      "siz": 1622,
      "modern": 1623,
      "ongside": 1624,
      "1860": 1625,
      "ritory": 1626,
      "ctions": 1627,
      "illery": 1628,
      "previously": 1629,
      "Sept": 1630,
      "Seik": 1631,
      "ause": 1632,
      "gram": 1633,
      "grant": 1634,
      "instead": 1635,
      "Infantry": 1636,
      "away": 1637,
      "partment": 1638,
      "partially": 1639,
      "particular": 1640,
      "formal": 1641,
      "create": 1642,
      "created": 1643,
      "linear": 1644,
      "listed": 1645,
      "ward": 1646,
      "throughout": 1647,
      "assigned": 1648,
      "news": 1649,
      "M181": 1650,
      "agreed": 1651,
      "otherwise": 1652,
      "officer": 1653,
      "officers": 1654,
      "officially": 1655,
      "recycl": 1656,
      "bled": 1657,
      "black": 1658,
      "cession": 1659,
      "commander": 1660,
      "Maj": 1661,
      "Maxim": 1662,
      "upon": 1663,
      "individu": 1664,
      "returning": 1665,
      "something": 1666,
      "carry": 1667,
      "carried": 1668,
      "feeling": 1669,
      "hands": 1670,
      "handled": 1671,
      "ieutenant": 1672,
      "know": 1673,
      "pped": 1674,
      "patible": 1675,
      "smiths": 1676,
      "volu": 1677,
      "enjoy": 1678,
      "attached": 1679,
      "There": 1680,
      "dence": 1681,
      "latter": 1682,
      "laborers": 1683,
      "laboratory": 1684,
      "people": 1685,
      "penal": 1686,
      "ranks": 1687,
      "synthe": 1688,
      "simply": 1689,
      "similar": 1690,
      "interview": 1691,
      "ario": 1692,
      "repaired": 1693,
      "issued": 1694,
      "member": 1695,
      "rifle": 1696,
      "activate": 1697,
      "activities": 1698,
      "traitor": 1699,
      "Alongside": 1700,
      "eventually": 1701,
      "numbers": 1702,
      "purpose": 1703,
      "pective": 1704,
      "serving": 1705,
      "singer": 1706,
      "single": 1707,
      "asking": 1708,
      "referen": 1709,
      "construction": 1710,
      "composer": 1711,
      "production": 1712,
      "special": 1713,
      "specific": 1714,
      "shotguns": 1715,
      "authority": 1716,
      "authorities": 1717,
      "classes": 1718,
      "graphics": 1719,
      "musket": 1720,
      "muskets": 1721,
      "records": 1722,
      "flintlocks": 1723,
      "Development": 1724,
      "Department": 1725,
      "Poin": 1726,
      "Takeshi": 1727,
      "binka": 1728,
      "distr": 1729,
      "dispatch": 1730,
      "duty": 1731,
      "duties": 1732,
      "distribut": 1733,
      "general": 1734,
      "rather": 1735,
      "western": 1736,
      "ximately": 1737,
      "anging": 1738,
      "stores": 1739,
      "adapted": 1740,
      "approximately": 1741,
      "seven": 1742,
      "several": 1743,
      "supply": 1744,
      "performed": 1745,
      "built": 1746,
      "scenario": 1747,
      "response": 1748,
      "assemble": 1749,
      "assembled": 1750,
      "predecessors": 1751,
      "Command": 1752,
      "Kubinka": 1753,
      "Military": 1754,
      "Ordnance": 1755,
      "PSN": 1756,
      "Rifles": 1757,
      "divided": 1758,
      "effor": 1759,
      "equip": 1760,
      "felt": 1761,
      "great": 1762,
      "visu": 1763,
      "intended": 1764,
      "animation": 1765,
      "aspects": 1766,
      "adjusted": 1767,
      "appearances": 1768,
      "protect": 1769,
      "employed": 1770,
      "rumors": 1771,
      "localized": 1772,
      "Regiments": 1773,
      "illustrated": 1774,
      "instruments": 1775,
      "script": 1776,
      "beginning": 1777,
      "downloadable": 1778,
      "translation": 1779,
      "transferred": 1780,
      "Fujii": 1781,
      "criticis": 1782,
      "episodes": 1783,
      "According": 1784,
      "Americ": 1785,
      "Crowe": 1786,
      "Civil": 1787,
      "Camden": 1788,
      "Europan": 1789,
      "Famitsu": 1790,
      "Hana": 1791,
      "Hitoshi": 1792,
      "History": 1793,
      "Ponchartr": 1794,
      "River": 1795,
      "Raita": 1796,
      "Smith": 1797,
      "bayashi": 1798,
      "civilian": 1799,
      "draw": 1800,
      "darker": 1801,
      "damaged": 1802,
      "female": 1803,
      "franchise": 1804,
      "giving": 1805,
      "house": 1806,
      "happen": 1807,
      "much": 1808,
      "mustered": 1809,
      "masonry": 1810,
      "paper": 1811,
      "popular": 1812,
      "pounder": 1813,
      "portion": 1814,
      "rounds": 1815,
      "situ": 1816,
      "spread": 1817,
      "title": 1818,
      "various": 1819,
      "voiced": 1820,
      "initially": 1821,
      "increased": 1822,
      "orchestra": 1823,
      "assumed": 1824,
      "rejected": 1825,
      "mechanics": 1826,
      "becomes": 1827,
      "secret": 1828,
      "separate": 1829,
      "allowed": 1830,
      "Valkyira": 1831,
      "successful": 1832,
      "connection": 1833,
      "consisted": 1834,
      "commenced": 1835,
      "procured": 1836,
      "necessary": 1837,
      "quarters": 1838,
      "account": 1839,
      "speech": 1840,
      "September": 1841,
      "recycled": 1842,
      "Maximilian": 1843,
      "carrying": 1844,
      "synthesiz": 1845,
      "equipment": 1846,
      "Ponchartrain": 1847,
      ".@": 1848,
      "12": 1849,
      "1st": 1850,
      "125": 1851,
      "23": 1852,
      "27": 1853,
      "28": 1854,
      "29": 1855,
      "200": 1856,
      "275": 1857,
      "30": 1858,
      "35": 1859,
      "3D": 1860,
      "3r": 1861,
      "364": 1862,
      "41": 1863,
      "4G": 1864,
      "4th": 1865,
      "53": 1866,
      "54": 1867,
      "55": 1868,
      "58": 1869,
      "5th": 1870,
      "520": 1871,
      "6th": 1872,
      "600": 1873,
      "625": 1874,
      "77": 1875,
      "7th": 1876,
      "8th": 1877,
      "864": 1878,
      "91": 1879,
      "94": 1880,
      "97": 1881,
      "900": 1882,
      "9600": 1883,
      "@.@": 1884,
      "AI": 1885,
      "AN": 1886,
      "AS": 1887,
      "Ad": 1888,
      "At": 1889,
      "Ace": 1890,
      "BI": 1891,
      "Be": 1892,
      "Blo": 1893,
      "Batt": 1894,
      "BLi": 1895,
      "Besides": 1896,
      "Cl": 1897,
      "Cri": 1898,
      "Caval": 1899,
      "CAN": 1900,
      "DV": 1901,
      "Dis": 1902,
      "Doug": 1903,
      "Done": 1904,
      "Dire": 1905,
      "Denge": 1906,
      "Em": 1907,
      "Ear": 1908,
      "Eis": 1909,
      "Fa": 1910,
      "Fay": 1911,
      "Fate": 1912,
      "Flow": 1913,
      "Faced": 1914,
      "Flas": 1915,
      "Fitch": 1916,
      "Flower": 1917,
      "GN": 1918,
      "Ged": 1919,
      "Gre": 1920,
      "Gun": 1921,
      "Gus": 1922,
      "Gau": 1923,
      "Gaz": 1924,
      "HI": 1925,
      "HP": 1926,
      "Hen": 1927,
      "His": 1928,
      "Hound": 1929,
      "Hik": 1930,
      "IV": 1931,
      "If": 1932,
      "Ik": 1933,
      "Ir": 1934,
      "IGN": 1935,
      "Jū": 1936,
      "Jacks": 1937,
      "Kon": 1938,
      "Kis": 1939,
      "Kad": 1940,
      "Kel": 1941,
      "Kot": 1942,
      "Kim": 1943,
      "Koic": 1944,
      "Kaz": 1945,
      "Lan": 1946,
      "Lock": 1947,
      "Lif": 1948,
      "Long": 1949,
      "Last": 1950,
      "Linc": 1951,
      "Labor": 1952,
      "Lee": 1953,
      "Like": 1954,
      "Lead": 1955,
      "Lega": 1956,
      "Lieutenant": 1957,
      "MO": 1958,
      "Mi": 1959,
      "Min": 1960,
      "Mur": 1961,
      "Mus": 1962,
      "Mem": 1963,
      "Moun": 1964,
      "Maga": 1965,
      "Miz": 1966,
      "Mast": 1967,
      "Marc": 1968,
      "Material": 1969,
      "Multi": 1970,
      "Masse": 1971,
      "Machinery": 1972,
      "March": 1973,
      "Mitsu": 1974,
      "Nar": 1975,
      "Nap": 1976,
      "Not": 1977,
      "Nam": 1978,
      "Now": 1979,
      "Naga": 1980,
      "Net": 1981,
      "Ninten": 1982,
      "Nega": 1983,
      "Oh": 1984,
      "Ok": 1985,
      "Ou": 1986,
      "Oto": 1987,
      "Ori": 1988,
      "One": 1989,
      "Out": 1990,
      "Oath": 1991,
      "OMO": 1992,
      "Pe": 1993,
      "Per": 1994,
      "Par": 1995,
      "Pic": 1996,
      "Pers": 1997,
      "Part": 1998,
      "Pac": 1999,
      "Pack": 2000,
      "Pres": 2001,
      "Qri": 2002,
      "Ry": 2003,
      "Rand": 2004,
      "Ram": 2005,
      "Rust": 2006,
      "Rich": 2007,
      "Sc": 2008,
      "Sp": 2009,
      "San": 2010,
      "Som": 2011,
      "Sate": 2012,
      "Sum": 2013,
      "Sake": 2014,
      "Some": 2015,
      "Spe": 2016,
      "Sold": 2017,
      "Since": 2018,
      "South": 2019,
      "SHI": 2020,
      "Tr": 2021,
      "Ter": 2022,
      "Tan": 2023,
      "Tit": 2024,
      "Tsu": 2025,
      "Tom": 2026,
      "Tame": 2027,
      "Test": 2028,
      "Table": 2029,
      "Tele": 2030,
      "Taga": 2031,
      "Treason": 2032,
      "TOMO": 2033,
      "UK": 2034,
      "US": 2035,
      "Up": 2036,
      "Vic": 2037,
      "Vol": 2038,
      "VAS": 2039,
      "Wi": 2040,
      "Wal": 2041,
      "West": 2042,
      "Wound": 2043,
      "Will": 2044,
      "Wish": 2045,
      "Watch": 2046,
      "You": 2047,
      "Yam": 2048,
      "Zone": 2049,
      "ai": 2050,
      "aus": 2051,
      "aust": 2052,
      "bb": 2053,
      "bi": 2054,
      "br": 2055,
      "bon": 2056,
      "bal": 2057,
      "ben": 2058,
      "bat": 2059,
      "bir": 2060,
      "bron": 2061,
      "bul": 2062,
      "bass": 2063,
      "bility": 2064,
      "besides": 2065,
      "burg": 2066,
      "bably": 2067,
      "co": 2068,
      "cu": 2069,
      "cor": 2070,
      "cit": 2071,
      "cent": 2072,
      "cro": 2073,
      "cri": 2074,
      "cers": 2075,
      "cop": 2076,
      "cation": 2077,
      "cut": 2078,
      "came": 2079,
      "cru": 2080,
      "cord": 2081,
      "clo": 2082,
      "cial": 2083,
      "come": 2084,
      "cend": 2085,
      "cris": 2086,
      "cause": 2087,
      "dy": 2088,
      "dō": 2089,
      "don": 2090,
      "dat": 2091,
      "dge": 2092,
      "did": 2093,
      "dian": 2094,
      "dict": 2095,
      "ey": 2096,
      "ech": 2097,
      "eem": 2098,
      "evi": 2099,
      "efact": 2100,
      "east": 2101,
      "eks": 2102,
      "eaking": 2103,
      "eful": 2104,
      "ease": 2105,
      "either": 2106,
      "fre": 2107,
      "fun": 2108,
      "fur": 2109,
      "fers": 2110,
      "fus": 2111,
      "fut": 2112,
      "fect": 2113,
      "fear": 2114,
      "fough": 2115,
      "fire": 2116,
      "fant": 2117,
      "face": 2118,
      "fine": 2119,
      "fals": 2120,
      "fell": 2121,
      "fected": 2122,
      "faced": 2123,
      "gth": 2124,
      "gin": 2125,
      "gon": 2126,
      "ged": 2127,
      "gat": 2128,
      "gri": 2129,
      "gur": 2130,
      "gments": 2131,
      "grid": 2132,
      "glish": 2133,
      "gular": 2134,
      "hy": 2135,
      "hin": 2136,
      "hal": 2137,
      "hor": 2138,
      "hicles": 2139,
      "hous": 2140,
      "hind": 2141,
      "haps": 2142,
      "haust": 2143,
      "ier": 2144,
      "ient": 2145,
      "iment": 2146,
      "iber": 2147,
      "iple": 2148,
      "iability": 2149,
      "iTZ": 2150,
      "jin": 2151,
      "jis": 2152,
      "jun": 2153,
      "jock": 2154,
      "jour": 2155,
      "kir": 2156,
      "kawa": 2157,
      "kward": 2158,
      "lan": 2159,
      "len": 2160,
      "land": 2161,
      "lay": 2162,
      "lov": 2163,
      "lif": 2164,
      "long": 2165,
      "live": 2166,
      "list": 2167,
      "ligh": 2168,
      "lah": 2169,
      "lived": 2170,
      "light": 2171,
      "lances": 2172,
      "lice": 2173,
      "lives": 2174,
      "lieutenant": 2175,
      "mit": 2176,
      "mle": 2177,
      "may": 2178,
      "mary": 2179,
      "mould": 2180,
      "mory": 2181,
      "mous": 2182,
      "mess": 2183,
      "muse": 2184,
      "mized": 2185,
      "mine": 2186,
      "nal": 2187,
      "nit": 2188,
      "nov": 2189,
      "nam": 2190,
      "nate": 2191,
      "noun": 2192,
      "none": 2193,
      "nations": 2194,
      "nine": 2195,
      "nances": 2196,
      "naki": 2197,
      "naval": 2198,
      "oth": 2199,
      "oit": 2200,
      "ole": 2201,
      "oing": 2202,
      "oct": 2203,
      "oil": 2204,
      "obe": 2205,
      "ose": 2206,
      "osen": 2207,
      "osame": 2208,
      "ocity": 2209,
      "ocated": 2210,
      "osts": 2211,
      "oines": 2212,
      "ohiko": 2213,
      "ped": 2214,
      "pes": 2215,
      "pay": 2216,
      "peri": 2217,
      "put": 2218,
      "phis": 2219,
      "pedition": 2220,
      "potential": 2221,
      "pikes": 2222,
      "penter": 2223,
      "phy": 2224,
      "ral": 2225,
      "ror": 2226,
      "ring": 2227,
      "run": 2228,
      "rap": 2229,
      "rout": 2230,
      "rich": 2231,
      "rant": 2232,
      "rah": 2233,
      "race": 2234,
      "raged": 2235,
      "ratch": 2236,
      "ss": 2237,
      "sw": 2238,
      "sō": 2239,
      "sthe": 2240,
      "sic": 2241,
      "spl": 2242,
      "som": 2243,
      "spo": 2244,
      "shad": 2245,
      "sav": 2246,
      "saf": 2247,
      "smo": 2248,
      "sive": 2249,
      "ske": 2250,
      "sort": 2251,
      "signed": 2252,
      "sses": 2253,
      "stop": 2254,
      "said": 2255,
      "south": 2256,
      "ta": 2257,
      "tan": 2258,
      "tic": 2259,
      "tch": 2260,
      "tri": 2261,
      "tem": 2262,
      "tation": 2263,
      "tition": 2264,
      "table": 2265,
      "tely": 2266,
      "tah": 2267,
      "taking": 2268,
      "targe": 2269,
      "tell": 2270,
      "treason": 2271,
      "tune": 2272,
      "tinct": 2273,
      "tillery": 2274,
      "ub": 2275,
      "ux": 2276,
      "uge": 2277,
      "ums": 2278,
      "uable": 2279,
      "uosame": 2280,
      "val": 2281,
      "var": 2282,
      "vic": 2283,
      "vers": 2284,
      "vant": 2285,
      "vinc": 2286,
      "vals": 2287,
      "vict": 2288,
      "vice": 2289,
      "wn": 2290,
      "wor": 2291,
      "wre": 2292,
      "went": 2293,
      "wall": 2294,
      "wom": 2295,
      "ware": 2296,
      "wid": 2297,
      "wire": 2298,
      "want": 2299,
      "winter": 2300,
      "wait": 2301,
      "wanted": 2302,
      "xed": 2303,
      "xes": 2304,
      "ying": 2305,
      "yam": 2306,
      "youn": 2307,
      "yag": 2308,
      "yet": 2309,
      "ymous": 2310,
      "ze": 2311,
      "zes": 2312,
      "zine": 2313,
      "Æsthe": 2314,
      "Ōno": 2315,
      "いつ": 2316,
      "いの花": 2317,
      "うの": 2318,
      "か咲": 2319,
      "がた": 2320,
      "が願": 2321,
      "き誓": 2322,
      "き運": 2323,
      "く光": 2324,
      "しも": 2325,
      "なら": 2326,
      "なき誓": 2327,
      "の戦": 2328,
      "の銃": 2329,
      "めの銃": 2330,
      "もしも": 2331,
      "もなき誓": 2332,
      "乙女": 2333,
      "名もなき誓": 2334,
      "君が願": 2335,
      "命の戦": 2336,
      "誰がた": 2337,
      "赤き運": 2338,
      "thod": 2339,
      "thplace": 2340,
      "thick": 2341,
      "those": 2342,
      "theless": 2343,
      "ination": 2344,
      "inity": 2345,
      "inau": 2346,
      "inform": 2347,
      "invol": 2348,
      "inade": 2349,
      "inji": 2350,
      "infantry": 2351,
      "invad": 2352,
      "indepen": 2353,
      "innate": 2354,
      "invinc": 2355,
      "erous": 2356,
      "erally": 2357,
      "erating": 2358,
      "erks": 2359,
      "erased": 2360,
      "ergen": 2361,
      "erase": 2362,
      "erters": 2363,
      "error": 2364,
      "anon": 2365,
      "anti": 2366,
      "anno": 2367,
      "another": 2368,
      "anew": 2369,
      "anci": 2370,
      "announ": 2371,
      "anobe": 2372,
      "onel": 2373,
      "onality": 2374,
      "onists": 2375,
      "onerating": 2376,
      "eday": 2377,
      "alth": 2378,
      "alle": 2379,
      "alion": 2380,
      "alter": 2381,
      "alive": 2382,
      "almost": 2383,
      "alleg": 2384,
      "always": 2385,
      "already": 2386,
      "enga": 2387,
      "enbe": 2388,
      "ense": 2389,
      "ences": 2390,
      "engine": 2391,
      "enlisted": 2392,
      "enligh": 2393,
      "enraged": 2394,
      "orne": 2395,
      "orian": 2396,
      "orced": 2397,
      "oried": 2398,
      "escor": 2399,
      "arn": 2400,
      "ared": 2401,
      "arri": 2402,
      "arant": 2403,
      "arded": 2404,
      "arran": 2405,
      "arma": 2406,
      "arrest": 2407,
      "armory": 2408,
      "ita": 2409,
      "item": 2410,
      "itut": 2411,
      "itations": 2412,
      "ats": 2413,
      "aty": 2414,
      "attr": 2415,
      "atten": 2416,
      "ative": 2417,
      "atonality": 2418,
      "atorian": 2419,
      "asy": 2420,
      "aser": 2421,
      "ases": 2422,
      "asion": 2423,
      "ofound": 2424,
      "offer": 2425,
      "too": 2426,
      "toon": 2427,
      "tower": 2428,
      "toward": 2429,
      "topped": 2430,
      "tomized": 2431,
      "town": 2432,
      "toyam": 2433,
      "reass": 2434,
      "repe": 2435,
      "repor": 2436,
      "reactiv": 2437,
      "reality": 2438,
      "revolution": 2439,
      "regre": 2440,
      "replayed": 2441,
      "review": 2442,
      "represent": 2443,
      "regained": 2444,
      "refine": 2445,
      "andons": 2446,
      "leav": 2447,
      "lection": 2448,
      "learn": 2449,
      "ising": 2450,
      "ister": 2451,
      "islat": 2452,
      "mei": 2453,
      "met": 2454,
      "meal": 2455,
      "method": 2456,
      "ouji": 2457,
      "icle": 2458,
      "icines": 2459,
      "ions": 2460,
      "stri": 2461,
      "stay": 2462,
      "stron": 2463,
      "steri": 2464,
      "stone": 2465,
      "staf": 2466,
      "still": 2467,
      "stanti": 2468,
      "stats": 2469,
      "ents": 2470,
      "entri": 2471,
      "ently": 2472,
      "entire": 2473,
      "entry": 2474,
      "entially": 2475,
      "entertain": 2476,
      "roshi": 2477,
      "chem": 2478,
      "changing": 2479,
      "chosen": 2480,
      "gather": 2481,
      "gave": 2482,
      "gauge": 2483,
      "river": 2484,
      "ribayashi": 2485,
      "rivals": 2486,
      "ford": 2487,
      "forem": 2488,
      "forgiving": 2489,
      "hement": 2490,
      "heard": 2491,
      "health": 2492,
      "adually": 2493,
      "advant": 2494,
      "els": 2495,
      "eler": 2496,
      "else": 2497,
      "ellis": 2498,
      "elons": 2499,
      "elaps": 2500,
      "ila": 2501,
      "ilt": 2502,
      "ilia": 2503,
      "uno": 2504,
      "uncon": 2505,
      "unless": 2506,
      "unofficial": 2507,
      "unknow": 2508,
      "unpopular": 2509,
      "unvoiced": 2510,
      "unalter": 2511,
      "behind": 2512,
      "apter": 2513,
      "appe": 2514,
      "apply": 2515,
      "aptations": 2516,
      "urs": 2517,
      "ured": 2518,
      "ural": 2519,
      "ursion": 2520,
      "urring": 2521,
      "set": 2522,
      "sey": 2523,
      "seiz": 2524,
      "sever": 2525,
      "secur": 2526,
      "setting": 2527,
      "sealed": 2528,
      "secession": 2529,
      "seeks": 2530,
      "segments": 2531,
      "ayuki": 2532,
      "kyo": 2533,
      "alled": 2534,
      "allation": 2535,
      "allies": 2536,
      "allocated": 2537,
      "ceived": 2538,
      "cease": 2539,
      "cking": 2540,
      "placing": 2541,
      "plified": 2542,
      "plaus": 2543,
      "ploit": 2544,
      "Valkyrie": 2545,
      "Armor": 2546,
      "Artillery": 2547,
      "dees": 2548,
      "decom": 2549,
      "deem": 2550,
      "deple": 2551,
      "defeat": 2552,
      "deleg": 2553,
      "defect": 2554,
      "irty": 2555,
      "ope": 2556,
      "option": 2557,
      "without": 2558,
      "withdraw": 2559,
      "sus": 2560,
      "sure": 2561,
      "supre": 2562,
      "supp": 2563,
      "suka": 2564,
      "suitable": 2565,
      "ivery": 2566,
      "oma": 2567,
      "omas": 2568,
      "abilities": 2569,
      "abandons": 2570,
      "consen": 2571,
      "conqu": 2572,
      "confron": 2573,
      "conscri": 2574,
      "confl": 2575,
      "send": 2576,
      "Chik": 2577,
      "Changing": 2578,
      "Chapter": 2579,
      "oten": 2580,
      "ocked": 2581,
      "ocktro": 2582,
      "ima": 2583,
      "imen": 2584,
      "imped": 2585,
      "ami": 2586,
      "amer": 2587,
      "amoun": 2588,
      "among": 2589,
      "poor": 2590,
      "post": 2591,
      "power": 2592,
      "poly": 2593,
      "posts": 2594,
      "police": 2595,
      "soon": 2596,
      "usa": 2597,
      "usive": 2598,
      "comic": 2599,
      "comers": 2600,
      "compr": 2601,
      "compon": 2602,
      "compose": 2603,
      "combin": 2604,
      "compatible": 2605,
      "ows": 2606,
      "owing": 2607,
      "provi": 2608,
      "proper": 2609,
      "progr": 2610,
      "prove": 2611,
      "promp": 2612,
      "proved": 2613,
      "provision": 2614,
      "promot": 2615,
      "proposed": 2616,
      "procession": 2617,
      "probably": 2618,
      "charts": 2619,
      "empted": 2620,
      "emergen": 2621,
      "emplified": 2622,
      "aks": 2623,
      "aku": 2624,
      "net": 2625,
      "newer": 2626,
      "never": 2627,
      "neither": 2628,
      "negat": 2629,
      "erience": 2630,
      "quate": 2631,
      "quire": 2632,
      "quant": 2633,
      "quities": 2634,
      "quick": 2635,
      "utive": 2636,
      "playable": 2637,
      "1894": 2638,
      "ests": 2639,
      "estyle": 2640,
      "ruitable": 2641,
      "artists": 2642,
      "artillery": 2643,
      "article": 2644,
      "excl": 2645,
      "exist": 2646,
      "exec": 2647,
      "expose": 2648,
      "express": 2649,
      "exhaust": 2650,
      "exonerating": 2651,
      "exploit": 2652,
      "exemplified": 2653,
      "ecting": 2654,
      "ify": 2655,
      "iful": 2656,
      "tery": 2657,
      "territory": 2658,
      "ulation": 2659,
      "ulkn": 2660,
      "Story": 2661,
      "Stories": 2662,
      "gether": 2663,
      "getting": 2664,
      "vier": 2665,
      "oln": 2666,
      "weary": 2667,
      "overall": 2668,
      "overturned": 2669,
      "aveler": 2670,
      "princ": 2671,
      "prise": 2672,
      "price": 2673,
      "profound": 2674,
      "preted": 2675,
      "prevent": 2676,
      "prepar": 2677,
      "preci": 2678,
      "track": 2679,
      "tracks": 2680,
      "perman": 2681,
      "pervad": 2682,
      "permit": 2683,
      "perceived": 2684,
      "tening": 2685,
      "possi": 2686,
      "descend": 2687,
      "deserters": 2688,
      "earch": 2689,
      "lease": 2690,
      "Arkansans": 2691,
      "mson": 2692,
      "tiquities": 2693,
      "ordnances": 2694,
      "acity": 2695,
      "acres": 2696,
      "acquire": 2697,
      "achie": 2698,
      "achita": 2699,
      "esses": 2700,
      "essential": 2701,
      "essentially": 2702,
      "dum": 2703,
      "duction": 2704,
      "lost": 2705,
      "lose": 2706,
      "look": 2707,
      "location": 2708,
      "losses": 2709,
      "noon": 2710,
      "span": 2711,
      "space": 2712,
      "speaking": 2713,
      "tured": 2714,
      "tures": 2715,
      "outposts": 2716,
      "bert": 2717,
      "cannon": 2718,
      "canister": 2719,
      "ficial": 2720,
      "ficient": 2721,
      "many": 2722,
      "manpower": 2723,
      "shall": 2724,
      "shops": 2725,
      "shimo": 2726,
      "shared": 2727,
      "shows": 2728,
      "sibility": 2729,
      "serious": 2730,
      "serialized": 2731,
      "working": 2732,
      "Recept": 2733,
      "Ready": 2734,
      "Released": 2735,
      "Returns": 2736,
      "Rebel": 2737,
      "Record": 2738,
      "Regular": 2739,
      "Reila": 2740,
      "Release": 2741,
      "elect": 2742,
      "idly": 2743,
      "iance": 2744,
      "model": 2745,
      "mised": 2746,
      "miles": 2747,
      "maintain": 2748,
      "whose": 2749,
      "1863": 2750,
      "preview": 2751,
      "buhiro": 2752,
      "bubb": 2753,
      "budge": 2754,
      "keep": 2755,
      "moves": 2756,
      "tropp": 2757,
      "missioning": 2758,
      "Sevier": 2759,
      "boat": 2760,
      "boons": 2761,
      "book": 2762,
      "body": 2763,
      "boosts": 2764,
      "boxes": 2765,
      "clad": 2766,
      "clerks": 2767,
      "grade": 2768,
      "granted": 2769,
      "gradually": 2770,
      "mysteri": 2771,
      "tained": 2772,
      "vehicles": 2773,
      "vehement": 2774,
      "installation": 2775,
      "istic": 2776,
      "Inside": 2777,
      "Indian": 2778,
      "awkward": 2779,
      "awarded": 2780,
      "parts": 2781,
      "partly": 2782,
      "Plot": 2783,
      "again": 2784,
      "ecial": 2785,
      "firmed": 2786,
      "line": 2787,
      "link": 2788,
      "lines": 2789,
      "lision": 2790,
      "listen": 2791,
      "scow": 2792,
      "scarc": 2793,
      "scratch": 2794,
      "scope": 2795,
      "warrant": 2796,
      "ordered": 2797,
      "ordering": 2798,
      "newly": 2799,
      "newfound": 2800,
      "newcomers": 2801,
      "M1847": 2802,
      "M1842": 2803,
      "M1841": 2804,
      "M1855": 2805,
      "agree": 2806,
      "agonal": 2807,
      "agonists": 2808,
      "calome": 2809,
      "caliber": 2810,
      "customized": 2811,
      "izon": 2812,
      "musical": 2813,
      "others": 2814,
      "page": 2815,
      "paign": 2816,
      "packing": 2817,
      "umably": 2818,
      "office": 2819,
      "recently": 2820,
      "recalled": 2821,
      "recruitable": 2822,
      "struction": 2823,
      "undertaking": 2824,
      "underwent": 2825,
      "Concept": 2826,
      "Conway": 2827,
      "Construction": 2828,
      "Itsuka": 2829,
      "Total": 2830,
      "Unlike": 2831,
      "Unrecorded": 2832,
      "Unmei": 2833,
      "blurring": 2834,
      "moral": 2835,
      "morning": 2836,
      "teaser": 2837,
      "very": 2838,
      "commanding": 2839,
      "Maoh": 2840,
      "Tokyo": 2841,
      "Together": 2842,
      "medicines": 2843,
      "redid": 2844,
      "redeem": 2845,
      "redoing": 2846,
      "respective": 2847,
      "research": 2848,
      "types": 2849,
      "tweaks": 2850,
      "upper": 2851,
      "upgrade": 2852,
      "writer": 2853,
      "writers": 2854,
      "somewhat": 2855,
      "expel": 2856,
      "expected": 2857,
      "expense": 2858,
      "experience": 2859,
      "timeline": 2860,
      "afternoon": 2861,
      "Captured": 2862,
      "card": 2863,
      "carbin": 2864,
      "carpenter": 2865,
      "handful": 2866,
      "ieving": 2867,
      "knocked": 2868,
      "oking": 2869,
      "okawa": 2870,
      "oyuki": 2871,
      "thereon": 2872,
      "therefore": 2873,
      "incursion": 2874,
      "attribut": 2875,
      "attacks": 2876,
      "attorne": 2877,
      "attempted": 2878,
      "mostly": 2879,
      "102": 2880,
      "10th": 2881,
      "Built": 2882,
      "Motoyam": 2883,
      "Moshimo": 2884,
      "Moscow": 2885,
      "Nothing": 2886,
      "Nobuhiro": 2887,
      "Saku": 2888,
      "That": 2889,
      "Thus": 2890,
      "Thirty": 2891,
      "Thomas": 2892,
      "does": 2893,
      "docu": 2894,
      "denied": 2895,
      "deniability": 2896,
      "destination": 2897,
      "destitut": 2898,
      "direction": 2899,
      "directed": 2900,
      "downtown": 2901,
      "guard": 2902,
      "guarant": 2903,
      "ksburg": 2904,
      "laboratorian": 2905,
      "peace": 2906,
      "porary": 2907,
      "portra": 2908,
      "persons": 2909,
      "perspective": 2910,
      "rank": 2911,
      "simple": 2912,
      "simulation": 2913,
      "years": 2914,
      "interpose": 2915,
      "interests": 2916,
      "interpreted": 2917,
      "repairs": 2918,
      "repairing": 2919,
      "issues": 2920,
      "memory": 2921,
      "foreign": 2922,
      "activity": 2923,
      "opened": 2924,
      "improved": 2925,
      "Confederates": 2926,
      "cartridge": 2927,
      "follows": 2928,
      "All": 2929,
      "Always": 2930,
      "Altah": 2931,
      "Heath": 2932,
      "Show": 2933,
      "Shinji": 2934,
      "Shouji": 2935,
      "Shoten": 2936,
      "Shocktro": 2937,
      "full": 2938,
      "gunsmiths": 2939,
      "gunboat": 2940,
      "killed": 2941,
      "oldest": 2942,
      "panels": 2943,
      "serve": 2944,
      "served": 2945,
      "service": 2946,
      "singles": 2947,
      "sentiment": 2948,
      "television": 2949,
      "telegram": 2950,
      "thought": 2951,
      "editions": 2952,
      "enders": 2953,
      "endid": 2954,
      "asked": 2955,
      "related": 2956,
      "relating": 2957,
      "removal": 2958,
      "royuki": 2959,
      "ellent": 2960,
      "uniforms": 2961,
      "operated": 2962,
      "operative": 2963,
      "needing": 2964,
      "establishment": 2965,
      "availability": 2966,
      "presence": 2967,
      "presumably": 2968,
      "praising": 2969,
      "specimen": 2970,
      "manufacturing": 2971,
      "affect": 2972,
      "affected": 2973,
      "authorized": 2974,
      "classified": 2975,
      "musketoon": 2976,
      "differing": 2977,
      "featuring": 2978,
      "feature": 2979,
      "features": 2980,
      "featured": 2981,
      "Calamaty": 2982,
      "750": 2983,
      "Antiquities": 2984,
      "Expedition": 2985,
      "Fujis": 2986,
      "Impress": 2987,
      "Misuosame": 2988,
      "Post": 2989,
      "Posts": 2990,
      "Taken": 2991,
      "Takayuki": 2992,
      "capacity": 2993,
      "color": 2994,
      "colonel": 2995,
      "collection": 2996,
      "collision": 2997,
      "critics": 2998,
      "distance": 2999,
      "distinct": 3000,
      "etc": 3001,
      "ette": 3002,
      "goes": 3003,
      "goals": 3004,
      "good": 3005,
      "generally": 3006,
      "government": 3007,
      "heroines": 3008,
      "having": 3009,
      "ledge": 3010,
      "mined": 3011,
      "minor": 3012,
      "mines": 3013,
      "minals": 3014,
      "odic": 3015,
      "paralle": 3016,
      "priated": 3017,
      "surmised": 3018,
      "enemies": 3019,
      "realistic": 3020,
      "receives": 3021,
      "remaining": 3022,
      "remainder": 3023,
      "leader": 3024,
      "leading": 3025,
      "ished": 3026,
      "outside": 3027,
      "outskir": 3028,
      "store": 3029,
      "storage": 3030,
      "headquarters": 3031,
      "adaptations": 3032,
      "adaptation": 3033,
      "approach": 3034,
      "appropriated": 3035,
      "select": 3036,
      "ploying": 3037,
      "decides": 3038,
      "subject": 3039,
      "subtitle": 3040,
      "substanti": 3041,
      "superior": 3042,
      "supposed": 3043,
      "completed": 3044,
      "completing": 3045,
      "completion": 3046,
      "completely": 3047,
      "build": 3048,
      "builder": 3049,
      "buildings": 3050,
      "scene": 3051,
      "scenes": 3052,
      "responded": 3053,
      "responsibility": 3054,
      "continues": 3055,
      "destroys": 3056,
      "directly": 3057,
      "personal": 3058,
      "systems": 3059,
      "episodic": 3060,
      "publicity": 3061,
      "戦場のヴァルキュリア３": 3062,
      "149": 3063,
      "152": 3064,
      "1500": 3065,
      "250": 3066,
      "Abilities": 3067,
      "Abrah": 3068,
      "Abilia": 3069,
      "Black": 3070,
      "Blue": 3071,
      "BliTZ": 3072,
      "Compatible": 3073,
      "Gameplay": 3074,
      "Kuribayashi": 3075,
      "Militia": 3076,
      "Ordered": 3077,
      "PSP": 3078,
      "Rifle": 3079,
      "called": 3080,
      "country": 3081,
      "divorced": 3082,
      "effected": 3083,
      "equal": 3084,
      "fellow": 3085,
      "idea": 3086,
      "ideal": 3087,
      "oshibi": 3088,
      "vised": 3089,
      "inspected": 3090,
      "inspired": 3091,
      "inspecting": 3092,
      "animated": 3093,
      "offenders": 3094,
      "reinforcements": 3095,
      "legislat": 3096,
      "rowed": 3097,
      "change": 3098,
      "adjustments": 3099,
      "became": 3100,
      "become": 3101,
      "because": 3102,
      "appearance": 3103,
      "sequel": 3104,
      "details": 3105,
      "detailing": 3106,
      "actions": 3107,
      "suffer": 3108,
      "suffers": 3109,
      "sufficient": 3110,
      "protagonists": 3111,
      "employment": 3112,
      "exterior": 3113,
      "designs": 3114,
      "designer": 3115,
      "sixty": 3116,
      "Regiment": 3117,
      "identities": 3118,
      "identify": 3119,
      "illustrating": 3120,
      "club": 3121,
      "instructions": 3122,
      "officials": 3123,
      "incorporate": 3124,
      "incorporated": 3125,
      "incorporating": 3126,
      "translated": 3127,
      "purchased": 3128,
      "purchase": 3129,
      "purchases": 3130,
      "Fujibayashi": 3131,
      "criticized": 3132,
      "majority": 3133,
      "episode": 3134,
      "piecemeal": 3135,
      "surrendering": 3136,
      "...": 3137,
      "117": 3138,
      "11th": 3139,
      "130": 3140,
      "1942": 3141,
      "1997": 3142,
      "267": 3143,
      "Akari": 3144,
      "Akaki": 3145,
      "Both": 3146,
      "Board": 3147,
      "Engine": 3148,
      "English": 3149,
      "Form": 3150,
      "Fabrication": 3151,
      "Fabricated": 3152,
      "Hiroshi": 3153,
      "Hiroyuki": 3154,
      "Libr": 3155,
      "Local": 3156,
      "Looking": 3157,
      "Naohiko": 3158,
      "Naoyuki": 3159,
      "Native": 3160,
      "Natural": 3161,
      "Official": 3162,
      "Project": 3163,
      "Production": 3164,
      "Road": 3165,
      "Robert": 3166,
      "Troops": 3167,
      "Troopers": 3168,
      "World": 3169,
      "Wormle": 3170,
      "Without": 3171,
      "bore": 3172,
      "borrowed": 3173,
      "believing": 3174,
      "camp": 3175,
      "campaign": 3176,
      "castor": 3177,
      "certainly": 3178,
      "delivery": 3179,
      "days": 3180,
      "dangers": 3181,
      "dangerous": 3182,
      "flux": 3183,
      "foot": 3184,
      "focused": 3185,
      "fueling": 3186,
      "fuzes": 3187,
      "finalized": 3188,
      "finished": 3189,
      "fabrication": 3190,
      "fabricating": 3191,
      "grown": 3192,
      "growth": 3193,
      "hopes": 3194,
      "hopeful": 3195,
      "higher": 3196,
      "highly": 3197,
      "limited": 3198,
      "limitations": 3199,
      "motto": 3200,
      "marched": 3201,
      "observing": 3202,
      "obtained": 3203,
      "occasion": 3204,
      "occurs": 3205,
      "pitted": 3206,
      "pitiful": 3207,
      "passing": 3208,
      "passage": 3209,
      "scant": 3210,
      "scanned": 3211,
      "songs": 3212,
      "taken": 3213,
      "takes": 3214,
      "true": 3215,
      "trump": 3216,
      "tasked": 3217,
      "wishes": 3218,
      "inventory": 3219,
      "inventoried": 3220,
      "include": 3221,
      "included": 3222,
      "revived": 3223,
      "revenge": 3224,
      "request": 3225,
      "required": 3226,
      "retained": 3227,
      "retaining": 3228,
      "reveal": 3229,
      "revealed": 3230,
      "letters": 3231,
      "standing": 3232,
      "standard": 3233,
      "started": 3234,
      "starting": 3235,
      "enterprise": 3236,
      "seemed": 3237,
      "seemingly": 3238,
      "determine": 3239,
      "determined": 3240,
      "depositories": 3241,
      "depending": 3242,
      "ironclad": 3243,
      "supervised": 3244,
      "consider": 3245,
      "considered": 3246,
      "converted": 3247,
      "converting": 3248,
      "consequence": 3249,
      "consequences": 3250,
      "Character": 3251,
      "Characters": 3252,
      "impressed": 3253,
      "impressments": 3254,
      "commonly": 3255,
      "company": 3256,
      "companies": 3257,
      "problem": 3258,
      "problems": 3259,
      "nearly": 3260,
      "excited": 3261,
      "excellent": 3262,
      "extended": 3263,
      "extensive": 3264,
      "ultimate": 3265,
      "ultimately": 3266,
      "desperate": 3267,
      "desperately": 3268,
      "spirit": 3269,
      "spirits": 3270,
      "shortly": 3271,
      "Seiki": 3272,
      "Seiko": 3273,
      "particularly": 3274,
      "M1816": 3275,
      "M1817": 3276,
      "Majima": 3277,
      "individual": 3278,
      "individuality": 3279,
      "knowledge": 3280,
      "volume": 3281,
      "volumes": 3282,
      "enjoyed": 3283,
      "enjoying": 3284,
      "referenced": 3285,
      "referendum": 3286,
      "specialist": 3287,
      "Point": 3288,
      "Points": 3289,
      "distress": 3290,
      "district": 3291,
      "dispatched": 3292,
      "distributed": 3293,
      "distributing": 3294,
      "effort": 3295,
      "efforts": 3296,
      "greatly": 3297,
      "visual": 3298,
      "visuals": 3299,
      "criticism": 3300,
      "criticisms": 3301,
      "American": 3302,
      "Americans": 3303,
      "happens": 3304,
      "happened": 3305,
      "situation": 3306,
      "situations": 3307,
      "successfully": 3308,
      "accountability": 3309,
      "synthesizer": 3310,
      "synthesized": 3311,
      "12th": 3312,
      "2001": 3313,
      "357": 3314,
      "3DS": 3315,
      "3rd": 3316,
      "4Gamer": 3317,
      "779": 3318,
      "Adaptations": 3319,
      "Being": 3320,
      "Bloom": 3321,
      "Battalion": 3322,
      "BLiTZ": 3323,
      "Club": 3324,
      "Crimson": 3325,
      "Cavalry": 3326,
      "CANVAS": 3327,
      "DVD": 3328,
      "Disposition": 3329,
      "Douglas": 3330,
      "Direct": 3331,
      "Dengeki": 3332,
      "Employing": 3333,
      "Earl": 3334,
      "Eisenbe": 3335,
      "Faulkn": 3336,
      "Faylan": 3337,
      "Flowers": 3338,
      "Flash": 3339,
      "Geddes": 3340,
      "Green": 3341,
      "Gunsmiths": 3342,
      "Gusurg": 3343,
      "Gauge": 3344,
      "Gazette": 3345,
      "Henry": 3346,
      "Hounded": 3347,
      "Hikari": 3348,
      "Ikusa": 3349,
      "Irving": 3350,
      "Jūsō": 3351,
      "Jackson": 3352,
      "Kondō": 3353,
      "Kishiko": 3354,
      "Kadokawa": 3355,
      "Kelly": 3356,
      "Kotaku": 3357,
      "Kimi": 3358,
      "Koichi": 3359,
      "Kazuki": 3360,
      "Lancers": 3361,
      "Lockman": 3362,
      "Lifestyle": 3363,
      "Lincoln": 3364,
      "Laboratory": 3365,
      "Legacy": 3366,
      "Miyag": 3367,
      "Minami": 3368,
      "Murphy": 3369,
      "Music": 3370,
      "Memphis": 3371,
      "Mounted": 3372,
      "Magazine": 3373,
      "Mizuki": 3374,
      "Masters": 3375,
      "Marcellis": 3376,
      "Multiple": 3377,
      "Massey": 3378,
      "Mitsuhiro": 3379,
      "Nara": 3380,
      "Napole": 3381,
      "Note": 3382,
      "Namo": 3383,
      "Nagakawa": 3384,
      "Network": 3385,
      "Nintendo": 3386,
      "Negauno": 3387,
      "Ohta": 3388,
      "Oklah": 3389,
      "Ouachita": 3390,
      "Otome": 3391,
      "Origin": 3392,
      "Outside": 3393,
      "People": 3394,
      "Perhaps": 3395,
      "Park": 3396,
      "Pictures": 3397,
      "Personal": 3398,
      "Partly": 3399,
      "Pacific": 3400,
      "Packaged": 3401,
      "President": 3402,
      "Qriocity": 3403,
      "Ryan": 3404,
      "Randgri": 3405,
      "Ramsey": 3406,
      "Richard": 3407,
      "Scouts": 3408,
      "Special": 3409,
      "Sanford": 3410,
      "Someday": 3411,
      "Summary": 3412,
      "Someone": 3413,
      "Speaking": 3414,
      "Soldier": 3415,
      "SHIBI": 3416,
      "Traveler": 3417,
      "Territory": 3418,
      "Tank": 3419,
      "Titled": 3420,
      "Tsuge": 3421,
      "Tomoshibi": 3422,
      "Telegram": 3423,
      "TOMOSHIBI": 3424,
      "Vicksburg": 3425,
      "Wii": 3426,
      "Walker": 3427,
      "Yamanobe": 3428,
      "bonus": 3429,
      "balance": 3430,
      "benefact": 3431,
      "battery": 3432,
      "birthplace": 3433,
      "bronze": 3434,
      "bullet": 3435,
      "cooperative": 3436,
      "citing": 3437,
      "central": 3438,
      "cross": 3439,
      "criminals": 3440,
      "copy": 3441,
      "cutscenes": 3442,
      "crucial": 3443,
      "closure": 3444,
      "crisis": 3445,
      "donation": 3446,
      "data": 3447,
      "dictated": 3448,
      "echelons": 3449,
      "evidence": 3450,
      "freely": 3451,
      "functions": 3452,
      "further": 3453,
      "fusion": 3454,
      "futile": 3455,
      "fears": 3456,
      "fought": 3457,
      "fantasy": 3458,
      "falsely": 3459,
      "gurated": 3460,
      "hinting": 3461,
      "half": 3462,
      "horizon": 3463,
      "housed": 3464,
      "jinxed": 3465,
      "junker": 3466,
      "jockey": 3467,
      "journal": 3468,
      "length": 3469,
      "layouts": 3470,
      "love": 3471,
      "life": 3472,
      "moulds": 3473,
      "message": 3474,
      "museums": 3475,
      "nitre": 3476,
      "novel": 3477,
      "named": 3478,
      "othbore": 3479,
      "octagonal": 3480,
      "period": 3481,
      "putting": 3482,
      "runs": 3483,
      "rapidly": 3484,
      "route": 3485,
      "richest": 3486,
      "racetrack": 3487,
      "switch": 3488,
      "splendid": 3489,
      "somber": 3490,
      "spoil": 3491,
      "shadow": 3492,
      "save": 3493,
      "safe": 3494,
      "smoothbore": 3495,
      "sketch": 3496,
      "stoppage": 3497,
      "tanks": 3498,
      "trial": 3499,
      "temporary": 3500,
      "target": 3501,
      "telling": 3502,
      "tinctures": 3503,
      "valuable": 3504,
      "varies": 3505,
      "vicinity": 3506,
      "versions": 3507,
      "victory": 3508,
      "world": 3509,
      "wreck": 3510,
      "walls": 3511,
      "woman": 3512,
      "warehouse": 3513,
      "widely": 3514,
      "wanting": 3515,
      "young": 3516,
      "Æsthetic": 3517,
      "Ōnogi": 3518,
      "いつか咲": 3519,
      "うのなら": 3520,
      "く光の花": 3521,
      "めの銃瘡": 3522,
      "もしも君が願": 3523,
      "名もなき誓いの花": 3524,
      "命の戦乙女": 3525,
      "誰がための銃瘡": 3526,
      "赤き運命の戦乙女": 3527,
      "inaugurated": 3528,
      "informed": 3529,
      "involved": 3530,
      "inadequate": 3531,
      "invading": 3532,
      "independence": 3533,
      "invincible": 3534,
      "anonymous": 3535,
      "annoying": 3536,
      "ancient": 3537,
      "announced": 3538,
      "allegiance": 3539,
      "engage": 3540,
      "enlightening": 3541,
      "escorted": 3542,
      "arriving": 3543,
      "arranged": 3544,
      "armaments": 3545,
      "attractions": 3546,
      "attendees": 3547,
      "offered": 3548,
      "towards": 3549,
      "reassess": 3550,
      "repetition": 3551,
      "reported": 3552,
      "reactivated": 3553,
      "revolutionary": 3554,
      "regret": 3555,
      "representing": 3556,
      "leaving": 3557,
      "stripped": 3558,
      "stayed": 3559,
      "strong": 3560,
      "staffed": 3561,
      "entries": 3562,
      "entertaining": 3563,
      "chemical": 3564,
      "gathered": 3565,
      "foreman": 3566,
      "advantage": 3567,
      "elapsed": 3568,
      "unconfirmed": 3569,
      "unknowingly": 3570,
      "unpopularity": 3571,
      "unaltered": 3572,
      "appeal": 3573,
      "seizure": 3574,
      "security": 3575,
      "settings": 3576,
      "plausible": 3577,
      "Armored": 3578,
      "decommissioning": 3579,
      "deemed": 3580,
      "depleting": 3581,
      "delegates": 3582,
      "defects": 3583,
      "supreme": 3584,
      "support": 3585,
      "consensus": 3586,
      "conquered": 3587,
      "confronts": 3588,
      "conscripted": 3589,
      "conflict": 3590,
      "Chikai": 3591,
      "impede": 3592,
      "amount": 3593,
      "polygon": 3594,
      "comprising": 3595,
      "components": 3596,
      "combined": 3597,
      "provided": 3598,
      "property": 3599,
      "progresses": 3600,
      "prompted": 3601,
      "provisions": 3602,
      "promote": 3603,
      "emergency": 3604,
      "nevertheless": 3605,
      "negatively": 3606,
      "quantity": 3607,
      "quickly": 3608,
      "exclusive": 3609,
      "executive": 3610,
      "expressing": 3611,
      "exhausted": 3612,
      "principle": 3613,
      "prepared": 3614,
      "precious": 3615,
      "permanent": 3616,
      "pervades": 3617,
      "permitted": 3618,
      "possible": 3619,
      "descendant": 3620,
      "achieve": 3621,
      "Reception": 3622,
      "Records": 3623,
      "models": 3624,
      "maintaining": 3625,
      "bubbles": 3626,
      "budget": 3627,
      "tropps": 3628,
      "mysterious": 3629,
      "vehemently": 3630,
      "scarcity": 3631,
      "agreement": 3632,
      "calomel": 3633,
      "undertakings": 3634,
      "carbines": 3635,
      "attributes": 3636,
      "attorney": 3637,
      "Motoyama": 3638,
      "documents": 3639,
      "destitute": 3640,
      "guarantee": 3641,
      "portraits": 3642,
      "Altaha": 3643,
      "Shocktroopers": 3644,
      "serviceable": 3645,
      "telegrams": 3646,
      "Fujisawa": 3647,
      "parallel": 3648,
      "outskirts": 3649,
      "substantial": 3650,
      "superiors": 3651,
      "Abraham": 3652,
      "legislature": 3653,
      "Engineers": 3654,
      "Library": 3655,
      "Wormley": 3656,
      "occasional": 3657,
      "Eisenbeis": 3658,
      "Faulkner": 3659,
      "Miyagi": 3660,
      "Napoleon": 3661,
      "Oklahoma": 3662,
      "Originally": 3663,
      "Randgriz": 3664,
      "benefactor": 3665,
      "crossover": 3666,
      "journalists": 3667,
      "sketchy": 3668,
      "いつか咲く光の花": 3669,
      "もしも君が願うのなら": 3670
    },
    "merges": [
      [
        "t",
        "h"
      ],
      [
        "th",
        "e"
      ],
      [
        "i",
        "n"
      ],
      [
        "e",
        "r"
      ],
      [
        "a",
        "n"
      ],
      [
        "o",
        "n"
      ],
      [
        "e",
        "d"
      ],
      [
        "a",
        "l"
      ],
      [
        "e",
        "n"
      ],
      [
        "o",
        "r"
      ],
      [
        "e",
        "s"
      ],
      [
        "a",
        "r"
      ],
      [
        "i",
        "t"
      ],
      [
        "a",
        "t"
      ],
      [
        "a",
        "s"
      ],
      [
        "o",
        "f"
      ],
      [
        "t",
        "o"
      ],
      [
        "r",
        "e"
      ],
      [
        "an",
        "d"
      ],
      [
        "l",
        "e"
      ],
      [
        "in",
        "g"
      ],
      [
        "i",
        "s"
      ],
      [
        "m",
        "e"
      ],
      [
        "o",
        "u"
      ],
      [
        "i",
        "c"
      ],
      [
        "i",
        "on"
      ],
      [
        "s",
        "t"
      ],
      [
        "c",
        "t"
      ],
      [
        "en",
        "t"
      ],
      [
        "r",
        "o"
      ],
      [
        "c",
        "h"
      ],
      [
        "g",
        "a"
      ],
      [
        "r",
        "i"
      ],
      [
        "f",
        "or"
      ],
      [
        "h",
        "e"
      ],
      [
        "a",
        "d"
      ],
      [
        "w",
        "as"
      ],
      [
        "e",
        "l"
      ],
      [
        "i",
        "l"
      ],
      [
        "u",
        "n"
      ],
      [
        "b",
        "e"
      ],
      [
        "a",
        "p"
      ],
      [
        "u",
        "r"
      ],
      [
        "s",
        "e"
      ],
      [
        "a",
        "y"
      ],
      [
        "l",
        "es"
      ],
      [
        "er",
        "s"
      ],
      [
        "T",
        "he"
      ],
      [
        "k",
        "y"
      ],
      [
        "V",
        "al"
      ],
      [
        "al",
        "l"
      ],
      [
        "Val",
        "ky"
      ],
      [
        "c",
        "e"
      ],
      [
        "c",
        "k"
      ],
      [
        "i",
        "th"
      ],
      [
        "p",
        "l"
      ],
      [
        "Valky",
        "ri"
      ],
      [
        "A",
        "r"
      ],
      [
        "d",
        "e"
      ],
      [
        "i",
        "r"
      ],
      [
        "ga",
        "me"
      ],
      [
        "Valkyri",
        "a"
      ],
      [
        "m",
        "ent"
      ],
      [
        "b",
        "y"
      ],
      [
        "a",
        "ct"
      ],
      [
        "o",
        "p"
      ],
      [
        "w",
        "er"
      ],
      [
        "w",
        "ith"
      ],
      [
        "l",
        "d"
      ],
      [
        "s",
        "u"
      ],
      [
        "i",
        "v"
      ],
      [
        "o",
        "m"
      ],
      [
        "t",
        "le"
      ],
      [
        "w",
        "h"
      ],
      [
        "a",
        "b"
      ],
      [
        "o",
        "v"
      ],
      [
        "c",
        "on"
      ],
      [
        "r",
        "on"
      ],
      [
        "s",
        "en"
      ],
      [
        "C",
        "h"
      ],
      [
        "I",
        "I"
      ],
      [
        "o",
        "t"
      ],
      [
        "o",
        "ck"
      ],
      [
        "i",
        "m"
      ],
      [
        "th",
        "at"
      ],
      [
        "wer",
        "e"
      ],
      [
        "a",
        "m"
      ],
      [
        "ic",
        "les"
      ],
      [
        "p",
        "o"
      ],
      [
        "s",
        "o"
      ],
      [
        "u",
        "s"
      ],
      [
        "ron",
        "icles"
      ],
      [
        "Ch",
        "ronicles"
      ],
      [
        "l",
        "y"
      ],
      [
        "c",
        "om"
      ],
      [
        "o",
        "w"
      ],
      [
        "p",
        "ro"
      ],
      [
        "ar",
        "y"
      ],
      [
        "at",
        "e"
      ],
      [
        "it",
        "s"
      ],
      [
        "ch",
        "ar"
      ],
      [
        "sen",
        "al"
      ],
      [
        "-",
        "@"
      ],
      [
        "@",
        "-@"
      ],
      [
        "d",
        "er"
      ],
      [
        "e",
        "m"
      ],
      [
        "at",
        "ion"
      ],
      [
        "L",
        "it"
      ],
      [
        "R",
        "ock"
      ],
      [
        "a",
        "k"
      ],
      [
        "Lit",
        "tle"
      ],
      [
        "i",
        "g"
      ],
      [
        "n",
        "e"
      ],
      [
        "er",
        "i"
      ],
      [
        "a",
        "in"
      ],
      [
        "q",
        "u"
      ],
      [
        "u",
        "t"
      ],
      [
        "an",
        "s"
      ],
      [
        "pl",
        "ay"
      ],
      [
        "1",
        "8"
      ],
      [
        "a",
        "me"
      ],
      [
        "es",
        "t"
      ],
      [
        "h",
        "ad"
      ],
      [
        "r",
        "u"
      ],
      [
        "ou",
        "n"
      ],
      [
        "char",
        "act"
      ],
      [
        "ar",
        "t"
      ],
      [
        "it",
        "y"
      ],
      [
        "ou",
        "ld"
      ],
      [
        "e",
        "x"
      ],
      [
        "e",
        "ct"
      ],
      [
        "f",
        "ro"
      ],
      [
        "i",
        "f"
      ],
      [
        "s",
        "ion"
      ],
      [
        "t",
        "er"
      ],
      [
        "u",
        "l"
      ],
      [
        "it",
        "ion"
      ],
      [
        "fro",
        "m"
      ],
      [
        "S",
        "t"
      ],
      [
        "g",
        "e"
      ],
      [
        "v",
        "i"
      ],
      [
        "or",
        "y"
      ],
      [
        "0",
        "0"
      ],
      [
        "o",
        "l"
      ],
      [
        "w",
        "e"
      ],
      [
        "Ar",
        "k"
      ],
      [
        "ov",
        "er"
      ],
      [
        "a",
        "v"
      ],
      [
        "p",
        "r"
      ],
      [
        "p",
        "re"
      ],
      [
        "t",
        "r"
      ],
      [
        "the",
        "ir"
      ],
      [
        "p",
        "er"
      ],
      [
        "t",
        "s"
      ],
      [
        "t",
        "en"
      ],
      [
        "ou",
        "s"
      ],
      [
        "ment",
        "s"
      ],
      [
        "2",
        "0"
      ],
      [
        "h",
        "i"
      ],
      [
        "ar",
        "e"
      ],
      [
        "ou",
        "g"
      ],
      [
        "po",
        "s"
      ],
      [
        "d",
        "es"
      ],
      [
        "e",
        "ar"
      ],
      [
        "h",
        "is"
      ],
      [
        "le",
        "as"
      ],
      [
        "Ar",
        "senal"
      ],
      [
        "Ark",
        "ans"
      ],
      [
        "oug",
        "h"
      ],
      [
        "m",
        "s"
      ],
      [
        "t",
        "i"
      ],
      [
        "t",
        "ed"
      ],
      [
        "or",
        "d"
      ],
      [
        "or",
        "k"
      ],
      [
        "it",
        "i"
      ],
      [
        "at",
        "ed"
      ],
      [
        "oun",
        "d"
      ],
      [
        "20",
        "1"
      ],
      [
        "Arkans",
        "as"
      ],
      [
        "a",
        "c"
      ],
      [
        "a",
        "ch"
      ],
      [
        "th",
        "is"
      ],
      [
        "er",
        "al"
      ],
      [
        "on",
        "e"
      ],
      [
        "es",
        "s"
      ],
      [
        "ur",
        "ing"
      ],
      [
        "d",
        "u"
      ],
      [
        "l",
        "o"
      ],
      [
        "n",
        "o"
      ],
      [
        "n",
        "ed"
      ],
      [
        "s",
        "p"
      ],
      [
        "t",
        "ur"
      ],
      [
        "v",
        "el"
      ],
      [
        "the",
        "r"
      ],
      [
        "ou",
        "t"
      ],
      [
        "vel",
        "op"
      ],
      [
        ",",
        "@"
      ],
      [
        "@",
        ",@"
      ],
      [
        "b",
        "er"
      ],
      [
        "c",
        "an"
      ],
      [
        "f",
        "ic"
      ],
      [
        "m",
        "an"
      ],
      [
        "n",
        "ot"
      ],
      [
        "s",
        "h"
      ],
      [
        "s",
        "i"
      ],
      [
        "s",
        "eri"
      ],
      [
        "u",
        "st"
      ],
      [
        "w",
        "ork"
      ],
      [
        "al",
        "so"
      ],
      [
        "re",
        "leas"
      ],
      [
        "ab",
        "le"
      ],
      [
        "charact",
        "er"
      ],
      [
        "R",
        "e"
      ],
      [
        "a",
        "f"
      ],
      [
        "e",
        "le"
      ],
      [
        "f",
        "er"
      ],
      [
        "i",
        "d"
      ],
      [
        "i",
        "an"
      ],
      [
        "m",
        "o"
      ],
      [
        "m",
        "es"
      ],
      [
        "m",
        "is"
      ],
      [
        "m",
        "il"
      ],
      [
        "m",
        "ain"
      ],
      [
        "w",
        "ould"
      ],
      [
        "on",
        "g"
      ],
      [
        "at",
        "tle"
      ],
      [
        "all",
        "y"
      ],
      [
        "de",
        "velop"
      ],
      [
        "iv",
        "e"
      ],
      [
        "wh",
        "o"
      ],
      [
        "II",
        "I"
      ],
      [
        "18",
        "6"
      ],
      [
        "over",
        "n"
      ],
      [
        "pre",
        "vi"
      ],
      [
        "b",
        "u"
      ],
      [
        "i",
        "al"
      ],
      [
        "i",
        "re"
      ],
      [
        "k",
        "e"
      ],
      [
        "m",
        "ov"
      ],
      [
        "r",
        "it"
      ],
      [
        "r",
        "ough"
      ],
      [
        "t",
        "ro"
      ],
      [
        "u",
        "re"
      ],
      [
        "in",
        "to"
      ],
      [
        "ar",
        "senal"
      ],
      [
        "ic",
        "h"
      ],
      [
        "ct",
        "ion"
      ],
      [
        "il",
        "l"
      ],
      [
        "les",
        "s"
      ],
      [
        "su",
        "ch"
      ],
      [
        "seri",
        "es"
      ],
      [
        "mis",
        "sion"
      ],
      [
        "previ",
        "ous"
      ],
      [
        "G",
        "all"
      ],
      [
        "S",
        "e"
      ],
      [
        "a",
        "u"
      ],
      [
        "b",
        "o"
      ],
      [
        "c",
        "l"
      ],
      [
        "g",
        "r"
      ],
      [
        "m",
        "y"
      ],
      [
        "m",
        "and"
      ],
      [
        "n",
        "ing"
      ],
      [
        "p",
        "t"
      ],
      [
        "t",
        "ain"
      ],
      [
        "v",
        "e"
      ],
      [
        "in",
        "st"
      ],
      [
        "an",
        "ce"
      ],
      [
        "it",
        "ary"
      ],
      [
        "is",
        "t"
      ],
      [
        "st",
        "ory"
      ],
      [
        "I",
        "n"
      ],
      [
        "N",
        "ame"
      ],
      [
        "a",
        "w"
      ],
      [
        "b",
        "ut"
      ],
      [
        "d",
        "ing"
      ],
      [
        "f",
        "ed"
      ],
      [
        "i",
        "el"
      ],
      [
        "p",
        "le"
      ],
      [
        "p",
        "art"
      ],
      [
        "the",
        "me"
      ],
      [
        "or",
        "ig"
      ],
      [
        "for",
        "m"
      ],
      [
        "el",
        "y"
      ],
      [
        "be",
        "en"
      ],
      [
        "wh",
        "ich"
      ],
      [
        "charact",
        "ers"
      ],
      [
        "Name",
        "less"
      ],
      [
        "orig",
        "in"
      ],
      [
        "G",
        "overn"
      ],
      [
        "P",
        "l"
      ],
      [
        "a",
        "ga"
      ],
      [
        "c",
        "re"
      ],
      [
        "d",
        "uring"
      ],
      [
        "e",
        "c"
      ],
      [
        "f",
        "ir"
      ],
      [
        "l",
        "in"
      ],
      [
        "l",
        "is"
      ],
      [
        "s",
        "c"
      ],
      [
        "v",
        "ent"
      ],
      [
        "w",
        "ar"
      ],
      [
        "th",
        "rough"
      ],
      [
        "an",
        "t"
      ],
      [
        "on",
        "s"
      ],
      [
        "or",
        "t"
      ],
      [
        "or",
        "der"
      ],
      [
        "as",
        "s"
      ],
      [
        "ga",
        "mes"
      ],
      [
        "op",
        "s"
      ],
      [
        "so",
        "ld"
      ],
      [
        "ow",
        "n"
      ],
      [
        "ne",
        "w"
      ],
      [
        "we",
        "ap"
      ],
      [
        "mil",
        "itary"
      ],
      [
        "develop",
        "ment"
      ],
      [
        "M",
        "18"
      ],
      [
        "a",
        "g"
      ],
      [
        "c",
        "ed"
      ],
      [
        "c",
        "al"
      ],
      [
        "c",
        "us"
      ],
      [
        "d",
        "ition"
      ],
      [
        "i",
        "a"
      ],
      [
        "i",
        "z"
      ],
      [
        "l",
        "ow"
      ],
      [
        "m",
        "us"
      ],
      [
        "o",
        "ther"
      ],
      [
        "p",
        "a"
      ],
      [
        "u",
        "m"
      ],
      [
        "ar",
        "ms"
      ],
      [
        "of",
        "fic"
      ],
      [
        "re",
        "c"
      ],
      [
        "st",
        "ru"
      ],
      [
        "un",
        "der"
      ],
      [
        "game",
        "play"
      ],
      [
        "ak",
        "e"
      ],
      [
        "eri",
        "al"
      ],
      [
        "releas",
        "ed"
      ],
      [
        "Pl",
        "ay"
      ],
      [
        "fir",
        "st"
      ],
      [
        "C",
        "on"
      ],
      [
        "I",
        "t"
      ],
      [
        "J",
        "ap"
      ],
      [
        "T",
        "ot"
      ],
      [
        "U",
        "n"
      ],
      [
        "b",
        "l"
      ],
      [
        "b",
        "le"
      ],
      [
        "b",
        "attle"
      ],
      [
        "c",
        "es"
      ],
      [
        "c",
        "ould"
      ],
      [
        "d",
        "if"
      ],
      [
        "f",
        "ound"
      ],
      [
        "f",
        "iel"
      ],
      [
        "m",
        "p"
      ],
      [
        "m",
        "or"
      ],
      [
        "t",
        "e"
      ],
      [
        "v",
        "er"
      ],
      [
        "the",
        "y"
      ],
      [
        "st",
        "ate"
      ],
      [
        "il",
        "ding"
      ],
      [
        "be",
        "g"
      ],
      [
        "com",
        "mand"
      ],
      [
        "St",
        "ation"
      ],
      [
        "00",
        "0"
      ],
      [
        "201",
        "1"
      ],
      [
        "tro",
        "ops"
      ],
      [
        "mission",
        "s"
      ],
      [
        "origin",
        "al"
      ],
      [
        "Play",
        "Station"
      ],
      [
        "Jap",
        "an"
      ],
      [
        "fiel",
        "d"
      ],
      [
        "2",
        "2"
      ],
      [
        "D",
        "un"
      ],
      [
        "F",
        "e"
      ],
      [
        "G",
        "en"
      ],
      [
        "M",
        "a"
      ],
      [
        "T",
        "o"
      ],
      [
        "a",
        "il"
      ],
      [
        "a",
        "ck"
      ],
      [
        "b",
        "ru"
      ],
      [
        "f",
        "act"
      ],
      [
        "i",
        "es"
      ],
      [
        "i",
        "le"
      ],
      [
        "i",
        "ers"
      ],
      [
        "l",
        "ock"
      ],
      [
        "m",
        "ed"
      ],
      [
        "m",
        "un"
      ],
      [
        "n",
        "ance"
      ],
      [
        "r",
        "ed"
      ],
      [
        "r",
        "es"
      ],
      [
        "s",
        "ame"
      ],
      [
        "t",
        "y"
      ],
      [
        "t",
        "on"
      ],
      [
        "t",
        "we"
      ],
      [
        "u",
        "p"
      ],
      [
        "w",
        "o"
      ],
      [
        "w",
        "rit"
      ],
      [
        "the",
        "m"
      ],
      [
        "in",
        "d"
      ],
      [
        "al",
        "ong"
      ],
      [
        "it",
        "ed"
      ],
      [
        "at",
        "es"
      ],
      [
        "at",
        "ing"
      ],
      [
        "as",
        "t"
      ],
      [
        "re",
        "tur"
      ],
      [
        "for",
        "ce"
      ],
      [
        "be",
        "ing"
      ],
      [
        "ap",
        "s"
      ],
      [
        "con",
        "t"
      ],
      [
        "so",
        "me"
      ],
      [
        "em",
        "ber"
      ],
      [
        "ation",
        "s"
      ],
      [
        "ig",
        "h"
      ],
      [
        "qu",
        "ad"
      ],
      [
        "ex",
        "p"
      ],
      [
        "St",
        "ate"
      ],
      [
        "pos",
        "it"
      ],
      [
        "ti",
        "me"
      ],
      [
        "iti",
        "es"
      ],
      [
        "du",
        "e"
      ],
      [
        "af",
        "ter"
      ],
      [
        "ele",
        "ments"
      ],
      [
        "mov",
        "e"
      ],
      [
        "Gall",
        "ian"
      ],
      [
        "ning",
        "ton"
      ],
      [
        "sold",
        "iers"
      ],
      [
        "Tot",
        "ten"
      ],
      [
        "Dun",
        "nington"
      ],
      [
        "Fe",
        "bru"
      ],
      [
        "mun",
        "ition"
      ],
      [
        "Febru",
        "ary"
      ],
      [
        "C",
        "ap"
      ],
      [
        "J",
        "an"
      ],
      [
        "a",
        "h"
      ],
      [
        "a",
        "ce"
      ],
      [
        "c",
        "ar"
      ],
      [
        "d",
        "ed"
      ],
      [
        "f",
        "e"
      ],
      [
        "h",
        "and"
      ],
      [
        "i",
        "e"
      ],
      [
        "i",
        "k"
      ],
      [
        "i",
        "me"
      ],
      [
        "j",
        "ect"
      ],
      [
        "k",
        "n"
      ],
      [
        "m",
        "en"
      ],
      [
        "o",
        "k"
      ],
      [
        "o",
        "y"
      ],
      [
        "p",
        "p"
      ],
      [
        "p",
        "at"
      ],
      [
        "r",
        "y"
      ],
      [
        "s",
        "m"
      ],
      [
        "t",
        "ing"
      ],
      [
        "u",
        "se"
      ],
      [
        "u",
        "ary"
      ],
      [
        "v",
        "ol"
      ],
      [
        "th",
        "an"
      ],
      [
        "the",
        "re"
      ],
      [
        "in",
        "c"
      ],
      [
        "er",
        "e"
      ],
      [
        "er",
        "y"
      ],
      [
        "an",
        "ime"
      ],
      [
        "en",
        "j"
      ],
      [
        "it",
        "e"
      ],
      [
        "at",
        "t"
      ],
      [
        "is",
        "ion"
      ],
      [
        "ic",
        "s"
      ],
      [
        "ct",
        "ed"
      ],
      [
        "ri",
        "d"
      ],
      [
        "ad",
        "e"
      ],
      [
        "ad",
        "dition"
      ],
      [
        "un",
        "it"
      ],
      [
        "un",
        "its"
      ],
      [
        "be",
        "twe"
      ],
      [
        "Ar",
        "my"
      ],
      [
        "wh",
        "ile"
      ],
      [
        "ab",
        "or"
      ],
      [
        "ab",
        "out"
      ],
      [
        "us",
        "ed"
      ],
      [
        "ear",
        "ly"
      ],
      [
        "mo",
        "st"
      ],
      [
        "186",
        "2"
      ],
      [
        "bo",
        "th"
      ],
      [
        "Govern",
        "or"
      ],
      [
        "aga",
        "inst"
      ],
      [
        "weap",
        "ons"
      ],
      [
        "iz",
        "ed"
      ],
      [
        "pa",
        "ir"
      ],
      [
        "te",
        "am"
      ],
      [
        "Jan",
        "uary"
      ],
      [
        "betwe",
        "en"
      ],
      [
        "1",
        "0"
      ],
      [
        "B",
        "u"
      ],
      [
        "B",
        "attle"
      ],
      [
        "M",
        "o"
      ],
      [
        "M",
        "ay"
      ],
      [
        "N",
        "o"
      ],
      [
        "N",
        "ov"
      ],
      [
        "S",
        "ak"
      ],
      [
        "T",
        "h"
      ],
      [
        "c",
        "c"
      ],
      [
        "c",
        "art"
      ],
      [
        "d",
        "o"
      ],
      [
        "d",
        "en"
      ],
      [
        "d",
        "est"
      ],
      [
        "d",
        "ire"
      ],
      [
        "d",
        "own"
      ],
      [
        "e",
        "ach"
      ],
      [
        "f",
        "ol"
      ],
      [
        "f",
        "lin"
      ],
      [
        "g",
        "u"
      ],
      [
        "h",
        "as"
      ],
      [
        "j",
        "or"
      ],
      [
        "k",
        "i"
      ],
      [
        "k",
        "s"
      ],
      [
        "l",
        "at"
      ],
      [
        "l",
        "abor"
      ],
      [
        "o",
        "h"
      ],
      [
        "o",
        "me"
      ],
      [
        "p",
        "e"
      ],
      [
        "p",
        "en"
      ],
      [
        "p",
        "or"
      ],
      [
        "p",
        "ers"
      ],
      [
        "r",
        "an"
      ],
      [
        "s",
        "y"
      ],
      [
        "s",
        "im"
      ],
      [
        "s",
        "quad"
      ],
      [
        "t",
        "wo"
      ],
      [
        "y",
        "ear"
      ],
      [
        "in",
        "e"
      ],
      [
        "in",
        "ter"
      ],
      [
        "ar",
        "c"
      ],
      [
        "ar",
        "i"
      ],
      [
        "at",
        "erial"
      ],
      [
        "as",
        "on"
      ],
      [
        "as",
        "ed"
      ],
      [
        "re",
        "e"
      ],
      [
        "re",
        "pair"
      ],
      [
        "is",
        "su"
      ],
      [
        "me",
        "m"
      ],
      [
        "ou",
        "r"
      ],
      [
        "ent",
        "ial"
      ],
      [
        "ri",
        "f"
      ],
      [
        "for",
        "e"
      ],
      [
        "ce",
        "pt"
      ],
      [
        "act",
        "iv"
      ],
      [
        "op",
        "en"
      ],
      [
        "iv",
        "ed"
      ],
      [
        "im",
        "o"
      ],
      [
        "im",
        "pro"
      ],
      [
        "po",
        "in"
      ],
      [
        "ak",
        "ing"
      ],
      [
        "ig",
        "ned"
      ],
      [
        "play",
        "er"
      ],
      [
        "ul",
        "ti"
      ],
      [
        "St",
        "ates"
      ],
      [
        "tr",
        "a"
      ],
      [
        "tr",
        "ans"
      ],
      [
        "per",
        "cus"
      ],
      [
        "ord",
        "nance"
      ],
      [
        "releas",
        "e"
      ],
      [
        "aw",
        "a"
      ],
      [
        "fed",
        "er"
      ],
      [
        "lis",
        "h"
      ],
      [
        "Con",
        "feder"
      ],
      [
        "Un",
        "ited"
      ],
      [
        "beg",
        "an"
      ],
      [
        "Gen",
        "eral"
      ],
      [
        "writ",
        "ten"
      ],
      [
        "Cap",
        "tain"
      ],
      [
        "Nov",
        "ember"
      ],
      [
        "cart",
        "rid"
      ],
      [
        "fol",
        "low"
      ],
      [
        "flin",
        "t"
      ],
      [
        "percus",
        "sion"
      ],
      [
        "A",
        "l"
      ],
      [
        "A",
        "s"
      ],
      [
        "B",
        "y"
      ],
      [
        "C",
        "al"
      ],
      [
        "D",
        "uring"
      ],
      [
        "H",
        "e"
      ],
      [
        "H",
        "ind"
      ],
      [
        "I",
        "ts"
      ],
      [
        "J",
        "oh"
      ],
      [
        "K",
        "ur"
      ],
      [
        "O",
        "n"
      ],
      [
        "R",
        "ect"
      ],
      [
        "R",
        "av"
      ],
      [
        "S",
        "h"
      ],
      [
        "S",
        "enj"
      ],
      [
        "T",
        "his"
      ],
      [
        "W",
        "ar"
      ],
      [
        "a",
        "is"
      ],
      [
        "b",
        "ers"
      ],
      [
        "c",
        "iti"
      ],
      [
        "e",
        "p"
      ],
      [
        "e",
        "w"
      ],
      [
        "e",
        "vent"
      ],
      [
        "f",
        "an"
      ],
      [
        "f",
        "ul"
      ],
      [
        "g",
        "es"
      ],
      [
        "g",
        "un"
      ],
      [
        "i",
        "ally"
      ],
      [
        "j",
        "i"
      ],
      [
        "j",
        "ust"
      ],
      [
        "k",
        "ill"
      ],
      [
        "m",
        "on"
      ],
      [
        "m",
        "ade"
      ],
      [
        "m",
        "aterial"
      ],
      [
        "m",
        "ulti"
      ],
      [
        "n",
        "d"
      ],
      [
        "n",
        "um"
      ],
      [
        "o",
        "ld"
      ],
      [
        "p",
        "an"
      ],
      [
        "p",
        "on"
      ],
      [
        "p",
        "ur"
      ],
      [
        "p",
        "ect"
      ],
      [
        "s",
        "er"
      ],
      [
        "s",
        "ing"
      ],
      [
        "s",
        "is"
      ],
      [
        "s",
        "ent"
      ],
      [
        "t",
        "im"
      ],
      [
        "t",
        "ele"
      ],
      [
        "t",
        "ake"
      ],
      [
        "u",
        "fact"
      ],
      [
        "u",
        "ki"
      ],
      [
        "v",
        "ing"
      ],
      [
        "w",
        "ay"
      ],
      [
        "z",
        "en"
      ],
      [
        "th",
        "or"
      ],
      [
        "th",
        "ough"
      ],
      [
        "th",
        "ree"
      ],
      [
        "the",
        "se"
      ],
      [
        "ed",
        "ition"
      ],
      [
        "al",
        "s"
      ],
      [
        "al",
        "ity"
      ],
      [
        "en",
        "d"
      ],
      [
        "es",
        "e"
      ],
      [
        "ar",
        "d"
      ],
      [
        "ar",
        "ge"
      ],
      [
        "ar",
        "ound"
      ],
      [
        "as",
        "k"
      ],
      [
        "as",
        "se"
      ],
      [
        "re",
        "l"
      ],
      [
        "re",
        "fer"
      ],
      [
        "re",
        "mov"
      ],
      [
        "is",
        "e"
      ],
      [
        "ic",
        "al"
      ],
      [
        "ro",
        "y"
      ],
      [
        "ro",
        "le"
      ],
      [
        "el",
        "l"
      ],
      [
        "un",
        "i"
      ],
      [
        "ap",
        "h"
      ],
      [
        "pl",
        "y"
      ],
      [
        "op",
        "er"
      ],
      [
        "with",
        "in"
      ],
      [
        "wh",
        "ere"
      ],
      [
        "ab",
        "lish"
      ],
      [
        "con",
        "d"
      ],
      [
        "con",
        "stru"
      ],
      [
        "ot",
        "ential"
      ],
      [
        "am",
        "munition"
      ],
      [
        "po",
        "se"
      ],
      [
        "com",
        "pos"
      ],
      [
        "pro",
        "du"
      ],
      [
        "ig",
        "n"
      ],
      [
        "ne",
        "ed"
      ],
      [
        "play",
        "ers"
      ],
      [
        "est",
        "ablish"
      ],
      [
        "ul",
        "ar"
      ],
      [
        "av",
        "ail"
      ],
      [
        "pr",
        "es"
      ],
      [
        "pr",
        "ais"
      ],
      [
        "201",
        "0"
      ],
      [
        "sp",
        "ec"
      ],
      [
        "man",
        "ufact"
      ],
      [
        "sh",
        "ot"
      ],
      [
        "af",
        "f"
      ],
      [
        "id",
        "ed"
      ],
      [
        "186",
        "1"
      ],
      [
        "Gall",
        "ia"
      ],
      [
        "Se",
        "ga"
      ],
      [
        "au",
        "thor"
      ],
      [
        "cl",
        "ass"
      ],
      [
        "gr",
        "aph"
      ],
      [
        "fed",
        "eral"
      ],
      [
        "mus",
        "ke"
      ],
      [
        "rec",
        "ord"
      ],
      [
        "dif",
        "fer"
      ],
      [
        "Japan",
        "ese"
      ],
      [
        "igh",
        "t"
      ],
      [
        "fe",
        "at"
      ],
      [
        "pat",
        "ch"
      ],
      [
        "sm",
        "all"
      ],
      [
        "Bu",
        "ilding"
      ],
      [
        "Sak",
        "imo"
      ],
      [
        "impro",
        "ve"
      ],
      [
        "Confeder",
        "ate"
      ],
      [
        "cartrid",
        "ges"
      ],
      [
        "follow",
        "ing"
      ],
      [
        "flint",
        "lock"
      ],
      [
        "Cal",
        "am"
      ],
      [
        "Hind",
        "man"
      ],
      [
        "Joh",
        "n"
      ],
      [
        "Kur",
        "t"
      ],
      [
        "Rect",
        "or"
      ],
      [
        "Rav",
        "en"
      ],
      [
        "Senj",
        "ō"
      ],
      [
        "citi",
        "zen"
      ],
      [
        "Sakimo",
        "to"
      ],
      [
        "4",
        "22"
      ],
      [
        "6",
        "9"
      ],
      [
        "7",
        "5"
      ],
      [
        "A",
        "n"
      ],
      [
        "A",
        "u"
      ],
      [
        "D",
        "e"
      ],
      [
        "D",
        "ah"
      ],
      [
        "D",
        "arc"
      ],
      [
        "E",
        "x"
      ],
      [
        "F",
        "u"
      ],
      [
        "I",
        "m"
      ],
      [
        "I",
        "mp"
      ],
      [
        "L",
        "t"
      ],
      [
        "M",
        "ed"
      ],
      [
        "M",
        "is"
      ],
      [
        "P",
        "o"
      ],
      [
        "P",
        "otential"
      ],
      [
        "T",
        "ak"
      ],
      [
        "V",
        "ision"
      ],
      [
        "W",
        "hi"
      ],
      [
        "a",
        "ge"
      ],
      [
        "b",
        "in"
      ],
      [
        "b",
        "all"
      ],
      [
        "c",
        "ap"
      ],
      [
        "c",
        "ol"
      ],
      [
        "c",
        "rit"
      ],
      [
        "d",
        "is"
      ],
      [
        "d",
        "ut"
      ],
      [
        "d",
        "ist"
      ],
      [
        "e",
        "e"
      ],
      [
        "e",
        "t"
      ],
      [
        "f",
        "ron"
      ],
      [
        "g",
        "i"
      ],
      [
        "g",
        "o"
      ],
      [
        "g",
        "en"
      ],
      [
        "g",
        "ust"
      ],
      [
        "g",
        "overn"
      ],
      [
        "h",
        "er"
      ],
      [
        "h",
        "im"
      ],
      [
        "h",
        "ow"
      ],
      [
        "h",
        "av"
      ],
      [
        "i",
        "ed"
      ],
      [
        "i",
        "ke"
      ],
      [
        "i",
        "ble"
      ],
      [
        "k",
        "er"
      ],
      [
        "l",
        "ed"
      ],
      [
        "l",
        "it"
      ],
      [
        "l",
        "arge"
      ],
      [
        "m",
        "a"
      ],
      [
        "m",
        "in"
      ],
      [
        "m",
        "er"
      ],
      [
        "m",
        "ake"
      ],
      [
        "o",
        "d"
      ],
      [
        "p",
        "u"
      ],
      [
        "p",
        "ar"
      ],
      [
        "p",
        "ri"
      ],
      [
        "p",
        "hi"
      ],
      [
        "p",
        "ite"
      ],
      [
        "r",
        "a"
      ],
      [
        "r",
        "is"
      ],
      [
        "r",
        "ic"
      ],
      [
        "s",
        "al"
      ],
      [
        "s",
        "es"
      ],
      [
        "s",
        "el"
      ],
      [
        "s",
        "un"
      ],
      [
        "s",
        "ur"
      ],
      [
        "s",
        "hi"
      ],
      [
        "s",
        "kill"
      ],
      [
        "v",
        "ed"
      ],
      [
        "w",
        "est"
      ],
      [
        "x",
        "im"
      ],
      [
        "の",
        "ヴ"
      ],
      [
        "ァ",
        "ル"
      ],
      [
        "キ",
        "ュ"
      ],
      [
        "リ",
        "ア"
      ],
      [
        "場",
        "のヴ"
      ],
      [
        "戦",
        "場のヴ"
      ],
      [
        "the",
        "n"
      ],
      [
        "in",
        "u"
      ],
      [
        "in",
        "ery"
      ],
      [
        "an",
        "g"
      ],
      [
        "an",
        "y"
      ],
      [
        "an",
        "ces"
      ],
      [
        "on",
        "ce"
      ],
      [
        "on",
        "ly"
      ],
      [
        "ed",
        "ec"
      ],
      [
        "al",
        "though"
      ],
      [
        "en",
        "em"
      ],
      [
        "ar",
        "med"
      ],
      [
        "it",
        "ar"
      ],
      [
        "at",
        "form"
      ],
      [
        "at",
        "ely"
      ],
      [
        "as",
        "e"
      ],
      [
        "re",
        "al"
      ],
      [
        "re",
        "ce"
      ],
      [
        "re",
        "main"
      ],
      [
        "re",
        "ason"
      ],
      [
        "and",
        "ed"
      ],
      [
        "le",
        "ad"
      ],
      [
        "is",
        "h"
      ],
      [
        "ou",
        "ts"
      ],
      [
        "ic",
        "t"
      ],
      [
        "st",
        "or"
      ],
      [
        "st",
        "em"
      ],
      [
        "ct",
        "ure"
      ],
      [
        "he",
        "ad"
      ],
      [
        "ad",
        "el"
      ],
      [
        "ad",
        "ap"
      ],
      [
        "il",
        "ity"
      ],
      [
        "il",
        "ian"
      ],
      [
        "be",
        "fore"
      ],
      [
        "ap",
        "pro"
      ],
      [
        "se",
        "v"
      ],
      [
        "se",
        "le"
      ],
      [
        "pl",
        "oy"
      ],
      [
        "pl",
        "atform"
      ],
      [
        "de",
        "c"
      ],
      [
        "de",
        "o"
      ],
      [
        "de",
        "mo"
      ],
      [
        "su",
        "b"
      ],
      [
        "su",
        "p"
      ],
      [
        "iv",
        "ely"
      ],
      [
        "wh",
        "en"
      ],
      [
        "wh",
        "at"
      ],
      [
        "ab",
        "ric"
      ],
      [
        "sen",
        "se"
      ],
      [
        "am",
        "es"
      ],
      [
        "us",
        "ing"
      ],
      [
        "com",
        "ple"
      ],
      [
        "qu",
        "e"
      ],
      [
        "ut",
        "ion"
      ],
      [
        "ect",
        "ed"
      ],
      [
        "ul",
        "ty"
      ],
      [
        "vi",
        "deo"
      ],
      [
        "Ark",
        "adel"
      ],
      [
        "av",
        "y"
      ],
      [
        "pr",
        "ess"
      ],
      [
        "pr",
        "edec"
      ],
      [
        "tr",
        "y"
      ],
      [
        "per",
        "form"
      ],
      [
        "des",
        "pite"
      ],
      [
        "ord",
        "ers"
      ],
      [
        "iti",
        "a"
      ],
      [
        "ac",
        "ed"
      ],
      [
        "ach",
        "inery"
      ],
      [
        "ess",
        "or"
      ],
      [
        "tur",
        "n"
      ],
      [
        "fic",
        "ulty"
      ],
      [
        "si",
        "de"
      ],
      [
        "work",
        "s"
      ],
      [
        "work",
        "ed"
      ],
      [
        "bu",
        "il"
      ],
      [
        "bu",
        "ilding"
      ],
      [
        "Govern",
        "ment"
      ],
      [
        "sc",
        "en"
      ],
      [
        "weap",
        "on"
      ],
      [
        "M18",
        "22"
      ],
      [
        "ag",
        "ed"
      ],
      [
        "mus",
        "ic"
      ],
      [
        "stru",
        "cture"
      ],
      [
        "bl",
        "ic"
      ],
      [
        "battle",
        "field"
      ],
      [
        "dif",
        "ficulty"
      ],
      [
        "To",
        "wer"
      ],
      [
        "res",
        "pon"
      ],
      [
        "cont",
        "ent"
      ],
      [
        "cont",
        "inu"
      ],
      [
        "exp",
        "anded"
      ],
      [
        "vol",
        "ution"
      ],
      [
        "Battle",
        "field"
      ],
      [
        "dest",
        "roy"
      ],
      [
        "dire",
        "ct"
      ],
      [
        "gu",
        "itar"
      ],
      [
        "pers",
        "on"
      ],
      [
        "sy",
        "stem"
      ],
      [
        "rif",
        "les"
      ],
      [
        "open",
        "ing"
      ],
      [
        "ep",
        "is"
      ],
      [
        "multi",
        "ple"
      ],
      [
        "asse",
        "m"
      ],
      [
        "remov",
        "ed"
      ],
      [
        "uni",
        "que"
      ],
      [
        "establish",
        "ed"
      ],
      [
        "avail",
        "able"
      ],
      [
        "prais",
        "ed"
      ],
      [
        "manufact",
        "ure"
      ],
      [
        "differ",
        "ent"
      ],
      [
        "improve",
        "ments"
      ],
      [
        "Calam",
        "ity"
      ],
      [
        "citizen",
        "s"
      ],
      [
        "Au",
        "gust"
      ],
      [
        "Dah",
        "au"
      ],
      [
        "Darc",
        "sen"
      ],
      [
        "Imp",
        "erial"
      ],
      [
        "Med",
        "ia"
      ],
      [
        "Whi",
        "le"
      ],
      [
        "pu",
        "blic"
      ],
      [
        "phi",
        "a"
      ],
      [
        "sal",
        "es"
      ],
      [
        "sel",
        "f"
      ],
      [
        "sun",
        "g"
      ],
      [
        "ァル",
        "キュ"
      ],
      [
        "戦場のヴ",
        "ァルキュ"
      ],
      [
        "Arkadel",
        "phia"
      ],
      [
        "predec",
        "essor"
      ],
      [
        "戦場のヴァルキュ",
        "リア"
      ],
      [
        "1",
        "4"
      ],
      [
        "1",
        "5"
      ],
      [
        "2",
        "5"
      ],
      [
        "4",
        "7"
      ],
      [
        "A",
        "b"
      ],
      [
        "A",
        "f"
      ],
      [
        "A",
        "z"
      ],
      [
        "A",
        "pri"
      ],
      [
        "B",
        "l"
      ],
      [
        "C",
        "om"
      ],
      [
        "D",
        "L"
      ],
      [
        "D",
        "or"
      ],
      [
        "E",
        "ach"
      ],
      [
        "E",
        "dition"
      ],
      [
        "E",
        "mp"
      ],
      [
        "F",
        "ed"
      ],
      [
        "G",
        "ame"
      ],
      [
        "H",
        "on"
      ],
      [
        "H",
        "ar"
      ],
      [
        "H",
        "all"
      ],
      [
        "K",
        "u"
      ],
      [
        "M",
        "il"
      ],
      [
        "M",
        "ac"
      ],
      [
        "M",
        "use"
      ],
      [
        "O",
        "r"
      ],
      [
        "O",
        "z"
      ],
      [
        "P",
        "S"
      ],
      [
        "P",
        "ort"
      ],
      [
        "R",
        "if"
      ],
      [
        "R",
        "iel"
      ],
      [
        "V",
        "an"
      ],
      [
        "W",
        "h"
      ],
      [
        "W",
        "ork"
      ],
      [
        "a",
        "it"
      ],
      [
        "b",
        "rough"
      ],
      [
        "c",
        "a"
      ],
      [
        "c",
        "ur"
      ],
      [
        "c",
        "all"
      ],
      [
        "c",
        "oun"
      ],
      [
        "c",
        "ity"
      ],
      [
        "c",
        "ated"
      ],
      [
        "c",
        "aps"
      ],
      [
        "d",
        "iv"
      ],
      [
        "e",
        "f"
      ],
      [
        "e",
        "ad"
      ],
      [
        "e",
        "qu"
      ],
      [
        "e",
        "ver"
      ],
      [
        "f",
        "t"
      ],
      [
        "f",
        "el"
      ],
      [
        "f",
        "ive"
      ],
      [
        "f",
        "our"
      ],
      [
        "g",
        "ar"
      ],
      [
        "g",
        "re"
      ],
      [
        "i",
        "de"
      ],
      [
        "i",
        "des"
      ],
      [
        "j",
        "ou"
      ],
      [
        "k",
        "a"
      ],
      [
        "l",
        "p"
      ],
      [
        "l",
        "ast"
      ],
      [
        "l",
        "ike"
      ],
      [
        "m",
        "ap"
      ],
      [
        "m",
        "aps"
      ],
      [
        "m",
        "aking"
      ],
      [
        "m",
        "achinery"
      ],
      [
        "n",
        "ation"
      ],
      [
        "n",
        "ame"
      ],
      [
        "o",
        "ic"
      ],
      [
        "o",
        "shi"
      ],
      [
        "p",
        "ear"
      ],
      [
        "p",
        "ie"
      ],
      [
        "r",
        "en"
      ],
      [
        "r",
        "est"
      ],
      [
        "s",
        "ist"
      ],
      [
        "s",
        "ite"
      ],
      [
        "t",
        "il"
      ],
      [
        "t",
        "act"
      ],
      [
        "t",
        "one"
      ],
      [
        "t",
        "ail"
      ],
      [
        "u",
        "e"
      ],
      [
        "u",
        "ally"
      ],
      [
        "v",
        "es"
      ],
      [
        "v",
        "is"
      ],
      [
        "v",
        "ision"
      ],
      [
        "y",
        "le"
      ],
      [
        "th",
        "ing"
      ],
      [
        "th",
        "ur"
      ],
      [
        "th",
        "ir"
      ],
      [
        "the",
        "ms"
      ],
      [
        "the",
        "mes"
      ],
      [
        "in",
        "ce"
      ],
      [
        "in",
        "ten"
      ],
      [
        "in",
        "sp"
      ],
      [
        "in",
        "force"
      ],
      [
        "er",
        "ed"
      ],
      [
        "er",
        "tain"
      ],
      [
        "an",
        "im"
      ],
      [
        "en",
        "ce"
      ],
      [
        "or",
        "por"
      ],
      [
        "ar",
        "ch"
      ],
      [
        "it",
        "al"
      ],
      [
        "it",
        "su"
      ],
      [
        "at",
        "ory"
      ],
      [
        "as",
        "pect"
      ],
      [
        "of",
        "f"
      ],
      [
        "to",
        "p"
      ],
      [
        "to",
        "ol"
      ],
      [
        "to",
        "ok"
      ],
      [
        "re",
        "inforce"
      ],
      [
        "le",
        "g"
      ],
      [
        "le",
        "ft"
      ],
      [
        "is",
        "ts"
      ],
      [
        "ic",
        "e"
      ],
      [
        "st",
        "s"
      ],
      [
        "st",
        "aff"
      ],
      [
        "ro",
        "w"
      ],
      [
        "ch",
        "an"
      ],
      [
        "ri",
        "but"
      ],
      [
        "he",
        "ld"
      ],
      [
        "he",
        "lp"
      ],
      [
        "ad",
        "y"
      ],
      [
        "ad",
        "just"
      ],
      [
        "el",
        "ing"
      ],
      [
        "el",
        "ves"
      ],
      [
        "un",
        "e"
      ],
      [
        "un",
        "lock"
      ],
      [
        "un",
        "til"
      ],
      [
        "be",
        "c"
      ],
      [
        "ap",
        "pear"
      ],
      [
        "se",
        "qu"
      ],
      [
        "The",
        "y"
      ],
      [
        "pl",
        "ace"
      ],
      [
        "Ar",
        "thur"
      ],
      [
        "de",
        "tail"
      ],
      [
        "act",
        "ion"
      ],
      [
        "op",
        "le"
      ],
      [
        "su",
        "f"
      ],
      [
        "ab",
        "ility"
      ],
      [
        "con",
        "tro"
      ],
      [
        "con",
        "vent"
      ],
      [
        "con",
        "sist"
      ],
      [
        "pro",
        "t"
      ],
      [
        "pro",
        "ject"
      ],
      [
        "char",
        "ge"
      ],
      [
        "em",
        "ploy"
      ],
      [
        "play",
        "ed"
      ],
      [
        "play",
        "ing"
      ],
      [
        "ru",
        "mor"
      ],
      [
        "ex",
        "t"
      ],
      [
        "if",
        "ic"
      ],
      [
        "vi",
        "ew"
      ],
      [
        "pos",
        "ses"
      ],
      [
        "des",
        "igned"
      ],
      [
        "des",
        "ign"
      ],
      [
        "leas",
        "ed"
      ],
      [
        "ti",
        "er"
      ],
      [
        "201",
        "2"
      ],
      [
        "ac",
        "ing"
      ],
      [
        "lo",
        "ad"
      ],
      [
        "lo",
        "cal"
      ],
      [
        "tur",
        "ned"
      ],
      [
        "si",
        "x"
      ],
      [
        "si",
        "pp"
      ],
      [
        "ust",
        "r"
      ],
      [
        "Re",
        "gi"
      ],
      [
        "Re",
        "volution"
      ],
      [
        "id",
        "ent"
      ],
      [
        "mil",
        "itia"
      ],
      [
        "develop",
        "ed"
      ],
      [
        "bu",
        "ck"
      ],
      [
        "ke",
        "pt"
      ],
      [
        "ill",
        "ustr"
      ],
      [
        "Se",
        "cond"
      ],
      [
        "cl",
        "u"
      ],
      [
        "inst",
        "ru"
      ],
      [
        "origin",
        "ally"
      ],
      [
        "cre",
        "ating"
      ],
      [
        "sc",
        "ri"
      ],
      [
        "cus",
        "ed"
      ],
      [
        "offic",
        "ial"
      ],
      [
        "mor",
        "e"
      ],
      [
        "beg",
        "in"
      ],
      [
        "Ma",
        "jor"
      ],
      [
        "ack",
        "s"
      ],
      [
        "retur",
        "n"
      ],
      [
        "retur",
        "ned"
      ],
      [
        "posit",
        "ive"
      ],
      [
        "posit",
        "ively"
      ],
      [
        "move",
        "ment"
      ],
      [
        "munition",
        "s"
      ],
      [
        "ik",
        "es"
      ],
      [
        "kn",
        "own"
      ],
      [
        "inc",
        "orpor"
      ],
      [
        "addition",
        "al"
      ],
      [
        "Mo",
        "st"
      ],
      [
        "down",
        "load"
      ],
      [
        "lat",
        "er"
      ],
      [
        "issu",
        "e"
      ],
      [
        "mem",
        "bers"
      ],
      [
        "poin",
        "t"
      ],
      [
        "poin",
        "ts"
      ],
      [
        "trans",
        "l"
      ],
      [
        "trans",
        "fer"
      ],
      [
        "event",
        "s"
      ],
      [
        "fan",
        "try"
      ],
      [
        "gun",
        "s"
      ],
      [
        "mon",
        "th"
      ],
      [
        "num",
        "ber"
      ],
      [
        "pur",
        "ch"
      ],
      [
        "sis",
        "sipp"
      ],
      [
        "tim",
        "es"
      ],
      [
        "tele",
        "graph"
      ],
      [
        "way",
        "s"
      ],
      [
        "refer",
        "red"
      ],
      [
        "oper",
        "ations"
      ],
      [
        "constru",
        "cted"
      ],
      [
        "compos",
        "ed"
      ],
      [
        "produ",
        "ced"
      ],
      [
        "need",
        "ed"
      ],
      [
        "pres",
        "ent"
      ],
      [
        "record",
        "ed"
      ],
      [
        "422",
        "nd"
      ],
      [
        "Ex",
        "tra"
      ],
      [
        "Fu",
        "ji"
      ],
      [
        "Im",
        "ca"
      ],
      [
        "Mis",
        "sissipp"
      ],
      [
        "Potential",
        "s"
      ],
      [
        "cap",
        "ital"
      ],
      [
        "crit",
        "ic"
      ],
      [
        "fron",
        "tier"
      ],
      [
        "govern",
        "or"
      ],
      [
        "him",
        "self"
      ],
      [
        "how",
        "ever"
      ],
      [
        "hav",
        "e"
      ],
      [
        "ma",
        "jor"
      ],
      [
        "ris",
        "on"
      ],
      [
        "sur",
        "ren"
      ],
      [
        "skill",
        "s"
      ],
      [
        "enem",
        "y"
      ],
      [
        "rece",
        "ived"
      ],
      [
        "sele",
        "cted"
      ],
      [
        "dec",
        "ided"
      ],
      [
        "turn",
        "s"
      ],
      [
        "continu",
        "ed"
      ],
      [
        "destroy",
        "ed"
      ],
      [
        "direct",
        "or"
      ],
      [
        "epis",
        "o"
      ],
      [
        "戦場のヴァルキュリア",
        "3"
      ],
      [
        "Af",
        "ter"
      ],
      [
        "Az",
        "ure"
      ],
      [
        "Apri",
        "l"
      ],
      [
        "DL",
        "C"
      ],
      [
        "Dor",
        "n"
      ],
      [
        "Emp",
        "ire"
      ],
      [
        "Fed",
        "eral"
      ],
      [
        "Hon",
        "jou"
      ],
      [
        "Har",
        "rel"
      ],
      [
        "Mac",
        "Arthur"
      ],
      [
        "Muse",
        "um"
      ],
      [
        "Oz",
        "awa"
      ],
      [
        "Port",
        "able"
      ],
      [
        "Riel",
        "a"
      ],
      [
        "Wh",
        "en"
      ],
      [
        "brough",
        "t"
      ],
      [
        "gar",
        "rison"
      ],
      [
        "pie",
        "ce"
      ],
      [
        "tact",
        "ical"
      ],
      [
        "thir",
        "d"
      ],
      [
        "thems",
        "elves"
      ],
      [
        "tool",
        "s"
      ],
      [
        "unlock",
        "ed"
      ],
      [
        "contro",
        "l"
      ],
      [
        "convent",
        "ion"
      ],
      [
        "consist",
        "ing"
      ],
      [
        "posses",
        "sion"
      ],
      [
        "Mississipp",
        "i"
      ],
      [
        "surren",
        "der"
      ],
      [
        ".",
        "."
      ],
      [
        "1",
        "1"
      ],
      [
        "1",
        "3"
      ],
      [
        "1",
        "9"
      ],
      [
        "2",
        "6"
      ],
      [
        "2",
        "nd"
      ],
      [
        "2",
        "47"
      ],
      [
        "3",
        "1"
      ],
      [
        "4",
        "0"
      ],
      [
        "4",
        "2"
      ],
      [
        "5",
        "00"
      ],
      [
        "6",
        "4"
      ],
      [
        "9",
        "th"
      ],
      [
        "A",
        "k"
      ],
      [
        "A",
        "ction"
      ],
      [
        "A",
        "cc"
      ],
      [
        "A",
        "mer"
      ],
      [
        "B",
        "o"
      ],
      [
        "B",
        "ut"
      ],
      [
        "C",
        "ro"
      ],
      [
        "C",
        "iv"
      ],
      [
        "C",
        "am"
      ],
      [
        "C",
        "ol"
      ],
      [
        "D",
        "ue"
      ],
      [
        "E",
        "n"
      ],
      [
        "E",
        "u"
      ],
      [
        "F",
        "or"
      ],
      [
        "F",
        "am"
      ],
      [
        "F",
        "ort"
      ],
      [
        "F",
        "abric"
      ],
      [
        "G",
        "S"
      ],
      [
        "H",
        "i"
      ],
      [
        "H",
        "an"
      ],
      [
        "H",
        "it"
      ],
      [
        "H",
        "ist"
      ],
      [
        "J",
        "ames"
      ],
      [
        "J",
        "une"
      ],
      [
        "L",
        "i"
      ],
      [
        "L",
        "o"
      ],
      [
        "L",
        "ight"
      ],
      [
        "N",
        "a"
      ],
      [
        "N",
        "at"
      ],
      [
        "N",
        "avy"
      ],
      [
        "O",
        "f"
      ],
      [
        "P",
        "on"
      ],
      [
        "P",
        "ro"
      ],
      [
        "R",
        "o"
      ],
      [
        "R",
        "iv"
      ],
      [
        "R",
        "ait"
      ],
      [
        "S",
        "m"
      ],
      [
        "S",
        "quad"
      ],
      [
        "T",
        "Z"
      ],
      [
        "T",
        "ro"
      ],
      [
        "T",
        "wo"
      ],
      [
        "T",
        "GS"
      ],
      [
        "W",
        "or"
      ],
      [
        "W",
        "ith"
      ],
      [
        "a",
        "z"
      ],
      [
        "a",
        "th"
      ],
      [
        "a",
        "id"
      ],
      [
        "b",
        "or"
      ],
      [
        "b",
        "el"
      ],
      [
        "b",
        "ay"
      ],
      [
        "b",
        "est"
      ],
      [
        "b",
        "ased"
      ],
      [
        "b",
        "site"
      ],
      [
        "c",
        "i"
      ],
      [
        "c",
        "y"
      ],
      [
        "c",
        "iv"
      ],
      [
        "c",
        "am"
      ],
      [
        "c",
        "ess"
      ],
      [
        "c",
        "ast"
      ],
      [
        "c",
        "ertain"
      ],
      [
        "d",
        "r"
      ],
      [
        "d",
        "ar"
      ],
      [
        "d",
        "el"
      ],
      [
        "d",
        "ay"
      ],
      [
        "d",
        "am"
      ],
      [
        "d",
        "one"
      ],
      [
        "d",
        "nance"
      ],
      [
        "d",
        "ang"
      ],
      [
        "e",
        "ga"
      ],
      [
        "f",
        "l"
      ],
      [
        "f",
        "o"
      ],
      [
        "f",
        "u"
      ],
      [
        "f",
        "in"
      ],
      [
        "f",
        "em"
      ],
      [
        "f",
        "ran"
      ],
      [
        "f",
        "ight"
      ],
      [
        "f",
        "abric"
      ],
      [
        "g",
        "iv"
      ],
      [
        "g",
        "ine"
      ],
      [
        "g",
        "row"
      ],
      [
        "h",
        "ou"
      ],
      [
        "h",
        "ap"
      ],
      [
        "h",
        "op"
      ],
      [
        "h",
        "igh"
      ],
      [
        "h",
        "ome"
      ],
      [
        "h",
        "old"
      ],
      [
        "i",
        "p"
      ],
      [
        "i",
        "du"
      ],
      [
        "i",
        "ther"
      ],
      [
        "k",
        "o"
      ],
      [
        "l",
        "as"
      ],
      [
        "l",
        "im"
      ],
      [
        "m",
        "u"
      ],
      [
        "m",
        "ing"
      ],
      [
        "m",
        "ot"
      ],
      [
        "m",
        "ust"
      ],
      [
        "m",
        "ason"
      ],
      [
        "m",
        "mer"
      ],
      [
        "m",
        "arch"
      ],
      [
        "n",
        "the"
      ],
      [
        "n",
        "on"
      ],
      [
        "n",
        "or"
      ],
      [
        "n",
        "ames"
      ],
      [
        "o",
        "b"
      ],
      [
        "o",
        "cc"
      ],
      [
        "p",
        "it"
      ],
      [
        "p",
        "ap"
      ],
      [
        "p",
        "op"
      ],
      [
        "p",
        "ot"
      ],
      [
        "p",
        "oun"
      ],
      [
        "p",
        "ted"
      ],
      [
        "p",
        "ort"
      ],
      [
        "p",
        "ass"
      ],
      [
        "p",
        "leased"
      ],
      [
        "p",
        "acing"
      ],
      [
        "r",
        "ound"
      ],
      [
        "r",
        "ics"
      ],
      [
        "s",
        "it"
      ],
      [
        "s",
        "pre"
      ],
      [
        "s",
        "can"
      ],
      [
        "s",
        "ong"
      ],
      [
        "s",
        "ince"
      ],
      [
        "t",
        "it"
      ],
      [
        "t",
        "ion"
      ],
      [
        "t",
        "ers"
      ],
      [
        "t",
        "ak"
      ],
      [
        "t",
        "ru"
      ],
      [
        "t",
        "ations"
      ],
      [
        "t",
        "ting"
      ],
      [
        "t",
        "ask"
      ],
      [
        "t",
        "ext"
      ],
      [
        "v",
        "ad"
      ],
      [
        "v",
        "ari"
      ],
      [
        "v",
        "oic"
      ],
      [
        "w",
        "ill"
      ],
      [
        "w",
        "ise"
      ],
      [
        "w",
        "ell"
      ],
      [
        "w",
        "ish"
      ],
      [
        "x",
        "t"
      ],
      [
        "y",
        "cl"
      ],
      [
        "y",
        "our"
      ],
      [
        "の",
        "花"
      ],
      [
        "in",
        "ed"
      ],
      [
        "in",
        "es"
      ],
      [
        "in",
        "ct"
      ],
      [
        "in",
        "iti"
      ],
      [
        "in",
        "cre"
      ],
      [
        "in",
        "vent"
      ],
      [
        "in",
        "clu"
      ],
      [
        "er",
        "n"
      ],
      [
        "an",
        "ing"
      ],
      [
        "an",
        "ted"
      ],
      [
        "an",
        "ned"
      ],
      [
        "on",
        "al"
      ],
      [
        "al",
        "e"
      ],
      [
        "al",
        "ed"
      ],
      [
        "al",
        "ized"
      ],
      [
        "en",
        "ge"
      ],
      [
        "en",
        "ding"
      ],
      [
        "en",
        "ant"
      ],
      [
        "or",
        "ch"
      ],
      [
        "or",
        "ies"
      ],
      [
        "es",
        "hi"
      ],
      [
        "es",
        "ides"
      ],
      [
        "ar",
        "act"
      ],
      [
        "ar",
        "my"
      ],
      [
        "it",
        "or"
      ],
      [
        "it",
        "ch"
      ],
      [
        "it",
        "able"
      ],
      [
        "at",
        "ch"
      ],
      [
        "as",
        "su"
      ],
      [
        "as",
        "hi"
      ],
      [
        "to",
        "ld"
      ],
      [
        "re",
        "v"
      ],
      [
        "re",
        "ed"
      ],
      [
        "re",
        "qu"
      ],
      [
        "re",
        "tain"
      ],
      [
        "re",
        "ve"
      ],
      [
        "re",
        "ject"
      ],
      [
        "re",
        "ady"
      ],
      [
        "le",
        "t"
      ],
      [
        "ing",
        "ly"
      ],
      [
        "me",
        "chan"
      ],
      [
        "me",
        "aning"
      ],
      [
        "ou",
        "th"
      ],
      [
        "ic",
        "k"
      ],
      [
        "ic",
        "ular"
      ],
      [
        "st",
        "and"
      ],
      [
        "st",
        "art"
      ],
      [
        "st",
        "ated"
      ],
      [
        "st",
        "yle"
      ],
      [
        "ent",
        "er"
      ],
      [
        "ro",
        "pan"
      ],
      [
        "ch",
        "ance"
      ],
      [
        "ch",
        "ise"
      ],
      [
        "ga",
        "ming"
      ],
      [
        "ga",
        "ined"
      ],
      [
        "ri",
        "ed"
      ],
      [
        "for",
        "ms"
      ],
      [
        "for",
        "ced"
      ],
      [
        "for",
        "ces"
      ],
      [
        "he",
        "avy"
      ],
      [
        "il",
        "ar"
      ],
      [
        "il",
        "ities"
      ],
      [
        "be",
        "com"
      ],
      [
        "ur",
        "g"
      ],
      [
        "ur",
        "es"
      ],
      [
        "se",
        "em"
      ],
      [
        "se",
        "cre"
      ],
      [
        "se",
        "cond"
      ],
      [
        "se",
        "par"
      ],
      [
        "all",
        "ow"
      ],
      [
        "Valky",
        "ir"
      ],
      [
        "ith",
        "s"
      ],
      [
        "pl",
        "ans"
      ],
      [
        "pl",
        "aced"
      ],
      [
        "pl",
        "anned"
      ],
      [
        "Valkyri",
        "an"
      ],
      [
        "de",
        "ter"
      ],
      [
        "de",
        "mand"
      ],
      [
        "de",
        "posit"
      ],
      [
        "de",
        "pen"
      ],
      [
        "de",
        "pot"
      ],
      [
        "ir",
        "on"
      ],
      [
        "ir",
        "ed"
      ],
      [
        "op",
        "ers"
      ],
      [
        "su",
        "per"
      ],
      [
        "su",
        "cc"
      ],
      [
        "su",
        "mmer"
      ],
      [
        "iv",
        "es"
      ],
      [
        "iv",
        "idu"
      ],
      [
        "ab",
        "ly"
      ],
      [
        "con",
        "ne"
      ],
      [
        "con",
        "si"
      ],
      [
        "con",
        "ver"
      ],
      [
        "con",
        "cept"
      ],
      [
        "con",
        "sis"
      ],
      [
        "con",
        "sequ"
      ],
      [
        "Ch",
        "aract"
      ],
      [
        "im",
        "press"
      ],
      [
        "ly",
        "rics"
      ],
      [
        "com",
        "ing"
      ],
      [
        "com",
        "men"
      ],
      [
        "com",
        "mon"
      ],
      [
        "com",
        "pan"
      ],
      [
        "ow",
        "ned"
      ],
      [
        "pro",
        "ble"
      ],
      [
        "pro",
        "cur"
      ],
      [
        "char",
        "tr"
      ],
      [
        "der",
        "n"
      ],
      [
        "der",
        "ed"
      ],
      [
        "ak",
        "i"
      ],
      [
        "ne",
        "ar"
      ],
      [
        "ne",
        "cess"
      ],
      [
        "ne",
        "xt"
      ],
      [
        "eri",
        "or"
      ],
      [
        "qu",
        "art"
      ],
      [
        "qu",
        "ality"
      ],
      [
        "ut",
        "enant"
      ],
      [
        "18",
        "40"
      ],
      [
        "est",
        "ra"
      ],
      [
        "ex",
        "c"
      ],
      [
        "ex",
        "ten"
      ],
      [
        "ex",
        "cept"
      ],
      [
        "if",
        "t"
      ],
      [
        "if",
        "ied"
      ],
      [
        "ul",
        "tim"
      ],
      [
        "we",
        "bsite"
      ],
      [
        "av",
        "al"
      ],
      [
        "hi",
        "ro"
      ],
      [
        "hi",
        "ko"
      ],
      [
        "pos",
        "ed"
      ],
      [
        "pos",
        "ition"
      ],
      [
        "des",
        "per"
      ],
      [
        "ord",
        "ing"
      ],
      [
        "201",
        "4"
      ],
      [
        "ac",
        "coun"
      ],
      [
        "ac",
        "cused"
      ],
      [
        "ach",
        "ed"
      ],
      [
        "ess",
        "ful"
      ],
      [
        "lo",
        "wer"
      ],
      [
        "lo",
        "cated"
      ],
      [
        "sp",
        "ir"
      ],
      [
        "sp",
        "ee"
      ],
      [
        "sp",
        "ikes"
      ],
      [
        "velop",
        "ment"
      ],
      [
        "man",
        "ga"
      ],
      [
        "not",
        "ed"
      ],
      [
        "not",
        "ing"
      ],
      [
        "sh",
        "ould"
      ],
      [
        "sh",
        "ort"
      ],
      [
        "sh",
        "ift"
      ],
      [
        "si",
        "z"
      ],
      [
        "mo",
        "dern"
      ],
      [
        "ong",
        "side"
      ],
      [
        "186",
        "0"
      ],
      [
        "rit",
        "ory"
      ],
      [
        "ction",
        "s"
      ],
      [
        "ill",
        "ery"
      ],
      [
        "previous",
        "ly"
      ],
      [
        "Se",
        "pt"
      ],
      [
        "Se",
        "ik"
      ],
      [
        "au",
        "se"
      ],
      [
        "gr",
        "am"
      ],
      [
        "gr",
        "ant"
      ],
      [
        "inst",
        "ead"
      ],
      [
        "In",
        "fantry"
      ],
      [
        "aw",
        "ay"
      ],
      [
        "part",
        "ment"
      ],
      [
        "part",
        "ially"
      ],
      [
        "part",
        "icular"
      ],
      [
        "form",
        "al"
      ],
      [
        "cre",
        "ate"
      ],
      [
        "cre",
        "ated"
      ],
      [
        "lin",
        "ear"
      ],
      [
        "lis",
        "ted"
      ],
      [
        "war",
        "d"
      ],
      [
        "through",
        "out"
      ],
      [
        "ass",
        "igned"
      ],
      [
        "new",
        "s"
      ],
      [
        "M18",
        "1"
      ],
      [
        "ag",
        "reed"
      ],
      [
        "other",
        "wise"
      ],
      [
        "offic",
        "er"
      ],
      [
        "offic",
        "ers"
      ],
      [
        "offic",
        "ially"
      ],
      [
        "rec",
        "ycl"
      ],
      [
        "bl",
        "ed"
      ],
      [
        "bl",
        "ack"
      ],
      [
        "ces",
        "sion"
      ],
      [
        "command",
        "er"
      ],
      [
        "Ma",
        "j"
      ],
      [
        "Ma",
        "xim"
      ],
      [
        "up",
        "on"
      ],
      [
        "ind",
        "ividu"
      ],
      [
        "retur",
        "ning"
      ],
      [
        "some",
        "thing"
      ],
      [
        "car",
        "ry"
      ],
      [
        "car",
        "ried"
      ],
      [
        "fe",
        "eling"
      ],
      [
        "hand",
        "s"
      ],
      [
        "hand",
        "led"
      ],
      [
        "ie",
        "utenant"
      ],
      [
        "kn",
        "ow"
      ],
      [
        "pp",
        "ed"
      ],
      [
        "pat",
        "ible"
      ],
      [
        "sm",
        "iths"
      ],
      [
        "vol",
        "u"
      ],
      [
        "enj",
        "oy"
      ],
      [
        "att",
        "ached"
      ],
      [
        "Th",
        "ere"
      ],
      [
        "den",
        "ce"
      ],
      [
        "lat",
        "ter"
      ],
      [
        "labor",
        "ers"
      ],
      [
        "labor",
        "atory"
      ],
      [
        "pe",
        "ople"
      ],
      [
        "pen",
        "al"
      ],
      [
        "ran",
        "ks"
      ],
      [
        "sy",
        "nthe"
      ],
      [
        "sim",
        "ply"
      ],
      [
        "sim",
        "ilar"
      ],
      [
        "inter",
        "view"
      ],
      [
        "ari",
        "o"
      ],
      [
        "repair",
        "ed"
      ],
      [
        "issu",
        "ed"
      ],
      [
        "mem",
        "ber"
      ],
      [
        "rif",
        "le"
      ],
      [
        "activ",
        "ate"
      ],
      [
        "activ",
        "ities"
      ],
      [
        "tra",
        "itor"
      ],
      [
        "Al",
        "ongside"
      ],
      [
        "event",
        "ually"
      ],
      [
        "num",
        "bers"
      ],
      [
        "pur",
        "pose"
      ],
      [
        "pect",
        "ive"
      ],
      [
        "ser",
        "ving"
      ],
      [
        "sing",
        "er"
      ],
      [
        "sing",
        "le"
      ],
      [
        "ask",
        "ing"
      ],
      [
        "refer",
        "en"
      ],
      [
        "constru",
        "ction"
      ],
      [
        "compos",
        "er"
      ],
      [
        "produ",
        "ction"
      ],
      [
        "spec",
        "ial"
      ],
      [
        "spec",
        "ific"
      ],
      [
        "shot",
        "guns"
      ],
      [
        "author",
        "ity"
      ],
      [
        "author",
        "ities"
      ],
      [
        "class",
        "es"
      ],
      [
        "graph",
        "ics"
      ],
      [
        "muske",
        "t"
      ],
      [
        "muske",
        "ts"
      ],
      [
        "record",
        "s"
      ],
      [
        "flintlock",
        "s"
      ],
      [
        "De",
        "velopment"
      ],
      [
        "De",
        "partment"
      ],
      [
        "Po",
        "in"
      ],
      [
        "Tak",
        "eshi"
      ],
      [
        "bin",
        "ka"
      ],
      [
        "dis",
        "tr"
      ],
      [
        "dis",
        "patch"
      ],
      [
        "dut",
        "y"
      ],
      [
        "dut",
        "ies"
      ],
      [
        "dist",
        "ribut"
      ],
      [
        "gen",
        "eral"
      ],
      [
        "ra",
        "ther"
      ],
      [
        "west",
        "ern"
      ],
      [
        "xim",
        "ately"
      ],
      [
        "ang",
        "ing"
      ],
      [
        "stor",
        "es"
      ],
      [
        "adap",
        "ted"
      ],
      [
        "appro",
        "ximately"
      ],
      [
        "sev",
        "en"
      ],
      [
        "sev",
        "eral"
      ],
      [
        "sup",
        "ply"
      ],
      [
        "perform",
        "ed"
      ],
      [
        "buil",
        "t"
      ],
      [
        "scen",
        "ario"
      ],
      [
        "respon",
        "se"
      ],
      [
        "assem",
        "ble"
      ],
      [
        "assem",
        "bled"
      ],
      [
        "predecessor",
        "s"
      ],
      [
        "Com",
        "mand"
      ],
      [
        "Ku",
        "binka"
      ],
      [
        "Mil",
        "itary"
      ],
      [
        "Or",
        "dnance"
      ],
      [
        "PS",
        "N"
      ],
      [
        "Rif",
        "les"
      ],
      [
        "div",
        "ided"
      ],
      [
        "ef",
        "for"
      ],
      [
        "equ",
        "ip"
      ],
      [
        "fel",
        "t"
      ],
      [
        "gre",
        "at"
      ],
      [
        "vis",
        "u"
      ],
      [
        "inten",
        "ded"
      ],
      [
        "anim",
        "ation"
      ],
      [
        "aspect",
        "s"
      ],
      [
        "adjust",
        "ed"
      ],
      [
        "appear",
        "ances"
      ],
      [
        "prot",
        "ect"
      ],
      [
        "employ",
        "ed"
      ],
      [
        "rumor",
        "s"
      ],
      [
        "local",
        "ized"
      ],
      [
        "Regi",
        "ments"
      ],
      [
        "illustr",
        "ated"
      ],
      [
        "instru",
        "ments"
      ],
      [
        "scri",
        "pt"
      ],
      [
        "begin",
        "ning"
      ],
      [
        "download",
        "able"
      ],
      [
        "transl",
        "ation"
      ],
      [
        "transfer",
        "red"
      ],
      [
        "Fuji",
        "i"
      ],
      [
        "critic",
        "is"
      ],
      [
        "episo",
        "des"
      ],
      [
        "Acc",
        "ording"
      ],
      [
        "Amer",
        "ic"
      ],
      [
        "Cro",
        "we"
      ],
      [
        "Civ",
        "il"
      ],
      [
        "Cam",
        "den"
      ],
      [
        "Eu",
        "ropan"
      ],
      [
        "Fam",
        "itsu"
      ],
      [
        "Han",
        "a"
      ],
      [
        "Hit",
        "oshi"
      ],
      [
        "Hist",
        "ory"
      ],
      [
        "Pon",
        "chartr"
      ],
      [
        "Riv",
        "er"
      ],
      [
        "Rait",
        "a"
      ],
      [
        "Sm",
        "ith"
      ],
      [
        "bay",
        "ashi"
      ],
      [
        "civ",
        "ilian"
      ],
      [
        "dr",
        "aw"
      ],
      [
        "dar",
        "ker"
      ],
      [
        "dam",
        "aged"
      ],
      [
        "fem",
        "ale"
      ],
      [
        "fran",
        "chise"
      ],
      [
        "giv",
        "ing"
      ],
      [
        "hou",
        "se"
      ],
      [
        "hap",
        "pen"
      ],
      [
        "mu",
        "ch"
      ],
      [
        "must",
        "ered"
      ],
      [
        "mason",
        "ry"
      ],
      [
        "pap",
        "er"
      ],
      [
        "pop",
        "ular"
      ],
      [
        "poun",
        "der"
      ],
      [
        "port",
        "ion"
      ],
      [
        "round",
        "s"
      ],
      [
        "sit",
        "u"
      ],
      [
        "spre",
        "ad"
      ],
      [
        "tit",
        "le"
      ],
      [
        "vari",
        "ous"
      ],
      [
        "voic",
        "ed"
      ],
      [
        "initi",
        "ally"
      ],
      [
        "incre",
        "ased"
      ],
      [
        "orch",
        "estra"
      ],
      [
        "assu",
        "med"
      ],
      [
        "reject",
        "ed"
      ],
      [
        "mechan",
        "ics"
      ],
      [
        "becom",
        "es"
      ],
      [
        "secre",
        "t"
      ],
      [
        "separ",
        "ate"
      ],
      [
        "allow",
        "ed"
      ],
      [
        "Valkyir",
        "a"
      ],
      [
        "succ",
        "essful"
      ],
      [
        "conne",
        "ction"
      ],
      [
        "consis",
        "ted"
      ],
      [
        "commen",
        "ced"
      ],
      [
        "procur",
        "ed"
      ],
      [
        "necess",
        "ary"
      ],
      [
        "quart",
        "ers"
      ],
      [
        "accoun",
        "t"
      ],
      [
        "spee",
        "ch"
      ],
      [
        "Sept",
        "ember"
      ],
      [
        "recycl",
        "ed"
      ],
      [
        "Maxim",
        "ilian"
      ],
      [
        "carry",
        "ing"
      ],
      [
        "synthe",
        "siz"
      ],
      [
        "equip",
        "ment"
      ],
      [
        "Ponchartr",
        "ain"
      ],
      [
        ".",
        "@"
      ],
      [
        "1",
        "2"
      ],
      [
        "1",
        "st"
      ],
      [
        "1",
        "25"
      ],
      [
        "2",
        "3"
      ],
      [
        "2",
        "7"
      ],
      [
        "2",
        "8"
      ],
      [
        "2",
        "9"
      ],
      [
        "2",
        "00"
      ],
      [
        "2",
        "75"
      ],
      [
        "3",
        "0"
      ],
      [
        "3",
        "5"
      ],
      [
        "3",
        "D"
      ],
      [
        "3",
        "r"
      ],
      [
        "3",
        "64"
      ],
      [
        "4",
        "1"
      ],
      [
        "4",
        "G"
      ],
      [
        "4",
        "th"
      ],
      [
        "5",
        "3"
      ],
      [
        "5",
        "4"
      ],
      [
        "5",
        "5"
      ],
      [
        "5",
        "8"
      ],
      [
        "5",
        "th"
      ],
      [
        "5",
        "20"
      ],
      [
        "6",
        "th"
      ],
      [
        "6",
        "00"
      ],
      [
        "6",
        "25"
      ],
      [
        "7",
        "7"
      ],
      [
        "7",
        "th"
      ],
      [
        "8",
        "th"
      ],
      [
        "8",
        "64"
      ],
      [
        "9",
        "1"
      ],
      [
        "9",
        "4"
      ],
      [
        "9",
        "7"
      ],
      [
        "9",
        "00"
      ],
      [
        "9",
        "600"
      ],
      [
        "@",
        ".@"
      ],
      [
        "A",
        "I"
      ],
      [
        "A",
        "N"
      ],
      [
        "A",
        "S"
      ],
      [
        "A",
        "d"
      ],
      [
        "A",
        "t"
      ],
      [
        "A",
        "ce"
      ],
      [
        "B",
        "I"
      ],
      [
        "B",
        "e"
      ],
      [
        "B",
        "lo"
      ],
      [
        "B",
        "att"
      ],
      [
        "B",
        "Li"
      ],
      [
        "B",
        "esides"
      ],
      [
        "C",
        "l"
      ],
      [
        "C",
        "ri"
      ],
      [
        "C",
        "aval"
      ],
      [
        "C",
        "AN"
      ],
      [
        "D",
        "V"
      ],
      [
        "D",
        "is"
      ],
      [
        "D",
        "oug"
      ],
      [
        "D",
        "one"
      ],
      [
        "D",
        "ire"
      ],
      [
        "D",
        "enge"
      ],
      [
        "E",
        "m"
      ],
      [
        "E",
        "ar"
      ],
      [
        "E",
        "is"
      ],
      [
        "F",
        "a"
      ],
      [
        "F",
        "ay"
      ],
      [
        "F",
        "ate"
      ],
      [
        "F",
        "low"
      ],
      [
        "F",
        "aced"
      ],
      [
        "F",
        "las"
      ],
      [
        "F",
        "itch"
      ],
      [
        "F",
        "lower"
      ],
      [
        "G",
        "N"
      ],
      [
        "G",
        "ed"
      ],
      [
        "G",
        "re"
      ],
      [
        "G",
        "un"
      ],
      [
        "G",
        "us"
      ],
      [
        "G",
        "au"
      ],
      [
        "G",
        "az"
      ],
      [
        "H",
        "I"
      ],
      [
        "H",
        "P"
      ],
      [
        "H",
        "en"
      ],
      [
        "H",
        "is"
      ],
      [
        "H",
        "ound"
      ],
      [
        "H",
        "ik"
      ],
      [
        "I",
        "V"
      ],
      [
        "I",
        "f"
      ],
      [
        "I",
        "k"
      ],
      [
        "I",
        "r"
      ],
      [
        "I",
        "GN"
      ],
      [
        "J",
        "ū"
      ],
      [
        "J",
        "acks"
      ],
      [
        "K",
        "on"
      ],
      [
        "K",
        "is"
      ],
      [
        "K",
        "ad"
      ],
      [
        "K",
        "el"
      ],
      [
        "K",
        "ot"
      ],
      [
        "K",
        "im"
      ],
      [
        "K",
        "oic"
      ],
      [
        "K",
        "az"
      ],
      [
        "L",
        "an"
      ],
      [
        "L",
        "ock"
      ],
      [
        "L",
        "if"
      ],
      [
        "L",
        "ong"
      ],
      [
        "L",
        "ast"
      ],
      [
        "L",
        "inc"
      ],
      [
        "L",
        "abor"
      ],
      [
        "L",
        "ee"
      ],
      [
        "L",
        "ike"
      ],
      [
        "L",
        "ead"
      ],
      [
        "L",
        "ega"
      ],
      [
        "L",
        "ieutenant"
      ],
      [
        "M",
        "O"
      ],
      [
        "M",
        "i"
      ],
      [
        "M",
        "in"
      ],
      [
        "M",
        "ur"
      ],
      [
        "M",
        "us"
      ],
      [
        "M",
        "em"
      ],
      [
        "M",
        "oun"
      ],
      [
        "M",
        "aga"
      ],
      [
        "M",
        "iz"
      ],
      [
        "M",
        "ast"
      ],
      [
        "M",
        "arc"
      ],
      [
        "M",
        "aterial"
      ],
      [
        "M",
        "ulti"
      ],
      [
        "M",
        "asse"
      ],
      [
        "M",
        "achinery"
      ],
      [
        "M",
        "arch"
      ],
      [
        "M",
        "itsu"
      ],
      [
        "N",
        "ar"
      ],
      [
        "N",
        "ap"
      ],
      [
        "N",
        "ot"
      ],
      [
        "N",
        "am"
      ],
      [
        "N",
        "ow"
      ],
      [
        "N",
        "aga"
      ],
      [
        "N",
        "et"
      ],
      [
        "N",
        "inten"
      ],
      [
        "N",
        "ega"
      ],
      [
        "O",
        "h"
      ],
      [
        "O",
        "k"
      ],
      [
        "O",
        "u"
      ],
      [
        "O",
        "to"
      ],
      [
        "O",
        "ri"
      ],
      [
        "O",
        "ne"
      ],
      [
        "O",
        "ut"
      ],
      [
        "O",
        "ath"
      ],
      [
        "O",
        "MO"
      ],
      [
        "P",
        "e"
      ],
      [
        "P",
        "er"
      ],
      [
        "P",
        "ar"
      ],
      [
        "P",
        "ic"
      ],
      [
        "P",
        "ers"
      ],
      [
        "P",
        "art"
      ],
      [
        "P",
        "ac"
      ],
      [
        "P",
        "ack"
      ],
      [
        "P",
        "res"
      ],
      [
        "Q",
        "ri"
      ],
      [
        "R",
        "y"
      ],
      [
        "R",
        "and"
      ],
      [
        "R",
        "am"
      ],
      [
        "R",
        "ust"
      ],
      [
        "R",
        "ich"
      ],
      [
        "S",
        "c"
      ],
      [
        "S",
        "p"
      ],
      [
        "S",
        "an"
      ],
      [
        "S",
        "om"
      ],
      [
        "S",
        "ate"
      ],
      [
        "S",
        "um"
      ],
      [
        "S",
        "ake"
      ],
      [
        "S",
        "ome"
      ],
      [
        "S",
        "pe"
      ],
      [
        "S",
        "old"
      ],
      [
        "S",
        "ince"
      ],
      [
        "S",
        "outh"
      ],
      [
        "S",
        "HI"
      ],
      [
        "T",
        "r"
      ],
      [
        "T",
        "er"
      ],
      [
        "T",
        "an"
      ],
      [
        "T",
        "it"
      ],
      [
        "T",
        "su"
      ],
      [
        "T",
        "om"
      ],
      [
        "T",
        "ame"
      ],
      [
        "T",
        "est"
      ],
      [
        "T",
        "able"
      ],
      [
        "T",
        "ele"
      ],
      [
        "T",
        "aga"
      ],
      [
        "T",
        "reason"
      ],
      [
        "T",
        "OMO"
      ],
      [
        "U",
        "K"
      ],
      [
        "U",
        "S"
      ],
      [
        "U",
        "p"
      ],
      [
        "V",
        "ic"
      ],
      [
        "V",
        "ol"
      ],
      [
        "V",
        "AS"
      ],
      [
        "W",
        "i"
      ],
      [
        "W",
        "al"
      ],
      [
        "W",
        "est"
      ],
      [
        "W",
        "ound"
      ],
      [
        "W",
        "ill"
      ],
      [
        "W",
        "ish"
      ],
      [
        "W",
        "atch"
      ],
      [
        "Y",
        "ou"
      ],
      [
        "Y",
        "am"
      ],
      [
        "Z",
        "one"
      ],
      [
        "a",
        "i"
      ],
      [
        "a",
        "us"
      ],
      [
        "a",
        "ust"
      ],
      [
        "b",
        "b"
      ],
      [
        "b",
        "i"
      ],
      [
        "b",
        "r"
      ],
      [
        "b",
        "on"
      ],
      [
        "b",
        "al"
      ],
      [
        "b",
        "en"
      ],
      [
        "b",
        "at"
      ],
      [
        "b",
        "ir"
      ],
      [
        "b",
        "ron"
      ],
      [
        "b",
        "ul"
      ],
      [
        "b",
        "ass"
      ],
      [
        "b",
        "ility"
      ],
      [
        "b",
        "esides"
      ],
      [
        "b",
        "urg"
      ],
      [
        "b",
        "ably"
      ],
      [
        "c",
        "o"
      ],
      [
        "c",
        "u"
      ],
      [
        "c",
        "or"
      ],
      [
        "c",
        "it"
      ],
      [
        "c",
        "ent"
      ],
      [
        "c",
        "ro"
      ],
      [
        "c",
        "ri"
      ],
      [
        "c",
        "ers"
      ],
      [
        "c",
        "op"
      ],
      [
        "c",
        "ation"
      ],
      [
        "c",
        "ut"
      ],
      [
        "c",
        "ame"
      ],
      [
        "c",
        "ru"
      ],
      [
        "c",
        "ord"
      ],
      [
        "c",
        "lo"
      ],
      [
        "c",
        "ial"
      ],
      [
        "c",
        "ome"
      ],
      [
        "c",
        "end"
      ],
      [
        "c",
        "ris"
      ],
      [
        "c",
        "ause"
      ],
      [
        "d",
        "y"
      ],
      [
        "d",
        "ō"
      ],
      [
        "d",
        "on"
      ],
      [
        "d",
        "at"
      ],
      [
        "d",
        "ge"
      ],
      [
        "d",
        "id"
      ],
      [
        "d",
        "ian"
      ],
      [
        "d",
        "ict"
      ],
      [
        "e",
        "y"
      ],
      [
        "e",
        "ch"
      ],
      [
        "e",
        "em"
      ],
      [
        "e",
        "vi"
      ],
      [
        "e",
        "fact"
      ],
      [
        "e",
        "ast"
      ],
      [
        "e",
        "ks"
      ],
      [
        "e",
        "aking"
      ],
      [
        "e",
        "ful"
      ],
      [
        "e",
        "ase"
      ],
      [
        "e",
        "ither"
      ],
      [
        "f",
        "re"
      ],
      [
        "f",
        "un"
      ],
      [
        "f",
        "ur"
      ],
      [
        "f",
        "ers"
      ],
      [
        "f",
        "us"
      ],
      [
        "f",
        "ut"
      ],
      [
        "f",
        "ect"
      ],
      [
        "f",
        "ear"
      ],
      [
        "f",
        "ough"
      ],
      [
        "f",
        "ire"
      ],
      [
        "f",
        "ant"
      ],
      [
        "f",
        "ace"
      ],
      [
        "f",
        "ine"
      ],
      [
        "f",
        "als"
      ],
      [
        "f",
        "ell"
      ],
      [
        "f",
        "ected"
      ],
      [
        "f",
        "aced"
      ],
      [
        "g",
        "th"
      ],
      [
        "g",
        "in"
      ],
      [
        "g",
        "on"
      ],
      [
        "g",
        "ed"
      ],
      [
        "g",
        "at"
      ],
      [
        "g",
        "ri"
      ],
      [
        "g",
        "ur"
      ],
      [
        "g",
        "ments"
      ],
      [
        "g",
        "rid"
      ],
      [
        "g",
        "lish"
      ],
      [
        "g",
        "ular"
      ],
      [
        "h",
        "y"
      ],
      [
        "h",
        "in"
      ],
      [
        "h",
        "al"
      ],
      [
        "h",
        "or"
      ],
      [
        "h",
        "icles"
      ],
      [
        "h",
        "ous"
      ],
      [
        "h",
        "ind"
      ],
      [
        "h",
        "aps"
      ],
      [
        "h",
        "aust"
      ],
      [
        "i",
        "er"
      ],
      [
        "i",
        "ent"
      ],
      [
        "i",
        "ment"
      ],
      [
        "i",
        "ber"
      ],
      [
        "i",
        "ple"
      ],
      [
        "i",
        "ability"
      ],
      [
        "i",
        "TZ"
      ],
      [
        "j",
        "in"
      ],
      [
        "j",
        "is"
      ],
      [
        "j",
        "un"
      ],
      [
        "j",
        "ock"
      ],
      [
        "j",
        "our"
      ],
      [
        "k",
        "ir"
      ],
      [
        "k",
        "awa"
      ],
      [
        "k",
        "ward"
      ],
      [
        "l",
        "an"
      ],
      [
        "l",
        "en"
      ],
      [
        "l",
        "and"
      ],
      [
        "l",
        "ay"
      ],
      [
        "l",
        "ov"
      ],
      [
        "l",
        "if"
      ],
      [
        "l",
        "ong"
      ],
      [
        "l",
        "ive"
      ],
      [
        "l",
        "ist"
      ],
      [
        "l",
        "igh"
      ],
      [
        "l",
        "ah"
      ],
      [
        "l",
        "ived"
      ],
      [
        "l",
        "ight"
      ],
      [
        "l",
        "ances"
      ],
      [
        "l",
        "ice"
      ],
      [
        "l",
        "ives"
      ],
      [
        "l",
        "ieutenant"
      ],
      [
        "m",
        "it"
      ],
      [
        "m",
        "le"
      ],
      [
        "m",
        "ay"
      ],
      [
        "m",
        "ary"
      ],
      [
        "m",
        "ould"
      ],
      [
        "m",
        "ory"
      ],
      [
        "m",
        "ous"
      ],
      [
        "m",
        "ess"
      ],
      [
        "m",
        "use"
      ],
      [
        "m",
        "ized"
      ],
      [
        "m",
        "ine"
      ],
      [
        "n",
        "al"
      ],
      [
        "n",
        "it"
      ],
      [
        "n",
        "ov"
      ],
      [
        "n",
        "am"
      ],
      [
        "n",
        "ate"
      ],
      [
        "n",
        "oun"
      ],
      [
        "n",
        "one"
      ],
      [
        "n",
        "ations"
      ],
      [
        "n",
        "ine"
      ],
      [
        "n",
        "ances"
      ],
      [
        "n",
        "aki"
      ],
      [
        "n",
        "aval"
      ],
      [
        "o",
        "th"
      ],
      [
        "o",
        "it"
      ],
      [
        "o",
        "le"
      ],
      [
        "o",
        "ing"
      ],
      [
        "o",
        "ct"
      ],
      [
        "o",
        "il"
      ],
      [
        "o",
        "be"
      ],
      [
        "o",
        "se"
      ],
      [
        "o",
        "sen"
      ],
      [
        "o",
        "same"
      ],
      [
        "o",
        "city"
      ],
      [
        "o",
        "cated"
      ],
      [
        "o",
        "sts"
      ],
      [
        "o",
        "ines"
      ],
      [
        "o",
        "hiko"
      ],
      [
        "p",
        "ed"
      ],
      [
        "p",
        "es"
      ],
      [
        "p",
        "ay"
      ],
      [
        "p",
        "eri"
      ],
      [
        "p",
        "ut"
      ],
      [
        "p",
        "his"
      ],
      [
        "p",
        "edition"
      ],
      [
        "p",
        "otential"
      ],
      [
        "p",
        "ikes"
      ],
      [
        "p",
        "enter"
      ],
      [
        "p",
        "hy"
      ],
      [
        "r",
        "al"
      ],
      [
        "r",
        "or"
      ],
      [
        "r",
        "ing"
      ],
      [
        "r",
        "un"
      ],
      [
        "r",
        "ap"
      ],
      [
        "r",
        "out"
      ],
      [
        "r",
        "ich"
      ],
      [
        "r",
        "ant"
      ],
      [
        "r",
        "ah"
      ],
      [
        "r",
        "ace"
      ],
      [
        "r",
        "aged"
      ],
      [
        "r",
        "atch"
      ],
      [
        "s",
        "s"
      ],
      [
        "s",
        "w"
      ],
      [
        "s",
        "ō"
      ],
      [
        "s",
        "the"
      ],
      [
        "s",
        "ic"
      ],
      [
        "s",
        "pl"
      ],
      [
        "s",
        "om"
      ],
      [
        "s",
        "po"
      ],
      [
        "s",
        "had"
      ],
      [
        "s",
        "av"
      ],
      [
        "s",
        "af"
      ],
      [
        "s",
        "mo"
      ],
      [
        "s",
        "ive"
      ],
      [
        "s",
        "ke"
      ],
      [
        "s",
        "ort"
      ],
      [
        "s",
        "igned"
      ],
      [
        "s",
        "ses"
      ],
      [
        "s",
        "top"
      ],
      [
        "s",
        "aid"
      ],
      [
        "s",
        "outh"
      ],
      [
        "t",
        "a"
      ],
      [
        "t",
        "an"
      ],
      [
        "t",
        "ic"
      ],
      [
        "t",
        "ch"
      ],
      [
        "t",
        "ri"
      ],
      [
        "t",
        "em"
      ],
      [
        "t",
        "ation"
      ],
      [
        "t",
        "ition"
      ],
      [
        "t",
        "able"
      ],
      [
        "t",
        "ely"
      ],
      [
        "t",
        "ah"
      ],
      [
        "t",
        "aking"
      ],
      [
        "t",
        "arge"
      ],
      [
        "t",
        "ell"
      ],
      [
        "t",
        "reason"
      ],
      [
        "t",
        "une"
      ],
      [
        "t",
        "inct"
      ],
      [
        "t",
        "illery"
      ],
      [
        "u",
        "b"
      ],
      [
        "u",
        "x"
      ],
      [
        "u",
        "ge"
      ],
      [
        "u",
        "ms"
      ],
      [
        "u",
        "able"
      ],
      [
        "u",
        "osame"
      ],
      [
        "v",
        "al"
      ],
      [
        "v",
        "ar"
      ],
      [
        "v",
        "ic"
      ],
      [
        "v",
        "ers"
      ],
      [
        "v",
        "ant"
      ],
      [
        "v",
        "inc"
      ],
      [
        "v",
        "als"
      ],
      [
        "v",
        "ict"
      ],
      [
        "v",
        "ice"
      ],
      [
        "w",
        "n"
      ],
      [
        "w",
        "or"
      ],
      [
        "w",
        "re"
      ],
      [
        "w",
        "ent"
      ],
      [
        "w",
        "all"
      ],
      [
        "w",
        "om"
      ],
      [
        "w",
        "are"
      ],
      [
        "w",
        "id"
      ],
      [
        "w",
        "ire"
      ],
      [
        "w",
        "ant"
      ],
      [
        "w",
        "inter"
      ],
      [
        "w",
        "ait"
      ],
      [
        "w",
        "anted"
      ],
      [
        "x",
        "ed"
      ],
      [
        "x",
        "es"
      ],
      [
        "y",
        "ing"
      ],
      [
        "y",
        "am"
      ],
      [
        "y",
        "oun"
      ],
      [
        "y",
        "ag"
      ],
      [
        "y",
        "et"
      ],
      [
        "y",
        "mous"
      ],
      [
        "z",
        "e"
      ],
      [
        "z",
        "es"
      ],
      [
        "z",
        "ine"
      ],
      [
        "Æ",
        "sthe"
      ],
      [
        "Ō",
        "no"
      ],
      [
        "い",
        "つ"
      ],
      [
        "い",
        "の花"
      ],
      [
        "う",
        "の"
      ],
      [
        "か",
        "咲"
      ],
      [
        "が",
        "た"
      ],
      [
        "が",
        "願"
      ],
      [
        "き",
        "誓"
      ],
      [
        "き",
        "運"
      ],
      [
        "く",
        "光"
      ],
      [
        "し",
        "も"
      ],
      [
        "な",
        "ら"
      ],
      [
        "な",
        "き誓"
      ],
      [
        "の",
        "戦"
      ],
      [
        "の",
        "銃"
      ],
      [
        "め",
        "の銃"
      ],
      [
        "も",
        "しも"
      ],
      [
        "も",
        "なき誓"
      ],
      [
        "乙",
        "女"
      ],
      [
        "名",
        "もなき誓"
      ],
      [
        "君",
        "が願"
      ],
      [
        "命",
        "の戦"
      ],
      [
        "誰",
        "がた"
      ],
      [
        "赤",
        "き運"
      ],
      [
        "th",
        "od"
      ],
      [
        "th",
        "place"
      ],
      [
        "th",
        "ick"
      ],
      [
        "th",
        "ose"
      ],
      [
        "the",
        "less"
      ],
      [
        "in",
        "ation"
      ],
      [
        "in",
        "ity"
      ],
      [
        "in",
        "au"
      ],
      [
        "in",
        "form"
      ],
      [
        "in",
        "vol"
      ],
      [
        "in",
        "ade"
      ],
      [
        "in",
        "ji"
      ],
      [
        "in",
        "fantry"
      ],
      [
        "in",
        "vad"
      ],
      [
        "in",
        "depen"
      ],
      [
        "in",
        "nate"
      ],
      [
        "in",
        "vinc"
      ],
      [
        "er",
        "ous"
      ],
      [
        "er",
        "ally"
      ],
      [
        "er",
        "ating"
      ],
      [
        "er",
        "ks"
      ],
      [
        "er",
        "ased"
      ],
      [
        "er",
        "gen"
      ],
      [
        "er",
        "ase"
      ],
      [
        "er",
        "ters"
      ],
      [
        "er",
        "ror"
      ],
      [
        "an",
        "on"
      ],
      [
        "an",
        "ti"
      ],
      [
        "an",
        "no"
      ],
      [
        "an",
        "other"
      ],
      [
        "an",
        "ew"
      ],
      [
        "an",
        "ci"
      ],
      [
        "an",
        "noun"
      ],
      [
        "an",
        "obe"
      ],
      [
        "on",
        "el"
      ],
      [
        "on",
        "ality"
      ],
      [
        "on",
        "ists"
      ],
      [
        "on",
        "erating"
      ],
      [
        "ed",
        "ay"
      ],
      [
        "al",
        "th"
      ],
      [
        "al",
        "le"
      ],
      [
        "al",
        "ion"
      ],
      [
        "al",
        "ter"
      ],
      [
        "al",
        "ive"
      ],
      [
        "al",
        "most"
      ],
      [
        "al",
        "leg"
      ],
      [
        "al",
        "ways"
      ],
      [
        "al",
        "ready"
      ],
      [
        "en",
        "ga"
      ],
      [
        "en",
        "be"
      ],
      [
        "en",
        "se"
      ],
      [
        "en",
        "ces"
      ],
      [
        "en",
        "gine"
      ],
      [
        "en",
        "listed"
      ],
      [
        "en",
        "ligh"
      ],
      [
        "en",
        "raged"
      ],
      [
        "or",
        "ne"
      ],
      [
        "or",
        "ian"
      ],
      [
        "or",
        "ced"
      ],
      [
        "or",
        "ied"
      ],
      [
        "es",
        "cor"
      ],
      [
        "ar",
        "n"
      ],
      [
        "ar",
        "ed"
      ],
      [
        "ar",
        "ri"
      ],
      [
        "ar",
        "ant"
      ],
      [
        "ar",
        "ded"
      ],
      [
        "ar",
        "ran"
      ],
      [
        "ar",
        "ma"
      ],
      [
        "ar",
        "rest"
      ],
      [
        "ar",
        "mory"
      ],
      [
        "it",
        "a"
      ],
      [
        "it",
        "em"
      ],
      [
        "it",
        "ut"
      ],
      [
        "it",
        "ations"
      ],
      [
        "at",
        "s"
      ],
      [
        "at",
        "y"
      ],
      [
        "at",
        "tr"
      ],
      [
        "at",
        "ten"
      ],
      [
        "at",
        "ive"
      ],
      [
        "at",
        "onality"
      ],
      [
        "at",
        "orian"
      ],
      [
        "as",
        "y"
      ],
      [
        "as",
        "er"
      ],
      [
        "as",
        "es"
      ],
      [
        "as",
        "ion"
      ],
      [
        "of",
        "ound"
      ],
      [
        "of",
        "fer"
      ],
      [
        "to",
        "o"
      ],
      [
        "to",
        "on"
      ],
      [
        "to",
        "wer"
      ],
      [
        "to",
        "ward"
      ],
      [
        "to",
        "pped"
      ],
      [
        "to",
        "mized"
      ],
      [
        "to",
        "wn"
      ],
      [
        "to",
        "yam"
      ],
      [
        "re",
        "ass"
      ],
      [
        "re",
        "pe"
      ],
      [
        "re",
        "por"
      ],
      [
        "re",
        "activ"
      ],
      [
        "re",
        "ality"
      ],
      [
        "re",
        "volution"
      ],
      [
        "re",
        "gre"
      ],
      [
        "re",
        "played"
      ],
      [
        "re",
        "view"
      ],
      [
        "re",
        "present"
      ],
      [
        "re",
        "gained"
      ],
      [
        "re",
        "fine"
      ],
      [
        "and",
        "ons"
      ],
      [
        "le",
        "av"
      ],
      [
        "le",
        "ction"
      ],
      [
        "le",
        "arn"
      ],
      [
        "is",
        "ing"
      ],
      [
        "is",
        "ter"
      ],
      [
        "is",
        "lat"
      ],
      [
        "me",
        "i"
      ],
      [
        "me",
        "t"
      ],
      [
        "me",
        "al"
      ],
      [
        "me",
        "thod"
      ],
      [
        "ou",
        "ji"
      ],
      [
        "ic",
        "le"
      ],
      [
        "ic",
        "ines"
      ],
      [
        "ion",
        "s"
      ],
      [
        "st",
        "ri"
      ],
      [
        "st",
        "ay"
      ],
      [
        "st",
        "ron"
      ],
      [
        "st",
        "eri"
      ],
      [
        "st",
        "one"
      ],
      [
        "st",
        "af"
      ],
      [
        "st",
        "ill"
      ],
      [
        "st",
        "anti"
      ],
      [
        "st",
        "ats"
      ],
      [
        "ent",
        "s"
      ],
      [
        "ent",
        "ri"
      ],
      [
        "ent",
        "ly"
      ],
      [
        "ent",
        "ire"
      ],
      [
        "ent",
        "ry"
      ],
      [
        "ent",
        "ially"
      ],
      [
        "ent",
        "ertain"
      ],
      [
        "ro",
        "shi"
      ],
      [
        "ch",
        "em"
      ],
      [
        "ch",
        "anging"
      ],
      [
        "ch",
        "osen"
      ],
      [
        "ga",
        "ther"
      ],
      [
        "ga",
        "ve"
      ],
      [
        "ga",
        "uge"
      ],
      [
        "ri",
        "ver"
      ],
      [
        "ri",
        "bayashi"
      ],
      [
        "ri",
        "vals"
      ],
      [
        "for",
        "d"
      ],
      [
        "for",
        "em"
      ],
      [
        "for",
        "giving"
      ],
      [
        "he",
        "ment"
      ],
      [
        "he",
        "ard"
      ],
      [
        "he",
        "alth"
      ],
      [
        "ad",
        "ually"
      ],
      [
        "ad",
        "vant"
      ],
      [
        "el",
        "s"
      ],
      [
        "el",
        "er"
      ],
      [
        "el",
        "se"
      ],
      [
        "el",
        "lis"
      ],
      [
        "el",
        "ons"
      ],
      [
        "el",
        "aps"
      ],
      [
        "il",
        "a"
      ],
      [
        "il",
        "t"
      ],
      [
        "il",
        "ia"
      ],
      [
        "un",
        "o"
      ],
      [
        "un",
        "con"
      ],
      [
        "un",
        "less"
      ],
      [
        "un",
        "official"
      ],
      [
        "un",
        "know"
      ],
      [
        "un",
        "popular"
      ],
      [
        "un",
        "voiced"
      ],
      [
        "un",
        "alter"
      ],
      [
        "be",
        "hind"
      ],
      [
        "ap",
        "ter"
      ],
      [
        "ap",
        "pe"
      ],
      [
        "ap",
        "ply"
      ],
      [
        "ap",
        "tations"
      ],
      [
        "ur",
        "s"
      ],
      [
        "ur",
        "ed"
      ],
      [
        "ur",
        "al"
      ],
      [
        "ur",
        "sion"
      ],
      [
        "ur",
        "ring"
      ],
      [
        "se",
        "t"
      ],
      [
        "se",
        "y"
      ],
      [
        "se",
        "iz"
      ],
      [
        "se",
        "ver"
      ],
      [
        "se",
        "cur"
      ],
      [
        "se",
        "tting"
      ],
      [
        "se",
        "aled"
      ],
      [
        "se",
        "cession"
      ],
      [
        "se",
        "eks"
      ],
      [
        "se",
        "gments"
      ],
      [
        "ay",
        "uki"
      ],
      [
        "ky",
        "o"
      ],
      [
        "all",
        "ed"
      ],
      [
        "all",
        "ation"
      ],
      [
        "all",
        "ies"
      ],
      [
        "all",
        "ocated"
      ],
      [
        "ce",
        "ived"
      ],
      [
        "ce",
        "ase"
      ],
      [
        "ck",
        "ing"
      ],
      [
        "pl",
        "acing"
      ],
      [
        "pl",
        "ified"
      ],
      [
        "pl",
        "aus"
      ],
      [
        "pl",
        "oit"
      ],
      [
        "Valkyri",
        "e"
      ],
      [
        "Ar",
        "mor"
      ],
      [
        "Ar",
        "tillery"
      ],
      [
        "de",
        "es"
      ],
      [
        "de",
        "com"
      ],
      [
        "de",
        "em"
      ],
      [
        "de",
        "ple"
      ],
      [
        "de",
        "feat"
      ],
      [
        "de",
        "leg"
      ],
      [
        "de",
        "fect"
      ],
      [
        "ir",
        "ty"
      ],
      [
        "op",
        "e"
      ],
      [
        "op",
        "tion"
      ],
      [
        "with",
        "out"
      ],
      [
        "with",
        "draw"
      ],
      [
        "su",
        "s"
      ],
      [
        "su",
        "re"
      ],
      [
        "su",
        "pre"
      ],
      [
        "su",
        "pp"
      ],
      [
        "su",
        "ka"
      ],
      [
        "su",
        "itable"
      ],
      [
        "iv",
        "ery"
      ],
      [
        "om",
        "a"
      ],
      [
        "om",
        "as"
      ],
      [
        "ab",
        "ilities"
      ],
      [
        "ab",
        "andons"
      ],
      [
        "con",
        "sen"
      ],
      [
        "con",
        "qu"
      ],
      [
        "con",
        "fron"
      ],
      [
        "con",
        "scri"
      ],
      [
        "con",
        "fl"
      ],
      [
        "sen",
        "d"
      ],
      [
        "Ch",
        "ik"
      ],
      [
        "Ch",
        "anging"
      ],
      [
        "Ch",
        "apter"
      ],
      [
        "ot",
        "en"
      ],
      [
        "ock",
        "ed"
      ],
      [
        "ock",
        "tro"
      ],
      [
        "im",
        "a"
      ],
      [
        "im",
        "en"
      ],
      [
        "im",
        "ped"
      ],
      [
        "am",
        "i"
      ],
      [
        "am",
        "er"
      ],
      [
        "am",
        "oun"
      ],
      [
        "am",
        "ong"
      ],
      [
        "po",
        "or"
      ],
      [
        "po",
        "st"
      ],
      [
        "po",
        "wer"
      ],
      [
        "po",
        "ly"
      ],
      [
        "po",
        "sts"
      ],
      [
        "po",
        "lice"
      ],
      [
        "so",
        "on"
      ],
      [
        "us",
        "a"
      ],
      [
        "us",
        "ive"
      ],
      [
        "com",
        "ic"
      ],
      [
        "com",
        "ers"
      ],
      [
        "com",
        "pr"
      ],
      [
        "com",
        "pon"
      ],
      [
        "com",
        "pose"
      ],
      [
        "com",
        "bin"
      ],
      [
        "com",
        "patible"
      ],
      [
        "ow",
        "s"
      ],
      [
        "ow",
        "ing"
      ],
      [
        "pro",
        "vi"
      ],
      [
        "pro",
        "per"
      ],
      [
        "pro",
        "gr"
      ],
      [
        "pro",
        "ve"
      ],
      [
        "pro",
        "mp"
      ],
      [
        "pro",
        "ved"
      ],
      [
        "pro",
        "vision"
      ],
      [
        "pro",
        "mot"
      ],
      [
        "pro",
        "posed"
      ],
      [
        "pro",
        "cession"
      ],
      [
        "pro",
        "bably"
      ],
      [
        "char",
        "ts"
      ],
      [
        "em",
        "pted"
      ],
      [
        "em",
        "ergen"
      ],
      [
        "em",
        "plified"
      ],
      [
        "ak",
        "s"
      ],
      [
        "ak",
        "u"
      ],
      [
        "ne",
        "t"
      ],
      [
        "ne",
        "wer"
      ],
      [
        "ne",
        "ver"
      ],
      [
        "ne",
        "ither"
      ],
      [
        "ne",
        "gat"
      ],
      [
        "eri",
        "ence"
      ],
      [
        "qu",
        "ate"
      ],
      [
        "qu",
        "ire"
      ],
      [
        "qu",
        "ant"
      ],
      [
        "qu",
        "ities"
      ],
      [
        "qu",
        "ick"
      ],
      [
        "ut",
        "ive"
      ],
      [
        "play",
        "able"
      ],
      [
        "18",
        "94"
      ],
      [
        "est",
        "s"
      ],
      [
        "est",
        "yle"
      ],
      [
        "ru",
        "itable"
      ],
      [
        "art",
        "ists"
      ],
      [
        "art",
        "illery"
      ],
      [
        "art",
        "icle"
      ],
      [
        "ex",
        "cl"
      ],
      [
        "ex",
        "ist"
      ],
      [
        "ex",
        "ec"
      ],
      [
        "ex",
        "pose"
      ],
      [
        "ex",
        "press"
      ],
      [
        "ex",
        "haust"
      ],
      [
        "ex",
        "onerating"
      ],
      [
        "ex",
        "ploit"
      ],
      [
        "ex",
        "emplified"
      ],
      [
        "ect",
        "ing"
      ],
      [
        "if",
        "y"
      ],
      [
        "if",
        "ul"
      ],
      [
        "ter",
        "y"
      ],
      [
        "ter",
        "ritory"
      ],
      [
        "ul",
        "ation"
      ],
      [
        "ul",
        "kn"
      ],
      [
        "St",
        "ory"
      ],
      [
        "St",
        "ories"
      ],
      [
        "ge",
        "ther"
      ],
      [
        "ge",
        "tting"
      ],
      [
        "vi",
        "er"
      ],
      [
        "ol",
        "n"
      ],
      [
        "we",
        "ary"
      ],
      [
        "over",
        "all"
      ],
      [
        "over",
        "turned"
      ],
      [
        "av",
        "eler"
      ],
      [
        "pr",
        "inc"
      ],
      [
        "pr",
        "ise"
      ],
      [
        "pr",
        "ice"
      ],
      [
        "pr",
        "ofound"
      ],
      [
        "pre",
        "ted"
      ],
      [
        "pre",
        "vent"
      ],
      [
        "pre",
        "par"
      ],
      [
        "pre",
        "ci"
      ],
      [
        "tr",
        "ack"
      ],
      [
        "tr",
        "acks"
      ],
      [
        "per",
        "man"
      ],
      [
        "per",
        "vad"
      ],
      [
        "per",
        "mit"
      ],
      [
        "per",
        "ceived"
      ],
      [
        "ten",
        "ing"
      ],
      [
        "pos",
        "si"
      ],
      [
        "des",
        "cend"
      ],
      [
        "des",
        "erters"
      ],
      [
        "ear",
        "ch"
      ],
      [
        "leas",
        "e"
      ],
      [
        "Arkans",
        "ans"
      ],
      [
        "ms",
        "on"
      ],
      [
        "ti",
        "quities"
      ],
      [
        "ord",
        "nances"
      ],
      [
        "ac",
        "ity"
      ],
      [
        "ac",
        "res"
      ],
      [
        "ac",
        "quire"
      ],
      [
        "ach",
        "ie"
      ],
      [
        "ach",
        "ita"
      ],
      [
        "ess",
        "es"
      ],
      [
        "ess",
        "ential"
      ],
      [
        "ess",
        "entially"
      ],
      [
        "du",
        "m"
      ],
      [
        "du",
        "ction"
      ],
      [
        "lo",
        "st"
      ],
      [
        "lo",
        "se"
      ],
      [
        "lo",
        "ok"
      ],
      [
        "lo",
        "cation"
      ],
      [
        "lo",
        "sses"
      ],
      [
        "no",
        "on"
      ],
      [
        "sp",
        "an"
      ],
      [
        "sp",
        "ace"
      ],
      [
        "sp",
        "eaking"
      ],
      [
        "tur",
        "ed"
      ],
      [
        "tur",
        "es"
      ],
      [
        "out",
        "posts"
      ],
      [
        "ber",
        "t"
      ],
      [
        "can",
        "non"
      ],
      [
        "can",
        "ister"
      ],
      [
        "fic",
        "ial"
      ],
      [
        "fic",
        "ient"
      ],
      [
        "man",
        "y"
      ],
      [
        "man",
        "power"
      ],
      [
        "sh",
        "all"
      ],
      [
        "sh",
        "ops"
      ],
      [
        "sh",
        "imo"
      ],
      [
        "sh",
        "ared"
      ],
      [
        "sh",
        "ows"
      ],
      [
        "si",
        "bility"
      ],
      [
        "seri",
        "ous"
      ],
      [
        "seri",
        "alized"
      ],
      [
        "work",
        "ing"
      ],
      [
        "Re",
        "cept"
      ],
      [
        "Re",
        "ady"
      ],
      [
        "Re",
        "leased"
      ],
      [
        "Re",
        "turns"
      ],
      [
        "Re",
        "bel"
      ],
      [
        "Re",
        "cord"
      ],
      [
        "Re",
        "gular"
      ],
      [
        "Re",
        "ila"
      ],
      [
        "Re",
        "lease"
      ],
      [
        "ele",
        "ct"
      ],
      [
        "id",
        "ly"
      ],
      [
        "ian",
        "ce"
      ],
      [
        "mo",
        "del"
      ],
      [
        "mis",
        "ed"
      ],
      [
        "mil",
        "es"
      ],
      [
        "main",
        "tain"
      ],
      [
        "who",
        "se"
      ],
      [
        "186",
        "3"
      ],
      [
        "previ",
        "ew"
      ],
      [
        "bu",
        "hiro"
      ],
      [
        "bu",
        "bb"
      ],
      [
        "bu",
        "dge"
      ],
      [
        "ke",
        "ep"
      ],
      [
        "mov",
        "es"
      ],
      [
        "tro",
        "pp"
      ],
      [
        "mission",
        "ing"
      ],
      [
        "Se",
        "vier"
      ],
      [
        "bo",
        "at"
      ],
      [
        "bo",
        "ons"
      ],
      [
        "bo",
        "ok"
      ],
      [
        "bo",
        "dy"
      ],
      [
        "bo",
        "osts"
      ],
      [
        "bo",
        "xes"
      ],
      [
        "cl",
        "ad"
      ],
      [
        "cl",
        "erks"
      ],
      [
        "gr",
        "ade"
      ],
      [
        "gr",
        "anted"
      ],
      [
        "gr",
        "adually"
      ],
      [
        "my",
        "steri"
      ],
      [
        "tain",
        "ed"
      ],
      [
        "ve",
        "hicles"
      ],
      [
        "ve",
        "hement"
      ],
      [
        "inst",
        "allation"
      ],
      [
        "ist",
        "ic"
      ],
      [
        "In",
        "side"
      ],
      [
        "In",
        "dian"
      ],
      [
        "aw",
        "kward"
      ],
      [
        "aw",
        "arded"
      ],
      [
        "part",
        "s"
      ],
      [
        "part",
        "ly"
      ],
      [
        "Pl",
        "ot"
      ],
      [
        "aga",
        "in"
      ],
      [
        "ec",
        "ial"
      ],
      [
        "fir",
        "med"
      ],
      [
        "lin",
        "e"
      ],
      [
        "lin",
        "k"
      ],
      [
        "lin",
        "es"
      ],
      [
        "lis",
        "ion"
      ],
      [
        "lis",
        "ten"
      ],
      [
        "sc",
        "ow"
      ],
      [
        "sc",
        "arc"
      ],
      [
        "sc",
        "ratch"
      ],
      [
        "sc",
        "ope"
      ],
      [
        "war",
        "rant"
      ],
      [
        "order",
        "ed"
      ],
      [
        "order",
        "ing"
      ],
      [
        "new",
        "ly"
      ],
      [
        "new",
        "found"
      ],
      [
        "new",
        "comers"
      ],
      [
        "M18",
        "47"
      ],
      [
        "M18",
        "42"
      ],
      [
        "M18",
        "41"
      ],
      [
        "M18",
        "55"
      ],
      [
        "ag",
        "ree"
      ],
      [
        "ag",
        "onal"
      ],
      [
        "ag",
        "onists"
      ],
      [
        "cal",
        "ome"
      ],
      [
        "cal",
        "iber"
      ],
      [
        "cus",
        "tomized"
      ],
      [
        "iz",
        "on"
      ],
      [
        "mus",
        "ical"
      ],
      [
        "other",
        "s"
      ],
      [
        "pa",
        "ge"
      ],
      [
        "pa",
        "ign"
      ],
      [
        "pa",
        "cking"
      ],
      [
        "um",
        "ably"
      ],
      [
        "offic",
        "e"
      ],
      [
        "rec",
        "ently"
      ],
      [
        "rec",
        "alled"
      ],
      [
        "rec",
        "ruitable"
      ],
      [
        "stru",
        "ction"
      ],
      [
        "under",
        "taking"
      ],
      [
        "under",
        "went"
      ],
      [
        "Con",
        "cept"
      ],
      [
        "Con",
        "way"
      ],
      [
        "Con",
        "struction"
      ],
      [
        "It",
        "suka"
      ],
      [
        "Tot",
        "al"
      ],
      [
        "Un",
        "like"
      ],
      [
        "Un",
        "recorded"
      ],
      [
        "Un",
        "mei"
      ],
      [
        "bl",
        "urring"
      ],
      [
        "mor",
        "al"
      ],
      [
        "mor",
        "ning"
      ],
      [
        "te",
        "aser"
      ],
      [
        "ver",
        "y"
      ],
      [
        "command",
        "ing"
      ],
      [
        "Ma",
        "oh"
      ],
      [
        "To",
        "kyo"
      ],
      [
        "To",
        "gether"
      ],
      [
        "med",
        "icines"
      ],
      [
        "red",
        "id"
      ],
      [
        "red",
        "eem"
      ],
      [
        "red",
        "oing"
      ],
      [
[...]
